{
  "0": "\u0000",
  "1": "\u0001",
  "2": "\u0002",
  "3": "\u0003",
  "4": "\u0004",
  "5": "\u0005",
  "6": "\u0006",
  "7": "\u0007",
  "8": "\b",
  "9": "\t",
  "10": "\n",
  "11": "\u000b",
  "12": "\f",
  "13": "\r",
  "14": "\u000e",
  "15": "\u000f",
  "16": "\u0010",
  "17": "\u0011",
  "18": "\u0012",
  "19": "\u0013",
  "20": "\u0014",
  "21": "\u0015",
  "22": "\u0016",
  "23": "\u0017",
  "24": "\u0018",
  "25": "\u0019",
  "26": "\u001a",
  "27": "\u001b",
  "28": "\u001c",
  "29": "\u001d",
  "30": "\u001e",
  "31": "\u001f",
  "32": " ",
  "33": "!",
  "34": "\"",
  "35": "#",
  "36": "$",
  "37": "%",
  "38": "&",
  "39": "'",
  "40": "(",
  "41": ")",
  "42": "*",
  "43": "+",
  "44": ",",
  "45": "-",
  "46": ".",
  "47": "/",
  "48": "0",
  "49": "1",
  "50": "2",
  "51": "3",
  "52": "4",
  "53": "5",
  "54": "6",
  "55": "7",
  "56": "8",
  "57": "9",
  "58": ":",
  "59": ";",
  "60": "<",
  "61": "=",
  "62": ">",
  "63": "?",
  "64": "@",
  "65": "A",
  "66": "B",
  "67": "C",
  "68": "D",
  "69": "E",
  "70": "F",
  "71": "G",
  "72": "H",
  "73": "I",
  "74": "J",
  "75": "K",
  "76": "L",
  "77": "M",
  "78": "N",
  "79": "O",
  "80": "P",
  "81": "Q",
  "82": "R",
  "83": "S",
  "84": "T",
  "85": "U",
  "86": "V",
  "87": "W",
  "88": "X",
  "89": "Y",
  "90": "Z",
  "91": "[",
  "92": "\\",
  "93": "]",
  "94": "^",
  "95": "_",
  "96": "`",
  "97": "a",
  "98": "b",
  "99": "c",
  "100": "d",
  "101": "e",
  "102": "f",
  "103": "g",
  "104": "h",
  "105": "i",
  "106": "j",
  "107": "k",
  "108": "l",
  "109": "m",
  "110": "n",
  "111": "o",
  "112": "p",
  "113": "q",
  "114": "r",
  "115": "s",
  "116": "t",
  "117": "u",
  "118": "v",
  "119": "w",
  "120": "x",
  "121": "y",
  "122": "z",
  "123": "{",
  "124": "|",
  "125": "}",
  "126": "~",
  "127": "",
  "128": "�",
  "129": "�",
  "130": "�",
  "131": "�",
  "132": "�",
  "133": "�",
  "134": "�",
  "135": "�",
  "136": "�",
  "137": "�",
  "138": "�",
  "139": "�",
  "140": "�",
  "141": "�",
  "142": "�",
  "143": "�",
  "144": "�",
  "145": "�",
  "146": "�",
  "147": "�",
  "148": "�",
  "149": "�",
  "150": "�",
  "151": "�",
  "152": "�",
  "153": "�",
  "154": "�",
  "155": "�",
  "156": "�",
  "157": "�",
  "158": "�",
  "159": "�",
  "160": "�",
  "161": "�",
  "162": "�",
  "163": "�",
  "164": "�",
  "165": "�",
  "166": "�",
  "167": "�",
  "168": "�",
  "169": "�",
  "170": "�",
  "171": "�",
  "172": "�",
  "173": "�",
  "174": "�",
  "175": "�",
  "176": "�",
  "177": "�",
  "178": "�",
  "179": "�",
  "180": "�",
  "181": "�",
  "182": "�",
  "183": "�",
  "184": "�",
  "185": "�",
  "186": "�",
  "187": "�",
  "188": "�",
  "189": "�",
  "190": "�",
  "191": "�",
  "192": "�",
  "193": "�",
  "194": "�",
  "195": "�",
  "196": "�",
  "197": "�",
  "198": "�",
  "199": "�",
  "200": "�",
  "201": "�",
  "202": "�",
  "203": "�",
  "204": "�",
  "205": "�",
  "206": "�",
  "207": "�",
  "208": "�",
  "209": "�",
  "210": "�",
  "211": "�",
  "212": "�",
  "213": "�",
  "214": "�",
  "215": "�",
  "216": "�",
  "217": "�",
  "218": "�",
  "219": "�",
  "220": "�",
  "221": "�",
  "222": "�",
  "223": "�",
  "224": "�",
  "225": "�",
  "226": "�",
  "227": "�",
  "228": "�",
  "229": "�",
  "230": "�",
  "231": "�",
  "232": "�",
  "233": "�",
  "234": "�",
  "235": "�",
  "236": "�",
  "237": "�",
  "238": "�",
  "239": "�",
  "240": "�",
  "241": "�",
  "242": "�",
  "243": "�",
  "244": "�",
  "245": "�",
  "246": "�",
  "247": "�",
  "248": "�",
  "249": "�",
  "250": "�",
  "251": "�",
  "252": "�",
  "253": "�",
  "254": "�",
  "255": "�",
  "256": "�",
  "257": "�",
  "258": "�",
  "259": " �",
  "260": "�",
  "261": "ा",
  "262": "e ",
  "263": "s ",
  "264": "र",
  "265": "a ",
  "266": " �",
  "267": "्",
  "268": "n ",
  "269": "े",
  "270": "nd",
  "271": "ा�",
  "272": "्�",
  "273": ", ",
  "274": "్",
  "275": "er",
  "276": "ా",
  "277": "ि",
  "278": "్�",
  "279": " क",
  "280": "ं",
  "281": "ी",
  "282": "ా�",
  "283": "l ",
  "284": "o ",
  "285": "th",
  "286": "ి",
  "287": "en",
  "288": "ि�",
  "289": "ar",
  "290": "in",
  "291": "st",
  "292": "on",
  "293": "or",
  "294": "त",
  "295": "y ",
  "296": "ు",
  "297": "de ",
  "298": "े �",
  "299": "an",
  "300": "ం",
  "301": "re",
  "302": "ti",
  "303": "the ",
  "304": "as ",
  "305": "ci",
  "306": "न",
  "307": "ndi",
  "308": "ो",
  "309": "ा �",
  "310": "os ",
  "311": "al",
  "312": "ent",
  "313": "es ",
  "314": "ి�",
  "315": ". ",
  "316": "d ",
  "317": "la ",
  "318": "ी �",
  "319": "el ",
  "320": "क",
  "321": "Indi",
  "322": "ार",
  "323": "ం�",
  "324": "and",
  "325": "्र",
  "326": "ं �",
  "327": "ad",
  "328": "al ",
  "329": "om",
  "330": "ic",
  "331": "स",
  "332": "��",
  "333": "of",
  "334": "ed ",
  "335": "at",
  "336": "es",
  "337": "en ",
  "338": " स",
  "339": "�े",
  "340": "and ",
  "341": "it",
  "342": "on ",
  "343": " के �",
  "344": "త",
  "345": "of ",
  "346": "ur",
  "347": "।",
  "348": "న",
  "349": "ల",
  "350": "ó",
  "351": "र �",
  "352": "�",
  "353": "ర",
  "354": "am",
  "355": "ु",
  "356": "�ै",
  "357": "an ",
  "358": "si",
  "359": "्य",
  "360": "�ें �",
  "361": "ing",
  "362": "म",
  "363": "ే",
  "364": "ో",
  "365": "్ర",
  "366": "ल",
  "367": "ec",
  "368": "ं�",
  "369": " ప",
  "370": "li",
  "371": "or ",
  "372": "est",
  "373": "em",
  "374": "in ",
  "375": "India ",
  "376": "य",
  "377": "�ार",
  "378": "�ारत",
  "379": "ార",
  "380": "í",
  "381": ", �",
  "382": "ro",
  "383": "er ",
  "384": "di",
  "385": "र्�",
  "386": "á",
  "387": "ri",
  "388": "as",
  "389": "క",
  "390": "ह",
  "391": "su",
  "392": "प",
  "393": "ాల",
  "394": " प",
  "395": "to ",
  "396": "un",
  "397": "ing ",
  "398": "qu",
  "399": "िय",
  "400": "िक",
  "401": "ద",
  "402": "ీ",
  "403": "de la ",
  "404": "19",
  "405": " में �",
  "406": "con",
  "407": "aci",
  "408": "los ",
  "409": "​",
  "410": "द",
  "411": "ు �",
  "412": "ान",
  "413": "ू",
  "414": "po",
  "415": "्त",
  "416": "el",
  "417": "ati",
  "418": ", �",
  "419": "व",
  "420": "श",
  "421": "t ",
  "422": "mi",
  "423": "a, ",
  "424": "ul",
  "425": "20",
  "426": ".\n",
  "427": "। �",
  "428": "se ",
  "429": "par",
  "430": "com",
  "431": "ే�",
  "432": "ac",
  "433": "ab",
  "434": "�र �",
  "435": "ón ",
  "436": " की �",
  "437": "ol",
  "438": "del ",
  "439": "th ",
  "440": "s, ",
  "441": "మ",
  "442": "ి �",
  "443": "tr",
  "444": "్య",
  "445": "ist",
  "446": "వ",
  "447": "़",
  "448": "é",
  "449": "ाज",
  "450": "ch",
  "451": "Th",
  "452": "ग",
  "453": "ో �",
  "454": "vi",
  "455": "las ",
  "456": "�్�",
  "457": "le",
  "458": ".​",
  "459": "ou",
  "460": "ar ",
  "461": "ाल",
  "462": "pe",
  "463": "ीय",
  "464": " का �",
  "465": "ver",
  "466": "ా �",
  "467": "ex",
  "468": "bi",
  "469": "co",
  "470": "ంద",
  "471": "que ",
  "472": "is",
  "473": "gr",
  "474": ". �",
  "475": " है",
  "476": "ేశ",
  "477": "is ",
  "478": "ast",
  "479": "per",
  "480": "ों",
  "481": "im",
  "482": "ध",
  "483": "ిక",
  "484": "ె",
  "485": "h ",
  "486": "्ष",
  "487": "ప",
  "488": "డ",
  "489": "00",
  "490": " न",
  "491": "ly ",
  "492": " अ",
  "493": "�ార",
  "494": "�ि�",
  "495": "gi",
  "496": "India",
  "497": "�ారత",
  "498": "్న",
  "499": "gu",
  "500": " �",
  "501": " ప్ర",
  "502": "The ",
  "503": "ड",
  "504": "ment",
  "505": "ూ",
  "506": "por ",
  "507": "ant",
  "508": "ब",
  "509": "ం �",
  "510": "ed",
  "511": "res",
  "512": "ట",
  "513": "ై",
  "514": "od",
  "515": " (",
  "516": " को",
  "517": "ma",
  "518": "for",
  "519": "ों �",
  "520": "ात",
  "521": "ిన",
  "522": "o de ",
  "523": " र",
  "524": "ás ",
  "525": "a de ",
  "526": "by ",
  "527": "inc",
  "528": "ter",
  "529": "entr",
  "530": "% ",
  "531": "्व",
  "532": "య",
  "533": "ण",
  "534": " ब",
  "535": "ó ",
  "536": "se",
  "537": "ir",
  "538": "lo",
  "539": "ै",
  "540": "pro",
  "541": "es, ",
  "542": " ज",
  "543": "ag",
  "544": "so",
  "545": "wi",
  "546": " म",
  "547": "ాన",
  "548": " त",
  "549": "�ु",
  "550": "ర్�",
  "551": "mu",
  "552": "ari",
  "553": "of the ",
  "554": "uc",
  "555": "de",
  "556": "lu",
  "557": "�्र",
  "558": "ा है",
  "559": "cu",
  "560": "más ",
  "561": "Indian ",
  "562": "pl",
  "563": "ales ",
  "564": "గ",
  "565": "ación ",
  "566": "ind",
  "567": "ones ",
  "568": "ú",
  "569": "ाम",
  "570": " और �",
  "571": "त्र",
  "572": "ज",
  "573": "ित",
  "574": "ास",
  "575": "ుల",
  "576": " प्र",
  "577": "న్న",
  "578": "s. ",
  "579": "ort",
  "580": "indi",
  "581": " స",
  "582": "िन",
  "583": "av",
  "584": " भारत",
  "585": "; ",
  "586": "cont",
  "587": "un ",
  "588": "थ",
  "589": "।\n",
  "590": "'s ",
  "591": "o, ",
  "592": "mil",
  "593": "ेश",
  "594": "ट",
  "595": "et",
  "596": "tic",
  "597": "wh",
  "598": "ి. �",
  "599": "ad ",
  "600": "ado ",
  "601": " द",
  "602": "�ा�",
  "603": " వ",
  "604": "id",
  "605": "tion",
  "606": "br",
  "607": "pa",
  "608": "ाद",
  "609": "च",
  "610": "ాయ",
  "611": "fr",
  "612": "0 ",
  "613": "una ",
  "614": "्ट",
  "615": "ente ",
  "616": "क्ष",
  "617": "ड़",
  "618": " से �",
  "619": "దేశ",
  "620": ".​ ",
  "621": "min",
  "622": " క",
  "623": "ంచ",
  "624": "\n�",
  "625": "bl",
  "626": "in the ",
  "627": "ong",
  "628": "was ",
  "629": "��",
  "630": "ాత",
  "631": "en el ",
  "632": "ृ",
  "633": "with ",
  "634": "िस",
  "635": "्द",
  "636": "ంగ",
  "637": "La ",
  "638": "con ",
  "639": "ic ",
  "640": "end",
  "641": "os",
  "642": "ori",
  "643": "form",
  "644": "e, ",
  "645": "ाज्य",
  "646": "�स",
  "647": "�ें",
  "648": "ent ",
  "649": "des",
  "650": "�ో �",
  "651": ". The ",
  "652": "ap",
  "653": "ధ",
  "654": "ंग",
  "655": "ाय",
  "656": "०",
  "657": "ern ",
  "658": "tur",
  "659": "pr",
  "660": "�ु�",
  "661": " कर",
  "662": "ख",
  "663": "్ట",
  "664": "ñ",
  "665": "y, ",
  "666": "्थ",
  "667": "ాలు",
  "668": "pu",
  "669": ". I",
  "670": "hi",
  "671": " and ",
  "672": ". E",
  "673": " ర",
  "674": "lar",
  "675": "man",
  "676": "ation ",
  "677": "rit",
  "678": "ada ",
  "679": " व",
  "680": "ింద",
  "681": "en la ",
  "682": "mar",
  "683": "pre",
  "684": "port",
  "685": "at ",
  "686": " ह",
  "687": "econ",
  "688": "ां",
  "689": "�क",
  "690": "mo",
  "691": "st ",
  "692": "ere ",
  "693": "go",
  "694": "201",
  "695": "de la India ",
  "696": "ici",
  "697": "sh",
  "698": "om ",
  "699": "as, ",
  "700": "भ",
  "701": "�ారతదేశ",
  "702": "్ల",
  "703": "క్�",
  "704": "ీయ",
  "705": " y ",
  "706": "a y ",
  "707": "oc",
  "708": "no ",
  "709": "has ",
  "710": "gh",
  "711": "fu",
  "712": "ism",
  "713": "ud",
  "714": " ग",
  "715": "ष",
  "716": "था �",
  "717": " के स",
  "718": "from ",
  "719": " के",
  "720": "il",
  "721": "ation",
  "722": "ay",
  "723": "ich ",
  "724": "�ैं",
  "725": "ak",
  "726": "ang",
  "727": ": ",
  "728": "్వ",
  "729": "ండ",
  "730": "ించ",
  "731": "indu",
  "732": "be",
  "733": "gen",
  "734": ", ज",
  "735": " आ",
  "736": "�్త",
  "737": " మ",
  "738": "como ",
  "739": "ía ",
  "740": "ce ",
  "741": "ed by ",
  "742": "um",
  "743": ". A",
  "744": "ी स",
  "745": "ొ",
  "746": "�ేశ",
  "747": "acion",
  "748": "ni",
  "749": "cul",
  "750": "pri",
  "751": "which ",
  "752": "au",
  "753": "र्व",
  "754": " किय",
  "755": "��",
  "756": "హ",
  "757": "స",
  "758": "para ",
  "759": "ally ",
  "760": "1 ",
  "761": "र्म",
  "762": " १�",
  "763": "कार",
  "764": "India, ",
  "765": "sub",
  "766": "me",
  "767": "ambi",
  "768": "ृत",
  "769": "�न",
  "770": "ాం",
  "771": ", the ",
  "772": "and the ",
  "773": "tu",
  "774": "ve ",
  "775": "aj",
  "776": "\n\n",
  "777": "िल",
  "778": "s of ",
  "779": "bu",
  "780": "al, ",
  "781": "200",
  "782": "ौ",
  "783": "िम",
  "784": "�ारतीय",
  "785": " वि�",
  "786": "ణ",
  "787": "os de ",
  "788": "econom",
  "789": "for ",
  "790": "af",
  "791": ".\n\n",
  "792": "tion ",
  "793": "minist",
  "794": "ीन",
  "795": "Ch",
  "796": "regi",
  "797": " के ब",
  "798": "larg",
  "799": "its ",
  "800": "le ",
  "801": "ate ",
  "802": "inclu",
  "803": "–",
  "804": "से �",
  "805": "ाँ",
  "806": "�र",
  "807": "ाव",
  "808": "ిత",
  "809": "enci",
  "810": "to the ",
  "811": "ear",
  "812": "India's ",
  "813": "Mu",
  "814": "w ",
  "815": "itu",
  "816": "no",
  "817": "mer",
  "818": "sid",
  "819": "ाप",
  "820": " 19",
  "821": "ాలు �",
  "822": "చ",
  "823": "est ",
  "824": "soci",
  "825": "bo",
  "826": "peri",
  "827": "ha ",
  "828": " उ",
  "829": " भ",
  "830": "ा स",
  "831": "�ाष",
  "832": "�్థ",
  "833": "wor",
  "834": ". In ",
  "835": "contin",
  "836": "ica ",
  "837": "lan",
  "838": "were ",
  "839": "cre",
  "840": "part",
  "841": " श",
  "842": "ంలో �",
  "843": "añ",
  "844": "ados ",
  "845": "ain",
  "846": "up",
  "847": "pi",
  "848": "sul",
  "849": "we",
  "850": "ber",
  "851": "os, ",
  "852": "िण",
  "853": "ने",
  "854": "ाथ",
  "855": "ుత",
  "856": "ంట",
  "857": "ón",
  "858": "pul",
  "859": "nor",
  "860": "cl",
  "861": "ect",
  "862": "ali",
  "863": " ने �",
  "864": " में",
  "865": " ल",
  "866": "ंत्र",
  "867": "ई",
  "868": "र्ष",
  "869": "ైన",
  "870": "్ �",
  "871": "​ ",
  "872": "eron ",
  "873": "Asi",
  "874": "are ",
  "875": "Ind",
  "876": "asi",
  "877": "trad",
  "878": "dur",
  "879": " च",
  "880": "ు ప",
  "881": "లో �",
  "882": "భ",
  "883": "paí",
  "884": "lo ",
  "885": "nacion",
  "886": "stitu",
  "887": "ा के �",
  "888": "ंस",
  "889": " य",
  "890": "ना �",
  "891": "ते �",
  "892": " सं�",
  "893": "ूप",
  "894": "ాజ",
  "895": "ambié",
  "896": ", and ",
  "897": "ament",
  "898": "stem",
  "899": "op",
  "900": "str",
  "901": "199",
  "902": "धिक",
  "903": "क्षिण",
  "904": " हैं",
  "905": " की स",
  "906": "ा, �",
  "907": "ोग",
  "908": " के साथ",
  "909": "ద్�",
  "910": "ూడ",
  "911": "ుక",
  "912": "ambién ",
  "913": "lat",
  "914": "ong ",
  "915": "k ",
  "916": "ter ",
  "917": "peci",
  "918": "ing the ",
  "919": "pres",
  "920": "sur",
  "921": " 1",
  "922": "िन्द",
  "923": " से",
  "924": "‌",
  "925": "्षे",
  "926": "�र",
  "927": "ा ज",
  "928": "रकार",
  "929": "�ో",
  "930": "the",
  "931": "mill",
  "932": "gan",
  "933": "reli",
  "934": "lit",
  "935": "ed in ",
  "936": "ical ",
  "937": "vern",
  "938": "fer",
  "939": "ext",
  "940": ") ",
  "941": "ene ",
  "942": "do ",
  "943": "्रे",
  "944": "के �",
  "945": "्क",
  "946": " तक",
  "947": " हो",
  "948": "ाई",
  "949": "ने �",
  "950": " हु�",
  "951": "ंद",
  "952": " क्षे",
  "953": " क्षेत्र",
  "954": "ాష",
  "955": "ులు",
  "956": "án",
  "957": "o de la ",
  "958": " % ",
  "959": "popul",
  "960": "cent",
  "961": "mod",
  "962": "ely ",
  "963": " पर �",
  "964": "्ध",
  "965": "ंध",
  "966": "ంత",
  "967": "es de ",
  "968": ".​\n",
  "969": "a. ",
  "970": "eng",
  "971": "low",
  "972": "og",
  "973": "int",
  "974": "duc",
  "975": "mon",
  "976": "fi",
  "977": "ment ",
  "978": "्ल",
  "979": "फ",
  "980": "ुस",
  "981": "ा ग",
  "982": " सम",
  "983": "ों में �",
  "984": "ढ",
  "985": "क्त",
  "986": "�న్న",
  "987": "ిగ",
  "988": "క్ష",
  "989": "�ి�",
  "990": "లు �",
  "991": "may",
  "992": "ción ",
  "993": "ce",
  "994": "tim",
  "995": "ev",
  "996": "CE",
  "997": "ity ",
  "998": "bec",
  "999": "religi",
  "1000": "ast ",
  "1001": "ary ",
  "1002": "202",
  "1003": "all",
  "1004": "hab",
  "1005": "sig",
  "1006": "बसे �",
  "1007": "। भारत",
  "1008": "्च",
  "1009": "ाक",
  "1010": "त्त",
  "1011": "ी है",
  "1012": "िर",
  "1013": " के ल",
  "1014": "ुख",
  "1015": "ाण",
  "1016": " और",
  "1017": " २",
  "1018": "ువ",
  "1019": "ు�",
  "1020": "లు",
  "1021": "alment",
  "1022": "también ",
  "1023": "la India ",
  "1024": "su ",
  "1025": ", el ",
  "1026": "ando ",
  "1027": "ra",
  "1028": "00 ",
  "1029": "dis",
  "1030": "eri",
  "1031": "ass",
  "1032": "ll",
  "1033": "ami",
  "1034": "gener",
  "1035": "prim",
  "1036": "eg",
  "1037": "son ",
  "1038": "ा और �",
  "1039": "ाओ",
  "1040": "ाष",
  "1041": "ढ़",
  "1042": "ुन",
  "1043": "\n�",
  "1044": "ॉ",
  "1045": "్చ",
  "1046": " జ",
  "1047": "o y ",
  "1048": "ante ",
  "1049": "as de ",
  "1050": "aciones ",
  "1051": "El ",
  "1052": "Los ",
  "1053": "dem",
  "1054": "omin",
  "1055": "ans",
  "1056": "rec",
  "1057": "res ",
  "1058": "centur",
  "1059": "Com",
  "1060": "195",
  "1061": "hist",
  "1062": "—",
  "1063": "�ेश",
  "1064": "ा। �",
  "1065": "ाष्ट",
  "1066": "ाष्ट्र",
  "1067": " कार",
  "1068": "ామ",
  "1069": "ను �",
  "1070": "ిప",
  "1071": "్‌",
  "1072": "La India ",
  "1073": "mient",
  "1074": "bre ",
  "1075": "ed by the ",
  "1076": "ver ",
  "1077": "guag",
  "1078": "ame ",
  "1079": "fir",
  "1080": "lion ",
  "1081": "), ",
  "1082": "har",
  "1083": "urb",
  "1084": "emp",
  "1085": "8 ",
  "1086": "elec",
  "1087": " तथा �",
  "1088": "�था �",
  "1089": "ीत",
  "1090": "। ",
  "1091": "ीं �",
  "1092": "हु",
  "1093": "ता है",
  "1094": "ठ",
  "1095": " १९�",
  "1096": "ారు",
  "1097": "almente ",
  "1098": "pobl",
  "1099": "ún ",
  "1100": "dos ",
  "1101": "tiene ",
  "1102": "amente ",
  "1103": "bier",
  "1104": "ir ",
  "1105": "diver",
  "1106": "Hindu",
  "1107": "cast",
  "1108": "cri",
  "1109": "govern",
  "1110": "gh ",
  "1111": "ucle",
  "1112": "fic",
  "1113": "Go",
  "1114": "ंग्रे",
  "1115": "ोल",
  "1116": " जन",
  "1117": "ूर्व",
  "1118": "�र �",
  "1119": " बन",
  "1120": "ुर",
  "1121": "िए",
  "1122": " पर",
  "1123": "గా �",
  "1124": " అ",
  "1125": "జ",
  "1126": "ం, �",
  "1127": "బ",
  "1128": "este ",
  "1129": "ved ",
  "1130": "000 ",
  "1131": "tan",
  "1132": "medi",
  "1133": "ated ",
  "1134": "ot",
  "1135": "inf",
  "1136": "parti",
  "1137": "gro",
  "1138": "vid",
  "1139": "centr",
  "1140": "ministr",
  "1141": "und",
  "1142": " का स",
  "1143": "म्�",
  "1144": "र्थ",
  "1145": "ी, �",
  "1146": " के बाद",
  "1147": "ియ",
  "1148": "ధిక",
  "1149": "mic",
  "1150": ". En ",
  "1151": "ores ",
  "1152": "Ar",
  "1153": "ne",
  "1154": "subcontin",
  "1155": "languag",
  "1156": "region",
  "1157": "leg",
  "1158": "Con",
  "1159": "territ",
  "1160": "196",
  "1161": "dan",
  "1162": "�क्षिण",
  "1163": " थ",
  "1164": "�र्म",
  "1165": "द्ध",
  "1166": " एक",
  "1167": "ा गय",
  "1168": "ासन",
  "1169": "४",
  "1170": "२",
  "1171": "ంలో",
  "1172": "ి, �",
  "1173": "ాక",
  "1174": "ిల",
  "1175": "ాద",
  "1176": "mund",
  "1177": "parte ",
  "1178": "a la ",
  "1179": "worl",
  "1180": "47",
  "1181": "ay ",
  "1182": "it ",
  "1183": "ord",
  "1184": "ave ",
  "1185": "art",
  "1186": "s and ",
  "1187": "col",
  "1188": "18",
  "1189": "gre",
  "1190": "ch ",
  "1191": "agr",
  "1192": "so ",
  "1193": "inci",
  "1194": "territori",
  "1195": "emb",
  "1196": "sus ",
  "1197": " ए",
  "1198": "�्व",
  "1199": "्न",
  "1200": "ीक",
  "1201": " साम",
  "1202": "े स",
  "1203": "िश",
  "1204": "ा न",
  "1205": "�ह",
  "1206": " దేశ",
  "1207": "�ూడ",
  "1208": " న",
  "1209": "ట్ట",
  "1210": "ింది. �",
  "1211": "ంగా �",
  "1212": "ృ",
  "1213": "ాయి. �",
  "1214": "entre ",
  "1215": "cada ",
  "1216": "y la ",
  "1217": "Sou",
  "1218": "west",
  "1219": "ob",
  "1220": "year",
  "1221": "dec",
  "1222": "ef",
  "1223": "first ",
  "1224": "ther ",
  "1225": "sy",
  "1226": "es. ",
  "1227": "tiv",
  "1228": "ser",
  "1229": "be ",
  "1230": "Cong",
  "1231": "Congres",
  "1232": "197",
  "1233": "erci",
  "1234": "cad",
  "1235": "ez",
  "1236": "प्र",
  "1237": "िव",
  "1238": " कर �",
  "1239": "ाह",
  "1240": "१�",
  "1241": "త్�",
  "1242": "ార్�",
  "1243": "�ారతీయ",
  "1244": "lí",
  "1245": "és ",
  "1246": "En ",
  "1247": "as y ",
  "1248": "Re",
  "1249": "ous ",
  "1250": "sou",
  "1251": "north",
  "1252": "gin",
  "1253": "ed to ",
  "1254": "lim",
  "1255": "pan",
  "1256": "sh ",
  "1257": "4 ",
  "1258": "milit",
  "1259": "ai",
  "1260": "cultur",
  "1261": "especi",
  "1262": "ru",
  "1263": "et ",
  "1264": "car",
  "1265": " भारतीय",
  "1266": " भाष",
  "1267": "ों को",
  "1268": "ाच",
  "1269": "ति",
  "1270": "ाओं",
  "1271": "ंद्र",
  "1272": "रिक",
  "1273": "ए",
  "1274": " के न",
  "1275": "�ाज",
  "1276": "धान",
  "1277": "�धिक",
  "1278": "�్వ",
  "1279": " శ",
  "1280": "ాబ",
  "1281": "చ్చ",
  "1282": "ేర",
  "1283": ",​ ",
  "1284": "ones de ",
  "1285": "aron ",
  "1286": "otr",
  "1287": "por la ",
  "1288": "princi",
  "1289": " de ",
  "1290": "o-",
  "1291": "ya ",
  "1292": "became ",
  "1293": "ech",
  "1294": "olog",
  "1295": "system",
  "1296": "tri",
  "1297": "fin",
  "1298": "imal",
  "1299": ", which ",
  "1300": "tod",
  "1301": "ogr",
  "1302": "dev",
  "1303": " 2",
  "1304": "198",
  "1305": "import",
  "1306": "्म",
  "1307": "�िन्द",
  "1308": "ील",
  "1309": "ंड",
  "1310": " संस",
  "1311": "ैन",
  "1312": ", जिस",
  "1313": "ोड़",
  "1314": "ाता है",
  "1315": "ाए",
  "1316": "स्त",
  "1317": "�ाज्य",
  "1318": "ిస్త",
  "1319": "ాష్ట",
  "1320": "ాష్ట్ర",
  "1321": "క్క",
  "1322": "ాగ",
  "1323": "ని �",
  "1324": "్రీ",
  "1325": "ి.\n",
  "1326": "ిర",
  "1327": "ాతీయ",
  "1328": "encia ",
  "1329": "ación de ",
  "1330": "y el ",
  "1331": "Pak",
  "1332": "Pakist",
  "1333": "into ",
  "1334": "ik",
  "1335": "tw",
  "1336": "but ",
  "1337": "India has ",
  "1338": "been ",
  "1339": "atic",
  "1340": "incre",
  "1341": "th centur",
  "1342": "divers",
  "1343": "vir",
  "1344": "have ",
  "1345": "them",
  "1346": "mor",
  "1347": "grand",
  "1348": "uni",
  "1349": "1,",
  "1350": "uclear ",
  "1351": "iz",
  "1352": " इ",
  "1353": "्कृत",
  "1354": "र्ण",
  "1355": "ी और �",
  "1356": "�ी �",
  "1357": "�ो",
  "1358": "ें �",
  "1359": "५",
  "1360": "ता �",
  "1361": "ेख",
  "1362": " कु",
  "1363": " के अन",
  "1364": "�ारत में �",
  "1365": "�ह",
  "1366": "ద్ద",
  "1367": "ంది. �",
  "1368": "ిమ",
  "1369": "్మ",
  "1370": "\nభారతదేశ",
  "1371": "a del ",
  "1372": "enta ",
  "1373": "sobre ",
  "1374": "bierno ",
  "1375": "most ",
  "1376": "on the ",
  "1377": "Beng",
  "1378": "had ",
  "1379": "sed ",
  "1380": "Bud",
  "1381": "ativ",
  "1382": "ig",
  "1383": "influ",
  "1384": "ased ",
  "1385": "nu",
  "1386": "rat",
  "1387": "vari",
  "1388": "enc",
  "1389": "produc",
  "1390": "such ",
  "1391": "ah",
  "1392": "also ",
  "1393": "num",
  "1394": "por",
  "1395": "ra ",
  "1396": "5 ",
  "1397": "qui",
  "1398": "�ड़",
  "1399": "कि",
  "1400": "्तान",
  "1401": " स्थ",
  "1402": "ाग",
  "1403": "ीव",
  "1404": "ालय",
  "1405": "्प",
  "1406": "ाब",
  "1407": "स्थ",
  "1408": "�प",
  "1409": " भी �",
  "1410": "र्त",
  "1411": "ा जाता है",
  "1412": "००",
  "1413": "न्द",
  "1414": " सरकार",
  "1415": " చ",
  "1416": "స్థ",
  "1417": "ి ప",
  "1418": ", ప",
  "1419": "్యవ",
  "1420": "�్య",
  "1421": "మైన",
  "1422": " భ",
  "1423": "్, �",
  "1424": "ౌ",
  "1425": "ంత్ర",
  "1426": " ఆ",
  "1427": " సం�",
  "1428": "ికి �",
  "1429": "్ప",
  "1430": "comerci",
  "1431": ". El ",
  "1432": "por el ",
  "1433": "os de la ",
  "1434": "gran ",
  "1435": "epe",
  "1436": "world",
  "1437": "ts ",
  "1438": " of ",
  "1439": "stat",
  "1440": "rel",
  "1441": "rul",
  "1442": "after ",
  "1443": "maj",
  "1444": "liter",
  "1445": "ome ",
  "1446": "tradi",
  "1447": "ales",
  "1448": "ant ",
  "1449": "such as ",
  "1450": "s, and ",
  "1451": "e of ",
  "1452": "2 ",
  "1453": "amp",
  "1454": "more ",
  "1455": "17",
  "1456": "can",
  "1457": "ades ",
  "1458": "3 ",
  "1459": "bre",
  "1460": "�ें स",
  "1461": " के प",
  "1462": "�त्त",
  "1463": " है। �",
  "1464": "की �",
  "1465": "ा।\n",
  "1466": "दान",
  "1467": "त्य",
  "1468": "ंब",
  "1469": " हुआ",
  "1470": " के लिए",
  "1471": "ाप्त",
  "1472": "मुख",
  "1473": " केंद्र",
  "1474": "ा है। �",
  "1475": " देश",
  "1476": "ते हैं",
  "1477": "हल",
  "1478": "ँ",
  "1479": "ी क",
  "1480": " राज्य",
  "1481": "�క",
  "1482": "ము",
  "1483": "తర",
  "1484": "mayor ",
  "1485": "as que ",
  "1486": "ido ",
  "1487": "rí",
  "1488": "princip",
  "1489": "ación",
  "1490": "al de ",
  "1491": "coun",
  "1492": "South ",
  "1493": "largest ",
  "1494": "indepe",
  "1495": "hu",
  "1496": ". Th",
  "1497": "emer",
  "1498": "uro",
  "1499": "Budd",
  "1500": "ta ",
  "1501": ". D",
  "1502": "a f",
  "1503": "ture",
  "1504": "two ",
  "1505": "es of ",
  "1506": "e and ",
  "1507": "act",
  "1508": "rou",
  "1509": "million ",
  "1510": "over ",
  "1511": "thou",
  "1512": "our",
  "1513": "En",
  "1514": "both ",
  "1515": "ach",
  "1516": "bet",
  "1517": "0,",
  "1518": "sec",
  "1519": "s in ",
  "1520": "plac",
  "1521": "A ",
  "1522": "pen",
  "1523": "prime ",
  "1524": "prime minist",
  "1525": "Un",
  "1526": "der ",
  "1527": "ीप",
  "1528": "ा।",
  "1529": "मान",
  "1530": "�ो",
  "1531": "ों का �",
  "1532": "�ु",
  "1533": "ूर",
  "1534": "७",
  "1535": "�िध",
  "1536": "�ొ",
  "1537": "ాస",
  "1538": "త్త",
  "1539": "ాట",
  "1540": "ాజ్య",
  "1541": " త",
  "1542": "país ",
  "1543": "se con",
  "1544": "a el ",
  "1545": "os y ",
  "1546": "tradici",
  "1547": "dé",
  "1548": "is the ",
  "1549": "ence ",
  "1550": "south",
  "1551": ". S",
  "1552": "lif",
  "1553": "BCE",
  "1554": "Em",
  "1555": "estab",
  "1556": "Asia ",
  "1557": "inter",
  "1558": "s. The ",
  "1559": "riti",
  "1560": "ans ",
  "1561": "anges ",
  "1562": "modern ",
  "1563": "ement",
  "1564": "that ",
  "1565": "tradition",
  "1566": "Constitu",
  "1567": "origin",
  "1568": "ond",
  "1569": "ween ",
  "1570": "includ",
  "1571": "urban",
  "1572": "contro",
  "1573": "cau",
  "1574": "ric",
  "1575": "to be ",
  "1576": "government ",
  "1577": "fol",
  "1578": "ational ",
  "1579": "constitu",
  "1580": "Himal",
  "1581": "Himalay",
  "1582": "Des",
  "1583": "anti",
  "1584": "dist",
  "1585": " –",
  "1586": "श्च",
  "1587": "श्चिम",
  "1588": "िस्तान",
  "1589": "�ूर्व",
  "1590": " मह",
  "1591": "ैल",
  "1592": " धर्म",
  "1593": "ी। �",
  "1594": " में स",
  "1595": "ध्य",
  "1596": "�े �",
  "1597": "ीर",
  "1598": "्यव",
  "1599": "कर �",
  "1600": "\nभारत",
  "1601": "ेट",
  "1602": "ीस",
  "1603": " वर्ष",
  "1604": "हर",
  "1605": " के म",
  "1606": "ोक",
  "1607": "ों की �",
  "1608": "�हु",
  "1609": "ेल",
  "1610": "స్త",
  "1611": "నే",
  "1612": "ాణ",
  "1613": " ద",
  "1614": "�ం�",
  "1615": "ులు �",
  "1616": "ున్న",
  "1617": "ింది",
  "1618": " పర",
  "1619": "లో",
  "1620": "�న్న",
  "1621": "ళ",
  "1622": "ado de ",
  "1623": "país",
  "1624": "án ",
  "1625": "a de las ",
  "1626": "fue ",
  "1627": "antes ",
  "1628": "población ",
  "1629": "entes ",
  "1630": "a los ",
  "1631": "a\n",
  "1632": "za ",
  "1633": "de la India",
  "1634": "fuer",
  "1635": "adas ",
  "1636": "polí",
  "1637": "publ",
  "1638": "are",
  "1639": "1947",
  "1640": "ound",
  "1641": "Chin",
  "1642": "Ne",
  "1643": "a m",
  "1644": "ones",
  "1645": "us ",
  "1646": "urope",
  "1647": "ed the ",
  "1648": "her",
  "1649": "this ",
  "1650": "Briti",
  "1651": "on-",
  "1652": "sist",
  "1653": "eder",
  "1654": "1.",
  "1655": "grow",
  "1656": "ine",
  "1657": "us",
  "1658": "tt",
  "1659": "ple ",
  "1660": ".\nThe ",
  "1661": "ho",
  "1662": "ow",
  "1663": "agric",
  "1664": "agricul",
  "1665": "inv",
  "1666": "ens",
  "1667": "class",
  "1668": "ose ",
  "1669": "administr",
  "1670": "their ",
  "1671": "all ",
  "1672": "t of ",
  "1673": "loc",
  "1674": "anc",
  "1675": "arm",
  "1676": "du",
  "1677": "Congress ",
  "1678": "rur",
  "1679": "anci",
  "1680": "% of ",
  "1681": "der",
  "1682": "han ",
  "1683": "nuclear ",
  "1684": "sic",
  "1685": "arro",
  "1686": "ez ",
  "1687": "राज्य",
  "1688": "ंग्रेज",
  "1689": "शिय",
  "1690": "ाकिस्तान",
  "1691": "�स",
  "1692": " रह",
  "1693": " राज",
  "1694": "�न",
  "1695": "�ासन",
  "1696": "ता",
  "1697": " का प्र",
  "1698": "्वत",
  "1699": "्ह",
  "1700": "�न",
  "1701": "द्य",
  "1702": " में भारत",
  "1703": "ूम",
  "1704": "ुसार",
  "1705": "ाचीन",
  "1706": "देश",
  "1707": "ेत",
  "1708": "�ि",
  "1709": "ाति",
  "1710": "ीच",
  "1711": "६",
  "1712": "ाध",
  "1713": "ारी �",
  "1714": " कारण",
  "1715": " राष्ट्र",
  "1716": "�िधान",
  "1717": "�श",
  "1718": "ुनाव",
  "1719": "్యవస్థ",
  "1720": "ం క",
  "1721": "ా, �",
  "1722": "�ింద",
  "1723": "ులు, �",
  "1724": "ద్ధ",
  "1725": "కు �",
  "1726": "ిన్న",
  "1727": "్రమ",
  "1728": "ెండ",
  "1729": "ార్గ",
  "1730": " రై",
  "1731": "cost",
  "1732": "​ y ",
  "1733": "sistem",
  "1734": "econó",
  "1735": "Mundi",
  "1736": ".​\n\n",
  "1737": "propi",
  "1738": "polític",
  "1739": "átic",
  "1740": "poder ",
  "1741": "incluy",
  "1742": "endo ",
  "1743": "ince ",
  "1744": "ocr",
  "1745": "ath",
  "1746": "western ",
  "1747": "from the ",
  "1748": "sup",
  "1749": "hi ",
  "1750": "Mugh",
  "1751": "prom",
  "1752": "of India ",
  "1753": "1950",
  "1754": "per ",
  "1755": "y\n",
  "1756": "\" ",
  "1757": "ld ",
  "1758": "i, ",
  "1759": "many ",
  "1760": "era ",
  "1761": "between ",
  "1762": ". C",
  "1763": "with the ",
  "1764": "te",
  "1765": "ok",
  "1766": "26",
  "1767": "able ",
  "1768": "ted ",
  "1769": "atur",
  "1770": "trans",
  "1771": "sm",
  "1772": "ces",
  "1773": "ele",
  "1774": "direc",
  "1775": "Pro",
  "1776": "isl",
  "1777": "II",
  "1778": "5, ",
  "1779": "BJ",
  "1780": "BJP",
  "1781": "general ",
  "1782": "fami",
  "1783": "crit",
  "1784": "आ",
  "1785": "�ाकिस्तान",
  "1786": "ा थ",
  "1787": "्राज्य",
  "1788": "री �",
  "1789": "्यवस्थ",
  "1790": " करोड़",
  "1791": "ियाँ",
  "1792": " के व",
  "1793": "र्ज",
  "1794": "�ाग",
  "1795": " अन",
  "1796": "�ंध",
  "1797": "�न",
  "1798": "्वार",
  "1799": "हीं �",
  "1800": " है।\n",
  "1801": " विश्व",
  "1802": "ार्ट",
  "1803": " न्य",
  "1804": "నా�",
  "1805": "�్థాన",
  "1806": "ాంత",
  "1807": " ఉ",
  "1808": "ాలు, �",
  "1809": "ష",
  "1810": "�ె",
  "1811": "ధాన",
  "1812": "ి క",
  "1813": "�త",
  "1814": "ధికార",
  "1815": "desde ",
  "1816": "o, el ",
  "1817": "india ",
  "1818": "económic",
  "1819": "creci",
  "1820": "indios ",
  "1821": "lo que ",
  "1822": "much",
  "1823": "de la India, ",
  "1824": "o del ",
  "1825": "baj",
  "1826": "décad",
  "1827": "off",
  "1828": "world's ",
  "1829": "domin",
  "1830": "northern ",
  "1831": "poli",
  "1832": "tical ",
  "1833": "mit",
  "1834": "Del",
  "1835": "ire ",
  "1836": "unj",
  "1837": "unjab",
  "1838": "economic ",
  "1839": "gan ",
  "1840": "mid",
  "1841": "adi",
  "1842": "eni",
  "1843": "speci",
  "1844": "enti",
  "1845": "ght ",
  "1846": "od ",
  "1847": "Mo",
  "1848": "pow",
  "1849": "son",
  "1850": "sion",
  "1851": "ar, ",
  "1852": "edi",
  "1853": "atr",
  "1854": "es and ",
  "1855": "sol",
  "1856": "tions ",
  "1857": "Gand",
  "1858": "repres",
  "1859": "pur",
  "1860": "tro",
  "1861": "dic",
  "1862": "1, ",
  "1863": "9 ",
  "1864": "Uni",
  "1865": "famili",
  "1866": "icial ",
  "1867": "Par",
  "1868": "oci",
  "1869": "�ंग्रेज",
  "1870": "ृष",
  "1871": "ंख",
  "1872": " में म",
  "1873": "रब",
  "1874": " संस्कृत",
  "1875": "मय",
  "1876": "ैदान",
  "1877": "�ुई",
  "1878": "काल",
  "1879": " इस",
  "1880": "ाली �",
  "1881": "्वतंत्र",
  "1882": "ी हैं",
  "1883": "�िय",
  "1884": "माण",
  "1885": "ोष",
  "1886": "ंत",
  "1887": " कई",
  "1888": " घ",
  "1889": "�ूप",
  "1890": "ून",
  "1891": "�े �",
  "1892": " क्र",
  "1893": "मंत्र",
  "1894": " के दश",
  "1895": " के दशक",
  "1896": " न्याय",
  "1897": "%)",
  "1898": "పంచ",
  "1899": " ప్రాంత",
  "1900": "ిత్ర",
  "1901": "ిల్ల",
  "1902": "ప్ర",
  "1903": "ధ్య",
  "1904": "ర్వ",
  "1905": "�్క",
  "1906": "ివ",
  "1907": "ి అ",
  "1908": "ంబ",
  "1909": "ావ",
  "1910": "ృత",
  "1911": "ీ, �",
  "1912": "ెల",
  "1913": "pú",
  "1914": "públ",
  "1915": "os del ",
  "1916": "con el ",
  "1917": "nort",
  "1918": "á ",
  "1919": "ismo ",
  "1920": "durante ",
  "1921": "ánic",
  "1922": "virti",
  "1923": "ó en ",
  "1924": "vo ",
  "1925": "lament",
  "1926": "tos ",
  "1927": "de los ",
  "1928": "jer",
  "1929": "edad ",
  "1930": "igu",
  "1931": "nacional ",
  "1932": "se en",
  "1933": "se encu",
  "1934": "se encuentr",
  "1935": ". Los ",
  "1936": ". La ",
  "1937": "mayor",
  "1938": "en las ",
  "1939": "úl",
  "1940": "en la India ",
  "1941": "comun",
  "1942": "public ",
  "1943": "since ",
  "1944": "land",
  "1945": "emerg",
  "1946": "By ",
  "1947": "Indo-",
  "1948": "export",
  "1949": "In ",
  "1950": "long",
  "1951": "Punjab",
  "1952": "British ",
  "1953": "began ",
  "1954": "ok ",
  "1955": "viol",
  "1956": "ance ",
  "1957": "ulti",
  "1958": "population ",
  "1959": "red ",
  "1960": "ā",
  "1961": "India\n",
  "1962": "ese ",
  "1963": "urban ",
  "1964": "ain ",
  "1965": "large ",
  "1966": ", a ",
  "1967": "reg",
  "1968": "aph",
  "1969": "ham",
  "1970": "histori",
  "1971": "penin",
  "1972": "serv",
  "1973": "er of ",
  "1974": "fter ",
  "1975": "tive ",
  "1976": "stic",
  "1977": "among ",
  "1978": "uj",
  "1979": "Bengal",
  "1980": "cour",
  "1981": "ut",
  "1982": "2.",
  "1983": "med",
  "1984": "contr",
  "1985": "iv",
  "1986": "presid",
  "1987": "err",
  "1988": "णराज्य",
  "1989": "ण्�",
  "1990": "्वीप",
  "1991": " हैं। �",
  "1992": "ंक",
  "1993": "ाड",
  "1994": " यह",
  "1995": "ुप",
  "1996": " साम्राज्य",
  "1997": "�्त",
  "1998": " संघ",
  "1999": "क्ति",
  "2000": "द्योग",
  "2001": "ेव",
  "2002": " रूप",
  "2003": "�न्य",
  "2004": " बहु",
  "2005": "र्ग",
  "2006": " मान",
  "2007": " प्रदेश",
  "2008": "र्माण",
  "2009": "छ",
  "2010": " के बीच",
  "2011": "ों ने �",
  "2012": "्स",
  "2013": "च्च",
  "2014": " के च",
  "2015": "ेतृत",
  "2016": "�ात",
  "2017": "ेन",
  "2018": "ैन्य",
  "2019": "�ाल",
  "2020": " के प्र",
  "2021": "�ल",
  "2022": "। १९�",
  "2023": "र्थिक",
  "2024": "ॉंग्रे",
  "2025": "ॉंग्रेस",
  "2026": "योग",
  "2027": "३",
  "2028": ", भारत",
  "2029": " 196",
  "2030": "PI",
  "2031": " ప్రపంచ",
  "2032": "శ",
  "2033": "క్షి�",
  "2034": "క్షిణ",
  "2035": "ాధ",
  "2036": "్డ",
  "2037": "�ర",
  "2038": "ను",
  "2039": " ప్రధాన",
  "2040": "ీత",
  "2041": "ానికి �",
  "2042": "బడ",
  "2043": "�ూడా �",
  "2044": "ిక వ",
  "2045": "ారు. �",
  "2046": "ార్ట",
  "2047": "está ",
  "2048": "ciud",
  "2049": "hindu",
  "2050": "más grand",
  "2051": "ér",
  "2052": "dad ",
  "2053": "Est",
  "2054": "pero ",
  "2055": "os.​ ",
  "2056": "aliz",
  "2057": "sión ",
  "2058": "emente ",
  "2059": "últim",
  "2060": "en los ",
  "2061": ". In the ",
  "2062": "And",
  "2063": "Is",
  "2064": "than ",
  "2065": "55",
  "2066": "years ",
  "2067": "cup",
  "2068": "adu",
  "2069": "enni",
  "2070": "Sans",
  "2071": "aw",
  "2072": "social ",
  "2073": "Centr",
  "2074": "Mughal ",
  "2075": "e of the ",
  "2076": "nolog",
  "2077": "e-",
  "2078": "cal",
  "2079": "parli",
  "2080": ". It ",
  "2081": "cap",
  "2082": "increased ",
  "2083": "US",
  "2084": "US$",
  "2085": "2,",
  "2086": "though ",
  "2087": "defin",
  "2088": "tion of ",
  "2089": "cur",
  "2090": "as a ",
  "2091": "13",
  "2092": "comp",
  "2093": "hum",
  "2094": "during ",
  "2095": "ten ",
  "2096": "sty",
  "2097": "Ganges ",
  "2098": "cond",
  "2099": "bir",
  "2100": "ge",
  "2101": "West",
  "2102": "cor",
  "2103": "ey ",
  "2104": "devel",
  "2105": "lead",
  "2106": "sultan",
  "2107": "ited ",
  "2108": "under ",
  "2109": "not ",
  "2110": "imperi",
  "2111": "consid",
  "2112": "reform",
  "2113": "follow",
  "2114": "stri",
  "2115": "Wor",
  "2116": "World ",
  "2117": "oper",
  "2118": "; the ",
  "2119": "election",
  "2120": "zon",
  "2121": "kh",
  "2122": "°",
  "2123": "%, ",
  "2124": "ten",
  "2125": "s\n",
  "2126": "Jan",
  "2127": "ss",
  "2128": "ecu",
  "2129": "es\n",
  "2130": "In",
  "2131": "sect",
  "2132": "2011",
  "2133": "14",
  "2134": "Ori",
  "2135": "ub",
  "2136": "धिकार",
  "2137": "रण",
  "2138": "बसे बड़",
  "2139": "ंख्य",
  "2140": "�सके �",
  "2141": "�ग",
  "2142": "ूर्ण",
  "2143": "ों पर �",
  "2144": "�त",
  "2145": " चल",
  "2146": "िट",
  "2147": "८",
  "2148": " करने",
  "2149": "�ध",
  "2150": "ेष",
  "2151": "माणु",
  "2152": "ाट",
  "2153": " के अनुसार",
  "2154": "�ूम",
  "2155": "000",
  "2156": "�ेख",
  "2157": "ना",
  "2158": ", जो",
  "2159": "ों के साथ",
  "2160": "ुल",
  "2161": " में न",
  "2162": " जात",
  "2163": "१९�",
  "2164": "धानमंत्र",
  "2165": "।\n�",
  "2166": "ुख्य",
  "2167": " कार्य",
  "2168": "जाति",
  "2169": "నాభ",
  "2170": " ప్రజ",
  "2171": "క్కువ",
  "2172": "ాలలో �",
  "2173": "�ంది. �",
  "2174": "�ిందూ",
  "2175": "ుకు",
  "2176": "ిం�",
  "2177": "ర్య",
  "2178": "ీన",
  "2179": "త్వ",
  "2180": "రణ",
  "2181": "ం వ",
  "2182": "ప్ప",
  "2183": "భుత",
  "2184": "భుత్వ",
  "2185": " గ",
  "2186": "�తర",
  "2187": "ో కూడ",
  "2188": "ించిన",
  "2189": "ాంగ",
  "2190": "\nజ",
  "2191": "�ార్గ",
  "2192": "más de ",
  "2193": "del mund",
  "2194": "ales y ",
  "2195": "mientr",
  "2196": "siglo ",
  "2197": "puest",
  "2198": ", la ",
  "2199": "economía ",
  "2200": "Las ",
  "2201": "idad ",
  "2202": "idi",
  "2203": "nú",
  "2204": "númer",
  "2205": "número de ",
  "2206": "a, el ",
  "2207": "os. ",
  "2208": "eci",
  "2209": "perí",
  "2210": "períod",
  "2211": "por los ",
  "2212": "enz",
  "2213": "años ",
  "2214": "ej",
  "2215": "musul",
  "2216": "aument",
  "2217": "primer ",
  "2218": " % de ",
  "2219": "is a ",
  "2220": "countr",
  "2221": "democr",
  "2222": "y. ",
  "2223": "ares ",
  "2224": "ers ",
  "2225": "lad",
  "2226": "east",
  "2227": "ank",
  "2228": "div",
  "2229": "Andam",
  "2230": "later ",
  "2231": "ation, ",
  "2232": "de the ",
  "2233": "millenni",
  "2234": "millennium",
  "2235": "Sansk",
  "2236": "Sanskrit",
  "2237": "Europe",
  "2238": " in ",
  "2239": "exist",
  "2240": "caste ",
  "2241": "Ma",
  "2242": "dom",
  "2243": "Emp",
  "2244": "ative ",
  "2245": "educ",
  "2246": "non-",
  "2247": "ority ",
  "2248": "throu",
  "2249": "atic ",
  "2250": "parliament",
  "2251": "36",
  "2252": "bil",
  "2253": "rate ",
  "2254": "16",
  "2255": "at the ",
  "2256": "es are ",
  "2257": "mal",
  "2258": "Ac",
  "2259": "y, the ",
  "2260": "ately ",
  "2261": "len",
  "2262": "peo",
  "2263": "Bhar",
  "2264": "men",
  "2265": "ing to ",
  "2266": "out ",
  "2267": "oli",
  "2268": "gar",
  "2269": "including ",
  "2270": "t, ",
  "2271": "new ",
  "2272": "15",
  "2273": "during the ",
  "2274": "ju",
  "2275": "ron",
  "2276": "bac",
  "2277": "ograph",
  "2278": "ren",
  "2279": "fl",
  "2280": "resp",
  "2281": "control ",
  "2282": "agricultur",
  "2283": "tem",
  "2284": ". T",
  "2285": "moder",
  "2286": "ere",
  "2287": "war",
  "2288": "mark",
  "2289": "Raj",
  "2290": "abl",
  "2291": "cru",
  "2292": "Man",
  "2293": "age ",
  "2294": "bel",
  "2295": "numb",
  "2296": "30",
  "2297": "ed a ",
  "2298": "liber",
  "2299": "mant",
  "2300": " 7",
  "2301": "3,",
  "2302": "Bi",
  "2303": "ered ",
  "2304": "da ",
  "2305": "feder",
  "2306": "Sab",
  "2307": "sector ",
  "2308": "contri",
  "2309": "contribu",
  "2310": "etari",
  "2311": " गणराज्य",
  "2312": "िप",
  "2313": "ण्ड",
  "2314": " दक्षिण",
  "2315": " है। भारत",
  "2316": "�िश्व",
  "2317": "र-",
  "2318": "ती है",
  "2319": " ईस",
  "2320": "त्प",
  "2321": "�ैदान",
  "2322": "�ताब",
  "2323": "�ताब्द",
  "2324": "्रिट",
  "2325": "ा में �",
  "2326": "दल",
  "2327": "भा�",
  "2328": " दो",
  "2329": "ुरु",
  "2330": ", स",
  "2331": " कम",
  "2332": "ंपर",
  "2333": "�न",
  "2334": " में प",
  "2335": " मिल",
  "2336": " अभ",
  "2337": "�िक",
  "2338": " यु",
  "2339": " बढ़",
  "2340": "्तु",
  "2341": " क्षेत्रीय",
  "2342": "ांस",
  "2343": "्थान",
  "2344": "�र �",
  "2345": " के कारण",
  "2346": "�प",
  "2347": "ेतृत्व",
  "2348": "�ाई",
  "2349": "े हैं",
  "2350": " के लिय",
  "2351": "न्द्र",
  "2352": "�र्थिक",
  "2353": "ूस",
  "2354": " कॉंग्रेस",
  "2355": " के चुनाव",
  "2356": "0 के दशक",
  "2357": " जनजाति",
  "2358": "ెద్ద",
  "2359": "ం. �",
  "2360": " సమ",
  "2361": "ుఖ్య",
  "2362": "�క్షిణ",
  "2363": "ియా �",
  "2364": "ర్ప",
  "2365": "�ద",
  "2366": "ిట",
  "2367": "ుకో",
  "2368": "ేద",
  "2369": " ల",
  "2370": "యిన",
  "2371": " ప్రభుత్వ",
  "2372": "�్కృత",
  "2373": "ాత్ర",
  "2374": "ెస",
  "2375": "ార్టీ",
  "2376": "ిశ",
  "2377": "దాయ",
  "2378": "millones de ",
  "2379": "lug",
  "2380": "lugar ",
  "2381": "norte ",
  "2382": "ás, ",
  "2383": "subcontinente ",
  "2384": "mientras que ",
  "2385": "se convirti",
  "2386": "estados ",
  "2387": "nacional",
  "2388": ". La India ",
  "2389": "gún ",
  "2390": ", que ",
  "2391": "habl",
  "2392": "principales ",
  "2393": "otros ",
  "2394": "cion",
  "2395": "és de ",
  "2396": "ción de ",
  "2397": "desarro",
  "2398": "vida ",
  "2399": "vez ",
  "2400": "comenz",
  "2401": "ó la ",
  "2402": "nuev",
  "2403": "que la ",
  "2404": "musulman",
  "2405": "a tr",
  "2406": "gobierno ",
  "2407": "brit",
  "2408": "británic",
  "2409": "Gobierno ",
  "2410": ".​ El ",
  "2411": ".​​",
  "2412": "Cop",
  "2413": "Copa ",
  "2414": "ven",
  "2415": "independ",
  "2416": "into the ",
  "2417": "vili",
  "2418": "200 ",
  "2419": "ning",
  "2420": "Buddh",
  "2421": "lin",
  "2422": "organ",
  "2423": "crip",
  "2424": "sti",
  "2425": "Mus",
  "2426": "Muslim",
  "2427": "resul",
  "2428": "result",
  "2429": "work",
  "2430": "Sik",
  "2431": "colon",
  "2432": "eig",
  "2433": ". A ",
  "2434": "other ",
  "2435": "Pakistan",
  "2436": "through ",
  "2437": "major ",
  "2438": "y and ",
  "2439": "military ",
  "2440": "put",
  "2441": "bas",
  "2442": "people ",
  "2443": "ep",
  "2444": "India.\n",
  "2445": "subcontinent",
  "2446": "-d",
  "2447": "India and ",
  "2448": "ically ",
  "2449": "wever",
  "2450": "sil",
  "2451": "for the ",
  "2452": "period ",
  "2453": "ation of ",
  "2454": "found",
  "2455": "main",
  "2456": "some ",
  "2457": "classical ",
  "2458": "e in ",
  "2459": "arn",
  "2460": "power ",
  "2461": "ces ",
  "2462": "y of ",
  "2463": "ma ",
  "2464": "roc",
  "2465": "kil",
  "2466": "estr",
  "2467": "ta",
  "2468": "val",
  "2469": "siv",
  "2470": "consist",
  "2471": "develop",
  "2472": "nific",
  "2473": "sch",
  "2474": "eti",
  "2475": "bal ",
  "2476": "who ",
  "2477": "post",
  "2478": "ener",
  "2479": "sum",
  "2480": "tre",
  "2481": "direct",
  "2482": "rural ",
  "2483": "ental ",
  "2484": "pes",
  "2485": "hat",
  "2486": " 4",
  "2487": "extre",
  "2488": "42",
  "2489": "pical ",
  "2490": "consider",
  "2491": "prime minister ",
  "2492": "general election",
  "2493": "government",
  "2494": "tern",
  "2495": "represent",
  "2496": "cook",
  "2497": "2011 ",
  "2498": "cen",
  "2499": "mathem",
  "2500": "esti",
  "2501": " नाम",
  "2502": " एशिय",
  "2503": " उप",
  "2504": "संख्य",
  "2505": "पाल",
  "2506": " में ब",
  "2507": "़ी �",
  "2508": "म्भ",
  "2509": "नीत",
  "2510": " काल",
  "2511": "सी �",
  "2512": "ः",
  "2513": " हिन्द",
  "2514": "ंज",
  "2515": "्रिटिश",
  "2516": "�ाष्ट्र",
  "2517": "ोलन",
  "2518": " जिस",
  "2519": " गय",
  "2520": "्हें �",
  "2521": " व्य",
  "2522": " का",
  "2523": " फ",
  "2524": "री",
  "2525": "िष",
  "2526": "ोह",
  "2527": "ेक",
  "2528": "रूप",
  "2529": "का �",
  "2530": " में प्र",
  "2531": "िह",
  "2532": "भग",
  "2533": "�िर्माण",
  "2534": " कि",
  "2535": " अप",
  "2536": " कुछ",
  "2537": "�ान",
  "2538": " हुई",
  "2539": " कुल",
  "2540": "मिल",
  "2541": " संबंध",
  "2542": ", क",
  "2543": "्त्र",
  "2544": "ूल",
  "2545": "ों से �",
  "2546": " नहीं �",
  "2547": "�हल",
  "2548": " भाषाओं",
  "2549": "�ुक्त",
  "2550": "ोप",
  "2551": "ाने",
  "2552": "ेक्ष",
  "2553": "धानमंत्री �",
  "2554": "दस",
  "2555": "दस्य",
  "2556": "।\n\n",
  "2557": "�ल",
  "2558": " है।",
  "2559": "ंट",
  "2560": "तिश",
  "2561": "९",
  "2562": "ाजप",
  "2563": "ठब",
  "2564": "मत",
  "2565": "ंधन",
  "2566": "ा का �",
  "2567": "ाख",
  "2568": " -",
  "2569": "मे",
  "2570": "ॉल",
  "2571": " या",
  "2572": "ి.",
  "2573": "ర్ణ",
  "2574": " రాష్ట్ర",
  "2575": "ేంద",
  "2576": "ిగా �",
  "2577": " బ",
  "2578": "ిహ",
  "2579": "�ండ",
  "2580": "ి స",
  "2581": "ిధ",
  "2582": " కాల",
  "2583": "ుప",
  "2584": "ింది. ",
  "2585": "�రిగ",
  "2586": "ోర",
  "2587": "�ెంద",
  "2588": "�ిర",
  "2589": "ాహ",
  "2590": "ిలో �",
  "2591": "ువాత",
  "2592": "�న్నాయి. �",
  "2593": "పు �",
  "2594": "ాచ",
  "2595": " భారత",
  "2596": "ాప",
  "2597": " సభ",
  "2598": "ాలు\n",
  "2599": " ప్రత",
  "2600": "ిళ",
  "2601": " భాష",
  "2602": "వాణ",
  "2603": "వాణా �",
  "2604": "్రీడ",
  "2605": "países ",
  "2606": "demás, ",
  "2607": "pañ",
  "2608": "siglo X",
  "2609": "es la ",
  "2610": "más grande ",
  "2611": "crecimient",
  "2612": "embar",
  "2613": "embarg",
  "2614": "e de ",
  "2615": "dio ",
  "2616": "élit",
  "2617": "idiom",
  "2618": "sí",
  "2619": "as del ",
  "2620": "hac",
  "2621": "a, la ",
  "2622": "fueron ",
  "2623": "adores ",
  "2624": "mayorí",
  "2625": "sur ",
  "2626": "segu",
  "2627": "poc",
  "2628": "lengu",
  "2629": "gober",
  "2630": "gobern",
  "2631": "cid",
  "2632": "clá",
  "2633": "sica ",
  "2634": "tradicion",
  "2635": "a las ",
  "2636": "cambi",
  "2637": "a trav",
  "2638": "reci",
  "2639": "ciones ",
  "2640": "a y el ",
  "2641": "o de la India ",
  "2642": "para la ",
  "2643": "tre ",
  "2644": "en el mund",
  "2645": "miem",
  "2646": "miembr",
  "2647": "tiene la ",
  "2648": "asa de ",
  "2649": "ríqu",
  "2650": "-largest ",
  "2651": "land ",
  "2652": "ri ",
  "2653": "a.\n",
  "2654": "human",
  "2655": "led ",
  "2656": "ving ",
  "2657": "thir",
  "2658": "millennium ",
  "2659": "arch",
  "2660": "dif",
  "2661": "early ",
  "2662": "Hinduism",
  "2663": "political ",
  "2664": ". Dur",
  "2665": "itec",
  "2666": "wom",
  "2667": "dle ",
  "2668": "language ",
  "2669": "Empire ",
  "2670": "pos",
  "2671": "alis",
  "2672": "religion",
  "2673": "e, and ",
  "2674": "Compan",
  "2675": "tech",
  "2676": "to",
  "2677": "ist ",
  "2678": "ement ",
  "2679": "majority ",
  "2680": "multi",
  "2681": "ling",
  "2682": "billion ",
  "2683": "nomin",
  "2684": "inform",
  "2685": "clas",
  "2686": "ash",
  "2687": "lev",
  "2688": "our ",
  "2689": "habit",
  "2690": "cord",
  "2691": "histor",
  "2692": "wel",
  "2693": "by the ",
  "2694": "human ",
  "2695": "citi",
  "2696": "fe",
  "2697": "atu",
  "2698": "ght",
  "2699": "anim",
  "2700": "spe",
  "2701": "s were ",
  "2702": "ing a ",
  "2703": "amil",
  "2704": "th and ",
  "2705": "wo",
  "2706": "e in the ",
  "2707": "s, the ",
  "2708": "Mah",
  "2709": "wever, ",
  "2710": "central ",
  "2711": "ies ",
  "2712": "ade ",
  "2713": "comple",
  "2714": "amil ",
  "2715": "ous",
  "2716": "signific",
  "2717": ". Al",
  "2718": "arti",
  "2719": "Sh",
  "2720": "peninsul",
  "2721": "peninsular ",
  "2722": "ing, ",
  "2723": "til",
  "2724": "cial ",
  "2725": "mat",
  "2726": "sever",
  "2727": "chang",
  "2728": "industri",
  "2729": "vic",
  "2730": "1947, ",
  "2731": "Plat",
  "2732": "xim",
  "2733": "Dec",
  "2734": "Ghat",
  "2735": "′",
  "2736": "extrem",
  "2737": "s to ",
  "2738": "46",
  "2739": "influenc",
  "2740": "tropical ",
  "2741": ".7",
  "2742": ". India ",
  "2743": "Am",
  "2744": "s are ",
  "2745": "thre",
  "2746": "az",
  "2747": "tec",
  "2748": "ata ",
  "2749": "BJP ",
  "2750": "Neh",
  "2751": "Nehru",
  "2752": "prime minister",
  "2753": "1965, ",
  "2754": "Gandhi ",
  "2755": "served ",
  "2756": "tor",
  "2757": "fund",
  "2758": "up ",
  "2759": "2022",
  "2760": "tot",
  "2761": "estim",
  "2762": "que",
  "2763": "eral",
  "2764": "dance ",
  "2765": " W",
  "2766": " Wik",
  "2767": "धिकारिक",
  "2768": "िया",
  "2769": " का सबसे बड़",
  "2770": "ेशिय",
  "2771": "ा से �",
  "2772": "ीम",
  "2773": "िमालय",
  "2774": "ा पूर्व",
  "2775": "�ुए",
  "2776": " एव",
  "2777": "ारम्भ",
  "2778": " दिय",
  "2779": "ी में",
  "2780": "ी के �",
  "2781": " किया। �",
  "2782": "ुरू",
  "2783": "�िभ",
  "2784": " किया गय",
  "2785": " 195",
  "2786": "�ढ़",
  "2787": " $",
  "2788": "ूच",
  "2789": "िका न",
  "2790": "िका नि�",
  "2791": " अस",
  "2792": " रूप से �",
  "2793": "ी में �",
  "2794": " \"",
  "2795": ", जिस�",
  "2796": "ुनिक",
  "2797": "ाएँ",
  "2798": "�व",
  "2799": "�ूप में �",
  "2800": " की सबसे �",
  "2801": "ों के �",
  "2802": " प्रकार",
  "2803": "मन",
  "2804": "े प्र",
  "2805": "�ोन",
  "2806": "�क",
  "2807": "शास",
  "2808": " इन",
  "2809": " ने",
  "2810": "�्वार",
  "2811": " की ओर �",
  "2812": " सह",
  "2813": " की",
  "2814": " सक",
  "2815": "ी न",
  "2816": " , �",
  "2817": "-स",
  "2818": "ाँकि",
  "2819": " प्ल",
  "2820": " प्लेट",
  "2821": " २००",
  "2822": "ी प",
  "2823": " के नेतृत्व",
  "2824": "ठबंधन",
  "2825": "ों में",
  "2826": ", और �",
  "2827": "ेम",
  "2828": "च्च न्याय",
  "2829": "च्च न्यायालय",
  "2830": "ोव",
  "2831": "थिय",
  "2832": "थियार",
  "2833": "मेरिक",
  "2834": " अरब",
  "2835": "కు ప",
  "2836": "�ొద",
  "2837": "ేంద్ర",
  "2838": "�క్కువ",
  "2839": "ాన్న",
  "2840": "త్తర",
  "2841": "ున",
  "2842": "�న్నాయ",
  "2843": "్ద",
  "2844": "ేస",
  "2845": "ిచ",
  "2846": "స్తుత",
  "2847": "ర్త",
  "2848": " రాజ్య",
  "2849": "ిష",
  "2850": "ాలను �",
  "2851": "ుగా �",
  "2852": "ాలు\nభారతదేశ",
  "2853": "ిద",
  "2854": " పేర",
  "2855": "ు, �",
  "2856": " మత",
  "2857": "�ంట",
  "2858": "ుడ",
  "2859": "ూప",
  "2860": "ేయ",
  "2861": "�ెండ",
  "2862": "ుగ",
  "2863": "�ారతదేశంలో �",
  "2864": "ి ప్ర",
  "2865": "�ర్ప",
  "2866": "్లో �",
  "2867": "ర్ధ",
  "2868": "ి మ",
  "2869": "ౌక",
  "2870": "ాజక",
  "2871": "ాజకీయ",
  "2872": "ది. �",
  "2873": "ాంగ్ర",
  "2874": "ాంగ్రెస",
  "2875": " పార్టీ",
  "2876": "ెలు",
  "2877": "ుంబ",
  "2878": "\nభారత",
  "2879": "\nభారతీయ",
  "2880": "es el ",
  "2881": "cual ",
  "2882": "oeste ",
  "2883": "omb",
  "2884": "independi",
  "2885": "PIB",
  "2886": "o de los ",
  "2887": "según ",
  "2888": "con una ",
  "2889": "o el ",
  "2890": "antigu",
  "2891": "ían ",
  "2892": "ario ",
  "2893": "primer",
  "2894": "conoci",
  "2895": "ampli",
  "2896": "ón de ",
  "2897": "llan",
  "2898": "llanur",
  "2899": "haci",
  "2900": "gran parte ",
  "2901": "a un ",
  "2902": "ato ",
  "2903": "es y ",
  "2904": "fuerz",
  "2905": "década de ",
  "2906": "a de la India ",
  "2907": "con la ",
  "2908": "Nacion",
  "2909": "emple",
  "2910": "entos ",
  "2911": "egún ",
  "2912": "ar de ",
  "2913": "cinc",
  "2914": "cá",
  "2915": "que se ",
  "2916": "ográ",
  "2917": "tasa de ",
  "2918": "%), ",
  "2919": "ríquet ",
  "2920": "Se",
  "2921": ". Its ",
  "2922": "years ag",
  "2923": "long ",
  "2924": "Indus ",
  "2925": "river ",
  "2926": "gradu",
  "2927": "European ",
  "2928": "vidi",
  "2929": "00 BCE",
  "2930": "Jain",
  "2931": "soli",
  "2932": "ations ",
  "2933": "Maur",
  "2934": "women ",
  "2935": "India, the ",
  "2936": "religious ",
  "2937": "theast ",
  "2938": "coast",
  "2939": "culture",
  "2940": "ned ",
  "2941": "coloni",
  "2942": "intro",
  "2943": "mov",
  "2944": "parliamentary ",
  "2945": "eth",
  "2946": "grew ",
  "2947": "capit",
  "2948": "literac",
  "2949": "increas",
  "2950": "ong the ",
  "2951": "sing ",
  "2952": "diversity ",
  "2953": "pot",
  "2954": "ew",
  "2955": "s.\n\n",
  "2956": "Eng",
  "2957": "Engli",
  "2958": "deri",
  "2959": "; and ",
  "2960": "sett",
  "2961": "th century ",
  "2962": "ini",
  "2963": "second",
  "2964": "ates ",
  "2965": "s (",
  "2966": "bar",
  "2967": ") and ",
  "2968": "a, and ",
  "2969": "ste",
  "2970": "plan",
  "2971": "old",
  "2972": "ros",
  "2973": "times ",
  "2974": "fied ",
  "2975": "based ",
  "2976": "a and ",
  "2977": "cep",
  "2978": "caused ",
  "2979": "sequ",
  "2980": "i ",
  "2981": "No ",
  "2982": "tional ",
  "2983": "alt",
  "2984": "they ",
  "2985": "nom",
  "2986": "especially ",
  "2987": "mand",
  "2988": "paint",
  "2989": "sit",
  "2990": "adv",
  "2991": "Govern",
  "2992": "arc",
  "2993": ". After ",
  "2994": "legisl",
  "2995": "es: ",
  "2996": "ly",
  "2997": "part ",
  "2998": "Plate",
  "2999": "proxim",
  "3000": "wan",
  "3001": "er, ",
  "3002": "struc",
  "3003": "continu",
  "3004": "ancient ",
  "3005": "as the ",
  "3006": "35",
  "3007": "4,",
  "3008": "endem",
  "3009": "den",
  "3010": "deci",
  "3011": "til ",
  "3012": "4, ",
  "3013": "6, ",
  "3014": "1971",
  "3015": "bod",
  "3016": "United ",
  "3017": "Dem",
  "3018": "Al",
  "3019": "Pre",
  "3020": "Ass",
  "3021": "sp",
  "3022": "exc",
  "3023": "he",
  "3024": "St",
  "3025": "ble ",
  "3026": "Delhi",
  "3027": "has been ",
  "3028": "growth ",
  "3029": "social",
  "3030": "Or",
  "3031": "Organ",
  "3032": "Organiz",
  "3033": "1991",
  "3034": "Hindi",
  "3035": "se re",
  "3036": "propor",
  "3037": "pat",
  "3038": "marri",
  "3039": "han",
  "3040": "art ",
  "3041": "scul",
  "3042": "sculp",
  "3043": "mathematic",
  "3044": "sin",
  "3045": "mus",
  "3046": "back ",
  "3047": "avi",
  "3048": "asi ",
  "3049": "en s",
  "3050": "veg",
  "3051": "eb",
  "3052": "हाद",
  "3053": "ृष्ट",
  "3054": " जनसंख्य",
  "3055": "�त्तर �",
  "3056": " स्थित",
  "3057": "�िमालय",
  "3058": " पर्व",
  "3059": "ीकरण",
  "3060": "ौर",
  "3061": "�्तृत",
  "3062": ", य",
  "3063": "ीं",
  "3064": "�ध्य",
  "3065": "ाओं �",
  "3066": " की स्थ",
  "3067": "ीं शताब्द",
  "3068": " में एक",
  "3069": "िख",
  "3070": "�ीर",
  "3071": "र्थव",
  "3072": "र्थव्यवस्थ",
  "3073": "भाव",
  "3074": " स्वतंत्र",
  "3075": ", जिन",
  "3076": " आय",
  "3077": "ती �",
  "3078": " प्रमुख",
  "3079": " कर दिय",
  "3080": "�ाद",
  "3081": "ोषण",
  "3082": "्ण",
  "3083": " सि",
  "3084": " नद",
  "3085": "ंश",
  "3086": " प्राचीन",
  "3087": "ाश",
  "3088": "ंह",
  "3089": "दि",
  "3090": "ृद्ध",
  "3091": "हु�",
  "3092": "तम",
  "3093": "�ु",
  "3094": " करना �",
  "3095": " हुए",
  "3096": "ड़ो",
  "3097": "�ग",
  "3098": "ा। इस",
  "3099": "ोट",
  "3100": "�िल",
  "3101": "िन्तु",
  "3102": "ाधिक",
  "3103": "ाने �",
  "3104": "टन",
  "3105": "शासित",
  "3106": " समाज",
  "3107": "में �",
  "3108": " की द",
  "3109": "ाहर",
  "3110": "ते हैं। �",
  "3111": "ा की �",
  "3112": "�ै। �",
  "3113": " के बाद भारत",
  "3114": "्�",
  "3115": "्‍",
  "3116": "ांध",
  "3117": " ड",
  "3118": "ंविधान",
  "3119": " समय",
  "3120": "�ालाँकि",
  "3121": "के",
  "3122": " ५",
  "3123": "वाय",
  "3124": " जो",
  "3125": "�ँ",
  "3126": "�ँच",
  "3127": "हाड",
  "3128": " कह",
  "3129": "�हुत",
  "3130": "र्वो",
  "3131": "�ोक",
  "3132": " लोक",
  "3133": " संविधान",
  "3134": " पार्ट",
  "3135": " साल",
  "3136": "ी को",
  "3137": " प्राप्त",
  "3138": "पालिक",
  "3139": "सभ",
  "3140": "िज",
  "3141": " केन्द्र",
  "3142": "हार",
  "3143": "�ूमिका नि�",
  "3144": "�ूमिका निभाई",
  "3145": " अमेरिक",
  "3146": "ी ड",
  "3147": "ట్ల",
  "3148": " స్వ",
  "3149": " వ్యవస్థ",
  "3150": "ర్ల",
  "3151": "ద్ర",
  "3152": "ము �",
  "3153": "దార",
  "3154": "ాఖ",
  "3155": "ిస్తాన",
  "3156": "ంగ్ల",
  "3157": "ాలత",
  "3158": "రిహ",
  "3159": "రిహద్ద",
  "3160": "ుకుంట",
  "3161": "ంక",
  "3162": " ద్వ",
  "3163": ", స",
  "3164": "ాబ్ద",
  "3165": "�్ర",
  "3166": "స్�",
  "3167": "ంప",
  "3168": "ెన",
  "3169": "ం చ",
  "3170": "్ క",
  "3171": "�చ్చ",
  "3172": "�వ",
  "3173": "ప్పట",
  "3174": " మధ్య",
  "3175": " స్థాన",
  "3176": "రువాత",
  "3177": " వచ్చ",
  "3178": "ుమ",
  "3179": ". ప",
  "3180": "ారు.\n",
  "3181": "డ్డ",
  "3182": "�న్నో �",
  "3183": "ంలోన",
  "3184": "ాస్త",
  "3185": "ాస్త్ర",
  "3186": "�ధికార",
  "3187": "ోర్�",
  "3188": "క్రమ",
  "3189": "థ",
  "3190": "ంగా",
  "3191": "ుంద",
  "3192": "�ాష్ట్ర",
  "3193": "పత",
  "3194": "్యధిక",
  "3195": "ినిమ",
  "3196": "ంగాల",
  "3197": "ంగీత",
  "3198": ".\nజ",
  "3199": ".\nజాతీయ",
  "3200": "ీ;",
  "3201": "ofici",
  "3202": "pública ",
  "3203": "subcontinente indi",
  "3204": "o y el ",
  "3205": "otras ",
  "3206": "como el ",
  "3207": "lleg",
  "3208": "Orient",
  "3209": "estu",
  "3210": "sistema de ",
  "3211": "rá",
  "3212": "niv",
  "3213": "mujer",
  "3214": "0 % ",
  "3215": "ás de ",
  "3216": "actu",
  "3217": "desigu",
  "3218": " % de la ",
  "3219": "fica ",
  "3220": "sigu",
  "3221": "alí",
  "3222": "para el ",
  "3223": "o.​\n",
  "3224": "tierr",
  "3225": "a de los ",
  "3226": "tili",
  "3227": "sím",
  "3228": "cuenta ",
  "3229": "a. C",
  "3230": "agrí",
  "3231": "o, la ",
  "3232": "ada en ",
  "3233": "as más ",
  "3234": "arqu",
  "3235": "óg",
  "3236": ", los ",
  "3237": "anz",
  "3238": "as, los ",
  "3239": "ó a ",
  "3240": "ó un ",
  "3241": "a y la ",
  "3242": "anos ",
  "3243": "ador ",
  "3244": "estado de ",
  "3245": "entemente ",
  "3246": "Parlament",
  "3247": "poco ",
  "3248": "gun",
  "3249": "hambr",
  "3250": "Entre ",
  "3251": "abaj",
  "3252": "zonas ",
  "3253": "Según ",
  "3254": "erra ",
  "3255": "a.​ ",
  "3256": "mú",
  "3257": "se ha ",
  "3258": "elegi",
  "3259": "cinco ",
  "3260": "primer ministr",
  "3261": "Sabha ",
  "3262": "ales de ",
  "3263": "IN",
  "3264": "INC",
  "3265": ".​ En ",
  "3266": "person",
  "3267": "placa ",
  "3268": "an el ",
  "3269": "bos",
  "3270": "millones",
  "3271": "world ",
  "3272": "Bang",
  "3273": "Banglad",
  "3274": "yan",
  "3275": "mar ",
  "3276": "Sri ",
  "3277": "Sri L",
  "3278": "Sri Lank",
  "3279": "Mal",
  "3280": "subcontinent ",
  "3281": "occup",
  "3282": "ers, ",
  "3283": "region ",
  "3284": "life ",
  "3285": "s of the ",
  "3286": "Ci",
  "3287": ". By ",
  "3288": "form of ",
  "3289": "hy",
  "3290": ". India's ",
  "3291": "es were ",
  "3292": "Buddhism",
  "3293": "consoli",
  "3294": "consolid",
  "3295": "Gup",
  "3296": "Empi",
  "3297": "there ",
  "3298": "uris",
  "3299": "unt",
  "3300": "beli",
  "3301": "king",
  "3302": "Isl",
  "3303": "Islam",
  "3304": "oro",
  "3305": "southern ",
  "3306": "Muslim ",
  "3307": "Central ",
  "3308": "plain",
  "3309": "Delhi ",
  "3310": "Vi",
  "3311": "created ",
  "3312": "ite ",
  "3313": "Hindu ",
  "3314": "Sikh",
  "3315": "ft ",
  "3316": "East ",
  "3317": "East India ",
  "3318": "East India Compan",
  "3319": "economy ",
  "3320": "wn ",
  "3321": "185",
  "3322": "Indians ",
  "3323": "technolog",
  "3324": "ide",
  "3325": "became the ",
  "3326": "fact",
  "3327": "migr",
  "3328": "compan",
  "3329": "ic, ",
  "3330": "2023",
  "3331": "this tim",
  "3332": "to US$",
  "3333": "4%",
  "3334": "become ",
  "3335": "state ",
  "3336": "high ",
  "3337": "disput",
  "3338": "ashmi",
  "3339": "r ",
  "3340": "pol",
  "3341": "support",
  "3342": "ected ",
  "3343": "English ",
  "3344": "ves ",
  "3345": "urther ",
  "3346": "An",
  "3347": "Per",
  "3348": "Persi",
  "3349": "eastern ",
  "3350": "prov",
  "3351": "river",
  "3352": "term",
  "3353": "oun",
  "3354": "app",
  "3355": "Nor",
  "3356": "popular ",
  "3357": "th century, ",
  "3358": "wid",
  "3359": "och",
  "3360": "earli",
  "3361": "s or ",
  "3362": "Moh",
  "3363": "acter",
  "3364": "te ",
  "3365": "styl",
  "3366": "figu",
  "3367": "own",
  "3368": " the ",
  "3369": "ture ",
  "3370": "s the ",
  "3371": "forest",
  "3372": "loy",
  "3373": "invol",
  "3374": "ed and ",
  "3375": "uld ",
  "3376": "�",
  "3377": "00 CE",
  "3378": "isation ",
  "3379": "sac",
  "3380": "Bra",
  "3381": "Brah",
  "3382": "in India",
  "3383": "Asia, ",
  "3384": "a (",
  "3385": "not",
  "3386": "text",
  "3387": "am ",
  "3388": "lar ",
  "3389": "es, the ",
  "3390": "began to ",
  "3391": "literatur",
  "3392": "rev",
  "3393": "respec",
  "3394": "aver",
  "3395": "far",
  "3396": "regional ",
  "3397": "whose ",
  "3398": "traditional ",
  "3399": "sho",
  "3400": "ever",
  "3401": "modern",
  "3402": "ome",
  "3403": "Buddhist",
  "3404": "unit",
  "3405": "there",
  "3406": "superi",
  "3407": "local ",
  "3408": "them ",
  "3409": "such as the ",
  "3410": "s, and the ",
  "3411": "lab",
  "3412": "commer",
  "3413": "proces",
  "3414": "red",
  "3415": "of the Indian ",
  "3416": "over the ",
  "3417": "ann",
  "3418": "no long",
  "3419": "no longer ",
  "3420": "made ",
  "3421": "hou",
  "3422": "National ",
  "3423": "depe",
  "3424": "s. Th",
  "3425": "number of ",
  "3426": "pay",
  "3427": "hel",
  "3428": "low ",
  "3429": "separ",
  "3430": ". India has ",
  "3431": "part of the ",
  "3432": "an Plate",
  "3433": "super",
  "3434": "ff",
  "3435": "a v",
  "3436": "of which ",
  "3437": "coal",
  "3438": "Western ",
  "3439": "include the ",
  "3440": "dra",
  "3441": "osi",
  "3442": "posi",
  "3443": "7,",
  "3444": "28 ",
  "3445": "union ",
  "3446": "clim",
  "3447": "play",
  "3448": "provi",
  "3449": "in India ",
  "3450": "often ",
  "3451": "mam",
  "3452": "7.",
  "3453": "40",
  "3454": "a, or ",
  "3455": ", which is ",
  "3456": "national ",
  "3457": "ei",
  "3458": "party ",
  "3459": "Janata ",
  "3460": "war ",
  "3461": "declar",
  "3462": "ame",
  "3463": "eign ",
  "3464": "fundament",
  "3465": "execu",
  "3466": "president",
  "3467": "Min",
  "3468": "perman",
  "3469": "25 ",
  "3470": "lig",
  "3471": "cordi",
  "3472": "2008",
  "3473": "Fr",
  "3474": "GD",
  "3475": "GDP",
  "3476": "0, ",
  "3477": "cin",
  "3478": "olu",
  "3479": "ai, ",
  "3480": ":\n\n",
  "3481": "official ",
  "3482": "ili",
  "3483": "o (",
  "3484": "..",
  "3485": "equi",
  "3486": "bol ",
  "3487": "music ",
  "3488": "adem",
  "3489": "ram",
  "3490": "Pr",
  "3491": "pant",
  "3492": "ingl",
  "3493": "vegetari",
  "3494": "Arch",
  "3495": "फ़",
  "3496": " का सबसे बड़ा �",
  "3497": "बकि",
  "3498": "�श्चिम",
  "3499": "�फ",
  "3500": "�ंड",
  "3501": "ुद",
  "3502": " में भारतीय",
  "3503": " ईसा पूर्व",
  "3504": "ुक",
  "3505": "ं ज",
  "3506": "नीतिक",
  "3507": "ंगा �",
  "3508": "ुप्त",
  "3509": " विस्तृत",
  "3510": "रा �",
  "3511": "�न्त",
  "3512": "तः",
  "3513": " की स्थाप",
  "3514": "�ाल",
  "3515": "ी सम",
  "3516": "ग्र",
  "3517": " संस्कृति",
  "3518": " का वि�",
  "3519": " को �",
  "3520": "�पन",
  "3521": "ोध",
  "3522": "ेज",
  "3523": "द्योगिक",
  "3524": "�ेष",
  "3525": "ाफ",
  "3526": " परमाणु",
  "3527": " रख",
  "3528": "�िवाद",
  "3529": ", ब",
  "3530": "�र्ष",
  "3531": "�र्ण",
  "3532": " मन",
  "3533": "ाम से �",
  "3534": "ा ",
  "3535": "र्तमान",
  "3536": " उत्त",
  "3537": " के अन्त",
  "3538": "तिह",
  "3539": "तिहास",
  "3540": "्रीक",
  "3541": "ता है।",
  "3542": " पूर्व",
  "3543": "ता है। �",
  "3544": "िन्न",
  "3545": "त्पाद",
  "3546": " की श",
  "3547": "�ोनों �",
  "3548": "ा कर �",
  "3549": "लग",
  "3550": "स्त्र",
  "3551": "स्व",
  "3552": "ांड",
  "3553": "र पर �",
  "3554": "ापार",
  "3555": "ाँच",
  "3556": "�ाद",
  "3557": "यास",
  "3558": " कृष",
  "3559": "�ोग",
  "3560": " द्वार",
  "3561": "ंघ",
  "3562": "ूरोप",
  "3563": "ूरोपीय",
  "3564": "ोर",
  "3565": "ें",
  "3566": " काम",
  "3567": "फल",
  "3568": "ांति",
  "3569": "ा को",
  "3570": "ओ",
  "3571": "ियों",
  "3572": "न्दोलन",
  "3573": " स्त",
  "3574": "�व",
  "3575": " राष्ट्रीय",
  "3576": "म्ब",
  "3577": "ांत",
  "3578": "दार",
  "3579": "भाष",
  "3580": ", १९�",
  "3581": "त्रिक",
  "3582": "।\nभारत",
  "3583": "ड़ोसी �",
  "3584": "१",
  "3585": "ाइ",
  "3586": "�िकास",
  "3587": "वायु",
  "3588": "पर",
  "3589": " से अधिक",
  "3590": "ी हैं। �",
  "3591": "ोढ़",
  "3592": "ा प्र",
  "3593": "ी)",
  "3594": " – (",
  "3595": "�त",
  "3596": "�तु",
  "3597": "ौस",
  "3598": " अप्र",
  "3599": " मो",
  "3600": " के चुनावों में �",
  "3601": "�ाष्ट्रीय",
  "3602": "र्थन",
  "3603": " गठबंधन",
  "3604": "जर",
  "3605": " मुख्य",
  "3606": "शासित प्रदेश",
  "3607": "्यम",
  "3608": "्ठ",
  "3609": "�शिय",
  "3610": " 198",
  "3611": " सैन्य",
  "3612": " युद्ध",
  "3613": " 199",
  "3614": "ियान",
  "3615": " लाख",
  "3616": " प्रतिश",
  "3617": " प्रतिशत",
  "3618": " अम",
  "3619": "ी डॉल",
  "3620": "रीक",
  "3621": " विदेश",
  "3622": " %",
  "3623": "�ారతదేశం",
  "3624": "�ల",
  "3625": "ాలన",
  "3626": "ర్థ",
  "3627": "�కట",
  "3628": "ీర",
  "3629": "ఖ",
  "3630": " భాగ",
  "3631": "ిజ",
  "3632": "హదార",
  "3633": "ాళ",
  "3634": "ల్ల",
  "3635": "ఫ",
  "3636": ", మ",
  "3637": "�ారతదేశం �",
  "3638": "�ల",
  "3639": "ీప",
  "3640": "ింధ",
  "3641": "రిక",
  "3642": "ు. �",
  "3643": "�హ",
  "3644": "�ిధ",
  "3645": "్యం �",
  "3646": " ప్రస్తుత",
  "3647": "�ొ",
  "3648": "�ు",
  "3649": "ండి �",
  "3650": "�్రిట",
  "3651": "ుకోవ",
  "3652": "ైట",
  "3653": " లో �",
  "3654": "తంత్ర",
  "3655": "ెట",
  "3656": "ి చెంద",
  "3657": "ప్పటిక",
  "3658": "ేన",
  "3659": "�ల",
  "3660": "ొద",
  "3661": "ిపించ",
  "3662": "ట్టణ",
  "3663": "ం, క",
  "3664": "ము�",
  "3665": "ముఖ",
  "3666": "కాల",
  "3667": "ుర",
  "3668": "�ిల్ల",
  "3669": "ీ స",
  "3670": "ంలోని �",
  "3671": " జన",
  "3672": "వర",
  "3673": "�ిన్న",
  "3674": "ాడ",
  "3675": "కార",
  "3676": " అధికార",
  "3677": "్‌స",
  "3678": "�త్యధిక",
  "3679": "ిస",
  "3680": "ోర్ట",
  "3681": "ెబ",
  "3682": "ుట",
  "3683": "నాభా �",
  "3684": "గర",
  "3685": "ాబాద",
  "3686": "ు\n",
  "3687": " రవాణా �",
  "3688": "�ై",
  "3689": " రైలు �",
  "3690": "ల్వ",
  "3691": "�డ",
  "3692": " క్రీడ",
  "3693": "ం:",
  "3694": "— ",
  "3695": "hindi",
  "3696": "ubic",
  "3697": "antes, ",
  "3698": "año ",
  "3699": ".​​ ",
  "3700": "entre los ",
  "3701": ";​ ",
  "3702": ". Además, ",
  "3703": "jain",
  "3704": "diversas ",
  "3705": "as de la ",
  "3706": "Compañ",
  "3707": "vimient",
  "3708": "territorios de la ",
  "3709": "parlament",
  "3710": "a en ",
  "3711": "tér",
  "3712": "términ",
  "3713": "sin ",
  "3714": "ingres",
  "3715": "ü",
  "3716": "«",
  "3717": "»",
  "3718": "1 % ",
  "3719": "Mundial ",
  "3720": "muy ",
  "3721": "idiomas ",
  "3722": "nacionales ",
  "3723": "áns",
  "3724": "ánscrit",
  "3725": "ía\n",
  "3726": "varios ",
  "3727": "oficial ",
  "3728": "utili",
  "3729": "smo ",
  "3730": "estat",
  "3731": "que el ",
  "3732": "varias ",
  "3733": "estado ",
  "3734": ",​ el ",
  "3735": "años, ",
  "3736": "amient",
  "3737": ". Est",
  "3738": "período ",
  "3739": "regiones ",
  "3740": "as, las ",
  "3741": "hacia el ",
  "3742": "inos ",
  "3743": "ológ",
  "3744": "ológic",
  "3745": "ías ",
  "3746": "estable",
  "3747": "as. ",
  "3748": "Im",
  "3749": "Imperi",
  "3750": "Imperio ",
  "3751": "públic",
  "3752": "occid",
  "3753": "posteri",
  "3754": "ón, ",
  "3755": "logr",
  "3756": "ado por el ",
  "3757": "desarroll",
  "3758": "lenguas ",
  "3759": "esta ",
  "3760": "sal",
  "3761": "ístic",
  "3762": "enton",
  "3763": "a través de ",
  "3764": "upos ",
  "3765": "cada vez ",
  "3766": "cada vez más ",
  "3767": "productos ",
  "3768": "ación de los ",
  "3769": "in embarg",
  "3770": "ada por ",
  "3771": "Nacional ",
  "3772": "hambrun",
  "3773": "trabaj",
  "3774": "ciones de ",
  "3775": "adamente ",
  "3776": "ación, ",
  "3777": ".​ La ",
  "3778": "mundi",
  "3779": "presidente ",
  "3780": "años",
  "3781": "cámar",
  "3782": "e, el ",
  "3783": "hast",
  "3784": "últimos ",
  "3785": "tres ",
  "3786": "echos ",
  "3787": "es.​ ",
  "3788": ") y ",
  "3789": "to de ",
  "3790": "aqu",
  "3791": "os los ",
  "3792": "endé",
  "3793": "Mundial de ",
  "3794": "millones.\n",
  "3795": "country ",
  "3796": "and, ",
  "3797": ", and the ",
  "3798": "Bengal ",
  "3799": ", it ",
  "3800": "Pakistan ",
  "3801": ", India ",
  "3802": "Nic",
  "3803": "Nicob",
  "3804": "ail",
  "3805": "Indones",
  "3806": "Indonesi",
  "3807": "Mod",
  "3808": "frica ",
  "3809": "000 years ag",
  "3810": "high",
  "3811": "emerged ",
  "3812": "1200 ",
  "3813": "record",
  "3814": "plant",
  "3815": "Jainism",
  "3816": "rise ",
  "3817": "ing of ",
  "3818": "ised ",
  "3819": "kingdom",
  "3820": "scrip",
  "3821": "Southeast ",
  "3822": "In the ",
  "3823": "oroast",
  "3824": "establi",
  "3825": "establish",
  "3826": "ently ",
  "3827": "over",
  "3828": "ultan",
  "3829": "smo",
  "3830": "mediev",
  "3831": "compos",
  "3832": "expan",
  "3833": "left ",
  "3834": "itectur",
  "3835": "exp",
  "3836": "colonial ",
  "3837": "introduc",
  "3838": "mary ",
  "3839": "4 billion ",
  "3840": "incom",
  "3841": "literacy ",
  "3842": ".6",
  "3843": "with an ",
  "3844": "middle ",
  "3845": "ty ",
  "3846": "alit",
  "3847": "Kashmi",
  "3848": "mid-",
  "3849": "fac",
  "3850": "air ",
  "3851": "wil",
  "3852": "prot",
  "3853": "ty",
  "3854": "ing to the ",
  "3855": "to a ",
  "3856": "Gre",
  "3857": "Empire",
  "3858": "Bharat",
  "3859": "] ",
  "3860": "y and the ",
  "3861": "curr",
  "3862": "Hindust",
  "3863": "widely ",
  "3864": "earliest ",
  "3865": "kno",
  "3866": "animal",
  "3867": "cat",
  "3868": ". These ",
  "3869": "around",
  "3870": "Mohen",
  "3871": "Mohenj",
  "3872": "Mohenjo-",
  "3873": "aro, ",
  "3874": "atures ",
  "3875": "animal ",
  "3876": "vill",
  "3877": "oral ",
  "3878": "Ved",
  "3879": "trib",
  "3880": "ating ",
  "3881": "east ",
  "3882": "s, or ",
  "3883": "employ",
  "3884": "however, ",
  "3885": "call",
  "3886": "differ",
  "3887": "conduc",
  "3888": "ally, ",
  "3889": "sive ",
  "3890": "bri",
  "3891": "but also ",
  "3892": "lowing ",
  "3893": "subsequ",
  "3894": "estruc",
  "3895": "ment of ",
  "3896": "tax",
  "3897": "great",
  "3898": "sel",
  "3899": "Tamil ",
  "3900": "Pand",
  "3901": "yas ",
  "3902": "ular ",
  "3903": "cultural ",
  "3904": "mak",
  "3905": "es. The ",
  "3906": "number",
  "3907": "ing in ",
  "3908": ".\nA",
  "3909": "10",
  "3910": "aval",
  "3911": "elit",
  "3912": "artist",
  "3913": "prac",
  "3914": "practic",
  "3915": "expres",
  "3916": "emper",
  "3917": "ine ",
  "3918": "regul",
  "3919": "tex",
  "3920": "es, and ",
  "3921": "e; ",
  "3922": "65",
  "3923": "further ",
  "3924": "acces",
  "3925": "to be the ",
  "3926": "point",
  "3927": "style ",
  "3928": "band",
  "3929": "a fe",
  "3930": "guar",
  "3931": "hal",
  "3932": " of the ",
  "3933": "depend",
  "3934": "fo",
  "3935": "industr",
  "3936": "more than ",
  "3937": "Gandhi",
  "3938": "s for ",
  "3939": "won ",
  "3940": "vict",
  "3941": "victori",
  "3942": "cip",
  "3943": "constitution ",
  "3944": "genci",
  "3945": "caus",
  "3946": "spre",
  "3947": "now ",
  "3948": "Gang",
  "3949": "remain",
  "3950": "survi",
  "3951": "17 ",
  "3952": "5,",
  "3953": "aksh",
  "3954": "43",
  "3955": "es; ",
  "3956": "s a ",
  "3957": "soon ",
  "3958": ".0",
  "3959": "% and ",
  "3960": "medic",
  "3961": "medicin",
  "3962": "religios",
  "3963": "India from ",
  "3964": ".8",
  "3965": "key ",
  "3966": "endang",
  "3967": "ph",
  "3968": "ard",
  "3969": "fore ",
  "3970": "ments ",
  "3971": "reser",
  "3972": "Nehru ",
  "3973": "held ",
  "3974": "until ",
  "3975": "Janu",
  "3976": "January ",
  "3977": "genc",
  "3978": "coali",
  "3979": "s. In ",
  "3980": "sing",
  "3981": "formed a ",
  "3982": "extern",
  "3983": "ari ",
  "3984": "UP",
  "3985": "y. The ",
  "3986": "6 ",
  "3987": "comm",
  "3988": "federal ",
  "3989": "Lok ",
  "3990": "Rajya ",
  "3991": "fundamental ",
  "3992": "executive ",
  "3993": "se of ",
  "3994": "Minist",
  "3995": "ers",
  "3996": "cab",
  "3997": "Ju",
  "3998": "court",
  "3999": "1965, 1971",
  "4000": "clo",
  "4001": "addi",
  "4002": "Nuclear ",
  "4003": "civili",
  "4004": "restr",
  "4005": "glo",
  "4006": "1991 ",
  "4007": "market ",
  "4008": "24",
  "4009": "was the ",
  "4010": "total ",
  "4011": "2007",
  "4012": "21",
  "4013": "mac",
  "4014": "dest",
  "4015": "2012",
  "4016": "last ",
  "4017": "censu",
  "4018": "camp",
  "4019": "Hindi ",
  "4020": "í ",
  "4021": "Keral",
  "4022": "30 ",
  "4023": "common",
  "4024": "nat",
  "4025": "wood",
  "4026": "c.",
  "4027": "c.�",
  "4028": "c. ",
  "4029": "va ",
  "4030": "al d",
  "4031": "z ",
  "4032": "danc",
  "4033": "dance",
  "4034": "dish",
  "4035": "worn ",
  "4036": "pet",
  "4037": "tico",
  "4038": "wa",
  "4039": "vegetarian",
  "4040": "que, ",
  "4041": "a; ",
  "4042": "gol",
  "4043": "militar",
  "4044": "India Arch",
  "4045": "Way",
  "4046": "Wayback ",
  "4047": "Wayback M",
  "4048": "Wayback Mach",
  "4049": "edia ",
  "4050": " दक्षिण एशिय",
  "4051": "्थित",
  "4052": "महाद",
  "4053": "महाद्वीप",
  "4054": "ृष्टि",
  "4055": "�ीन",
  "4056": "ांग",
  "4057": "ेद",
  "4058": "ौद्ध",
  "4059": "न्न",
  "4060": "ेस",
  "4061": "जन",
  "4062": "ा। ",
  "4063": " के दक्षिण",
  "4064": "ुस्ल",
  "4065": "ुस्लिम",
  "4066": "िल्ल",
  "4067": "ल्त",
  "4068": "ल्तन",
  "4069": "ल्तनत",
  "4070": " वीं शताब्द",
  "4071": "�य",
  "4072": "गर",
  "4073": "ंजाब",
  "4074": "े-",
  "4075": "�्तार",
  "4076": " अर्थव्यवस्थ",
  "4077": " शासन",
  "4078": " १८",
  "4079": "े एक",
  "4080": "ी आ",
  "4081": " करने का प्र",
  "4082": " 1947",
  "4083": "�धार",
  "4084": "कर",
  "4085": " 2011",
  "4086": " गई",
  "4087": "ुरुआ",
  "4088": "ुरुआत",
  "4089": "ाक्ष",
  "4090": "ाक्षर",
  "4091": "ौद्योगिक",
  "4092": "�ित",
  "4093": " की। �",
  "4094": "ंगीत",
  "4095": "ात्म",
  "4096": "ा है।",
  "4097": "�्रमुख",
  "4098": "ंगल",
  "4099": " जिन",
  "4100": "िए ग",
  "4101": "िए गए",
  "4102": ", त",
  "4103": "चल",
  "4104": " बहुत",
  "4105": " पहल",
  "4106": " अन्य",
  "4107": "वर्ष",
  "4108": "�ान",
  "4109": "पूर्ण",
  "4110": "हुँ",
  "4111": "हुँच",
  "4112": "्ञ",
  "4113": "वश",
  "4114": " स्व",
  "4115": "ुष",
  "4116": " अभी �",
  "4117": "सित",
  "4118": " 26",
  "4119": "ैसे �",
  "4120": "�हर",
  "4121": "�िभिन्न",
  "4122": "ुड़",
  "4123": "ी क्षेत्र",
  "4124": " का न",
  "4125": " स्थान",
  "4126": "�ोड़",
  "4127": "र्श",
  "4128": " परंपर",
  "4129": "�ाजनीतिक",
  "4130": " के रूप में �",
  "4131": "�भ",
  "4132": "िस्स",
  "4133": " किन्तु",
  "4134": " का निर्माण",
  "4135": "ी-",
  "4136": "शासन",
  "4137": "र्ध",
  "4138": "ा गया।\n",
  "4139": "ों में स",
  "4140": "सके �",
  "4141": "�त्तर",
  "4142": "ा रह",
  "4143": " कोई",
  "4144": " की त",
  "4145": "े ग",
  "4146": " व्यवस्थ",
  "4147": " पूर",
  "4148": "�ई",
  "4149": "�धुनिक",
  "4150": " की आ",
  "4151": "ंदिर",
  "4152": "ियत",
  "4153": ", म",
  "4154": "ेना के �",
  "4155": "�ै",
  "4156": "। स",
  "4157": " भाग",
  "4158": "ुर्त",
  "4159": "ुर्तग",
  "4160": "�्र",
  "4161": "�्र",
  "4162": " करने �",
  "4163": "ास्त",
  "4164": " बल",
  "4165": "ी जात",
  "4166": "ायक",
  "4167": "�ी �",
  "4168": "ाजिक",
  "4169": "ा गांध",
  "4170": "ेड",
  "4171": "‘",
  "4172": " १५",
  "4173": "धार",
  "4174": "िरप",
  "4175": "िरपेक्ष",
  "4176": "तां",
  "4177": "तांत्रिक",
  "4178": " केव",
  "4179": " केवल",
  "4180": " १९७",
  "4181": "झ",
  "4182": "�ाकिस्तान के साथ",
  "4183": " सदस्य",
  "4184": "�रमाणु",
  "4185": " सबसे �",
  "4186": "�लवायु",
  "4187": " है जो",
  "4188": "�फ्रीक",
  "4189": " है और �",
  "4190": "ी है। �",
  "4191": "हाँ",
  "4192": "ाया जाता है",
  "4193": "�व",
  "4194": " ख",
  "4195": "ी तथा �",
  "4196": " हैं।",
  "4197": "िबंध",
  "4198": " की है",
  "4199": " जाते हैं",
  "4200": ");",
  "4201": " ऋतु",
  "4202": " चार",
  "4203": "र और �",
  "4204": " १०",
  "4205": " अप्रैल",
  "4206": "सून",
  "4207": "�मिल",
  "4208": " और राज्य",
  "4209": "ों के बीच",
  "4210": " संसद",
  "4211": " पार्टिय",
  "4212": "्याद",
  "4213": " (क",
  "4214": "े भारतीय",
  "4215": " २०",
  "4216": "१४",
  "4217": "ंसद",
  "4218": "नै",
  "4219": "नैत",
  "4220": "नैतिक",
  "4221": "ृत्य",
  "4222": "रकार बन",
  "4223": "दन",
  "4224": "ा में",
  "4225": "ाध्यम",
  "4226": "�ंत्र",
  "4227": "र्वोच्च न्यायालय",
  "4228": " देशों के साथ",
  "4229": "ोत",
  "4230": "�लाव",
  "4231": " रक्ष",
  "4232": " अभियान",
  "4233": "िष्ठ",
  "4234": "ैनिक",
  "4235": " हथियार",
  "4236": "रह",
  "4237": " अरब अम",
  "4238": "ीफ",
  "4239": "ीड",
  "4240": "हिन्द",
  "4241": "ीण",
  "4242": "ूल्य",
  "4243": " या �",
  "4244": "ी और अंग्रेज",
  "4245": "ाएं �",
  "4246": "�िन्दी �",
  "4247": "िनेम",
  "4248": " मिलिय",
  "4249": " मिलियन",
  "4250": "ీర్ణ",
  "4251": "�్వామ",
  "4252": " దేశం",
  "4253": "పాల",
  "4254": " సామ",
  "4255": "క్త",
  "4256": "ాలో �",
  "4257": "ీట",
  "4258": "ముద్ర",
  "4259": "�ండ",
  "4260": "ముల",
  "4261": "ాన్ని �",
  "4262": "�నే",
  "4263": "�త్తర",
  "4264": " హిందూ",
  "4265": "�ైన",
  "4266": "ుట్ట",
  "4267": "్క",
  "4268": "�త",
  "4269": "�ివిధ",
  "4270": " వ శ",
  "4271": " వ శత",
  "4272": " వ శతాబ్ద",
  "4273": "్ ప",
  "4274": "ాతంత్ర",
  "4275": "�రిగిన",
  "4276": "క్షర",
  "4277": "్లను �",
  "4278": "�ొత్త",
  "4279": ", క",
  "4280": "ర్ష",
  "4281": "ందిన",
  "4282": "రిత్ర",
  "4283": "ాచీన",
  "4284": "ాశ",
  "4285": "త్స",
  "4286": "ోల",
  "4287": "ర్గ",
  "4288": "ాల్లో �",
  "4289": "్త",
  "4290": "ాండ",
  "4291": "ుష",
  "4292": "లత",
  "4293": "�యిన",
  "4294": "్స",
  "4295": "ుద",
  "4296": "ష్ట",
  "4297": "ం స",
  "4298": "ిద్�",
  "4299": "ిద్ధ",
  "4300": "ాలతో కూడ",
  "4301": "�న",
  "4302": "మంత్ర",
  "4303": "�ిర్వ",
  "4304": "�ిర్వహ",
  "4305": "్యాయ",
  "4306": "రాష్ట్ర",
  "4307": "ద్ధత",
  "4308": " ప్రతిప",
  "4309": "ం ప",
  "4310": "ాతావ",
  "4311": "ాతావరణ",
  "4312": " ప్రముఖ",
  "4313": " జాబ",
  "4314": " జాబిత",
  "4315": " కొ",
  "4316": "�ాతీయ",
  "4317": " 8",
  "4318": "ులు (",
  "4319": "�ిస్త",
  "4320": "మిళ",
  "4321": " పెద్ద",
  "4322": "�ె",
  "4323": "\nవ",
  "4324": "�ౌక",
  "4325": "�ౌకర్య",
  "4326": "ాధించ",
  "4327": " రైల్వ",
  "4328": "�డిపించ",
  "4329": " వంట",
  "4330": "ు మార్గ",
  "4331": "\nజాతీయ",
  "4332": "Su",
  "4333": "fici",
  "4334": "a.​\n",
  "4335": "o al ",
  "4336": "sur, ",
  "4337": "este",
  "4338": "cer",
  "4339": "grandes ",
  "4340": "os, el ",
  "4341": "ado por ",
  "4342": "mayor parte ",
  "4343": "hinduismo ",
  "4344": "a de las Indi",
  "4345": "a de las Indias ",
  "4346": "a de las Indias Orient",
  "4347": "VII",
  "4348": "estuvo ",
  "4349": "movimient",
  "4350": "a por ",
  "4351": "estados y ",
  "4352": "terc",
  "4353": "tercera ",
  "4354": "más grande del mund",
  "4355": "una de las ",
  "4356": "ráp",
  "4357": "como los ",
  "4358": "las mujer",
  "4359": ".​ A",
  "4360": "lingü",
  "4361": "alber",
  "4362": "alberg",
  "4363": "en un ",
  "4364": "miti",
  "4365": "manten",
  "4366": "pas",
  "4367": "ores de ",
  "4368": "teri",
  "4369": "una gran ",
  "4370": "renta ",
  "4371": "se encuentra ",
  "4372": "ales en ",
  "4373": "him",
  "4374": "ectos ",
  "4375": "ta re",
  "4376": "indo",
  "4377": "en el país ",
  "4378": "Estad",
  "4379": "bolos ",
  "4380": "mismo ",
  "4381": "estatus ",
  "4382": "sus propi",
  "4383": "bol",
  "4384": "nacional (",
  "4385": "ún",
  "4386": "indio",
  "4387": "habían ",
  "4388": "hace ",
  "4389": "alim",
  "4390": "ciudades ",
  "4391": "aní",
  "4392": "aria ",
  "4393": "ocup",
  "4394": "o. En ",
  "4395": "tradiciones ",
  "4396": "édic",
  "4397": "ños ",
  "4398": "importantes ",
  "4399": "os de los ",
  "4400": "model",
  "4401": "sociales ",
  "4402": "para los ",
  "4403": "inici",
  "4404": "amb",
  "4405": "estableci",
  "4406": "había ",
  "4407": "imperio ",
  "4408": "ora ",
  "4409": "tanto ",
  "4410": "budist",
  "4411": "literatura ",
  "4412": "ó el ",
  "4413": "entro de la ",
  "4414": "siglos ",
  "4415": "jo ",
  "4416": "administración ",
  "4417": "sistema ",
  "4418": "ón del ",
  "4419": "a, que ",
  "4420": "étic",
  "4421": "sido ",
  "4422": "nuevas ",
  "4423": "ciudad",
  "4424": "ales, ",
  "4425": "aron a ",
  "4426": "cuando ",
  "4427": "conduj",
  "4428": "homb",
  "4429": "despu",
  "4430": "principalmente ",
  "4431": "empres",
  "4432": "europe",
  "4433": "parte de la ",
  "4434": "o que ",
  "4435": "para un ",
  "4436": "algun",
  "4437": "En las ",
  "4438": "endo el ",
  "4439": "llam",
  "4440": "tuvo ",
  "4441": "pap",
  "4442": "papel ",
  "4443": "Sin embarg",
  "4444": "pesar de ",
  "4445": "tend",
  "4446": ".​​\n",
  "4447": "elegido ",
  "4448": "ecutiv",
  "4449": "partido ",
  "4450": "anza ",
  "4451": "consiste ",
  "4452": "estad",
  "4453": "comunidad ",
  "4454": "en el mundo",
  "4455": "partidos ",
  "4456": "coalici",
  "4457": "cuatr",
  "4458": "grupos ",
  "4459": "tien",
  "4460": "fuerzas ",
  "4461": "se encuentran el ",
  "4462": " % de tod",
  "4463": "endémic",
  "4464": "especies ",
  "4465": "crecimiento ",
  "4466": "dó",
  "4467": "dólar",
  "4468": "ado por la ",
  "4469": "tiene la mayor ",
  "4470": "clásic",
  "4471": "música ",
  "4472": "deport",
  "4473": "Críquet ",
  "4474": "sobre India.\n",
  "4475": "Republic ",
  "4476": "South Asi",
  "4477": "Arab",
  "4478": "an Se",
  "4479": "al and ",
  "4480": "Myan",
  "4481": "lands ",
  "4482": "Indian subcontinent ",
  "4483": "Africa ",
  "4484": "55,",
  "4485": "eir ",
  "4486": "predomin",
  "4487": "margin",
  "4488": "Indus V",
  "4489": "Indus Val",
  "4490": "Indus Valle",
  "4491": "Indus Valley ",
  "4492": "third ",
  "4493": "millennium BCE",
  "4494": ", an ",
  "4495": "Dra",
  "4496": "Dravidi",
  "4497": "Dravidian ",
  "4498": "ed in the ",
  "4499": "400 BCE",
  "4500": "with",
  "4501": "hered",
  "4502": "heredit",
  "4503": "Maurya ",
  "4504": "Gupta ",
  "4505": ". During ",
  "4506": "art, ",
  "4507": "writ",
  "4508": "ouch",
  "4509": "abil",
  "4510": "ability ",
  "4511": "stian",
  "4512": "oroastri",
  "4513": "ed on ",
  "4514": "es from ",
  "4515": "jay",
  "4516": "anag",
  "4517": "ara ",
  "4518": "Punjab, ",
  "4519": "institu",
  "4520": "sion ",
  "4521": "a r",
  "4522": "Gr",
  "4523": "East India Company ",
  "4524": "into a ",
  "4525": "ly, ",
  "4526": "education ",
  "4527": "took ",
  "4528": "nation",
  "4529": "movement ",
  "4530": "ed for ",
  "4531": "rule",
  "4532": "domini",
  "4533": "compani",
  "4534": "republic ",
  "4535": "1950, ",
  "4536": "parliamentary system",
  "4537": "1 million ",
  "4538": "annu",
  "4539": "growing ",
  "4540": "hub",
  "4541": "reduc",
  "4542": "nucle",
  "4543": "weap",
  "4544": "with its ",
  "4545": ". Am",
  "4546": "meg",
  "4547": "four ",
  "4548": "traditionally ",
  "4549": "ed with ",
  "4550": "cording to the ",
  "4551": "istic ",
  "4552": "Gree",
  "4553": "Anci",
  "4554": "Ancient ",
  "4555": ", or ",
  "4556": "exten",
  "4557": "well",
  "4558": "term ",
  "4559": "Bh",
  "4560": "used in ",
  "4561": "ing of the ",
  "4562": "used ",
  "4563": "thought ",
  "4564": "extant ",
  "4565": "o s",
  "4566": "second ",
  "4567": "tic ",
  "4568": "diversit",
  "4569": "Ho",
  "4570": "known ",
  "4571": "about ",
  "4572": "ley",
  "4573": "25",
  "4574": "cities ",
  "4575": "Mohenjo-d",
  "4576": "Mohenjo-daro, ",
  "4577": "char",
  "4578": "features ",
  "4579": "seal",
  "4580": "res and ",
  "4581": "ages ",
  "4582": "a new ",
  "4583": "past",
  "4584": "associ",
  "4585": "speak",
  "4586": "Punjab ",
  "4587": "when ",
  "4588": "aving ",
  "4589": "bro",
  "4590": "yan ",
  "4591": "Ei",
  "4592": "tel",
  "4593": "regist",
  "4594": "called ",
  "4595": "ical and ",
  "4596": "based on the ",
  "4597": "ted in ",
  "4598": "rop",
  "4599": "23",
  "4600": "right",
  "4601": "his ",
  "4602": "est of ",
  "4603": "rock",
  "4604": "pil",
  "4605": "greater ",
  "4606": "system ",
  "4607": "renew",
  "4608": "tion, ",
  "4609": "ert ",
  "4610": "ence",
  "4611": "Sang",
  "4612": "at, ",
  "4613": "peninsu",
  "4614": "along the ",
  "4615": "respectiv",
  "4616": "Pall",
  "4617": "Pallav",
  "4618": "fav",
  "4619": "sively ",
  "4620": "The Indian ",
  "4621": "agricultural ",
  "4622": "significant ",
  "4623": "went ",
  "4624": "part of ",
  "4625": "Cam",
  "4626": "nam",
  "4627": ", with ",
  "4628": "inari",
  "4629": "Central Asi",
  "4630": "se c",
  "4631": "vast ",
  "4632": "ty, ",
  "4633": "repe",
  "4634": "ated",
  "4635": "sultanate ",
  "4636": "own ",
  "4637": "sultanat",
  "4638": "e's ",
  "4639": "indigen",
  "4640": "Ak",
  "4641": "textil",
  "4642": "New",
  "4643": "Mar",
  "4644": "reco",
  "4645": "late ",
  "4646": "aut",
  "4647": "aff",
  "4648": "ably ",
  "4649": "out",
  "4650": "y's ",
  "4651": "crucial ",
  "4652": "India was ",
  "4653": "ad, ",
  "4654": "materi",
  "4655": "ord ",
  "4656": ". F",
  "4657": ". After the ",
  "4658": "directly ",
  "4659": "saf",
  "4660": "rest",
  "4661": "decades ",
  "4662": "85",
  "4663": "astr",
  "4664": "consum",
  "4665": "operation ",
  "4666": "enact",
  "4667": "conom",
  "4668": "transform",
  "4669": "relat",
  "4670": "Ge",
  "4671": "plat",
  "4672": "approxim",
  "4673": "approximately ",
  "4674": "Gond",
  "4675": "Gondwan",
  "4676": "Gondwana, ",
  "4677": "south-",
  "4678": "crust",
  "4679": "under the ",
  "4680": "urasi",
  "4681": "continental ",
  "4682": "lower ",
  "4683": ". This ",
  "4684": "Himalayas, ",
  "4685": "fil",
  "4686": "original ",
  "4687": "s from the ",
  "4688": "Thar ",
  "4689": "north ",
  "4690": "Guj",
  "4691": "harkh",
  "4692": "East",
  "4693": "equ",
  "4694": "lati",
  "4695": "Maj",
  "4696": "Brahma",
  "4697": "prev",
  "4698": "asu",
  "4699": "omet",
  "4700": "1% ",
  "4701": "ores, ",
  "4702": "del",
  "4703": "pel",
  "4704": "os: ",
  "4705": "off ",
  "4706": "union territori",
  "4707": "mer ",
  "4708": ", k",
  "4709": "Oc",
  "4710": "majority of ",
  "4711": "is often ",
  "4712": "gl",
  "4713": ". Ac",
  "4714": "cording to ",
  "4715": "number ",
  "4716": "end of the ",
  "4717": "species, ",
  "4718": "9% of ",
  "4719": "rep",
  "4720": "hibi",
  "4721": "to have ",
  "4722": "100 ",
  "4723": "exchang",
  "4724": "pass",
  "4725": "% among ",
  "4726": "ner",
  "4727": "endangered ",
  "4728": "ack",
  "4729": "che",
  "4730": "respon",
  "4731": "Act ",
  "4732": "For",
  "4733": "five ",
  "4734": "Ram",
  "4735": "ere are ",
  "4736": "50 ",
  "4737": "ugu",
  "4738": "following ",
  "4739": "1962",
  "4740": "s. A",
  "4741": "Indira ",
  "4742": "vil ",
  "4743": "1977",
  "4744": "s; ",
  "4745": "ingh ",
  "4746": "Fron",
  "4747": "liance ",
  "4748": "just ",
  "4749": "a memb",
  "4750": "single ",
  "4751": "Nar",
  "4752": "external ",
  "4753": "At",
  "4754": "ND",
  "4755": "Modi",
  "4756": "2019",
  "4757": "est-",
  "4758": "Constitution ",
  "4759": "foreign ",
  "4760": "sident",
  "4761": "legis",
  "4762": "legislat",
  "4763": "United St",
  "4764": "promul",
  "4765": "promulg",
  "4766": "Common",
  "4767": "one of the ",
  "4768": "ordin",
  "4769": "prem",
  "4770": "juris",
  "4771": "jurisdic",
  "4772": "ital ",
  "4773": "China ",
  "4774": "pli",
  "4775": "ons ",
  "4776": "1998",
  "4777": "Proli",
  "4778": "Prolifer",
  "4779": "De",
  "4780": "ived ",
  "4781": "gy ",
  "4782": ". M",
  "4783": "PP",
  "4784": "third",
  "4785": "third-largest ",
  "4786": ". It is ",
  "4787": "fast",
  "4788": "growth rate ",
  "4789": "global ",
  "4790": "crisi",
  "4791": "is the world's ",
  "4792": "ice ",
  "4793": "2001",
  "4794": "before ",
  "4795": " 5",
  "4796": "estimated ",
  "4797": "phar",
  "4798": "pharmac",
  "4799": "pharmace",
  "4800": "pharmaceu",
  "4801": "pharmaceutical ",
  "4802": "2013",
  "4803": "able",
  "4804": "cooking ",
  "4805": "62",
  "4806": "2020",
  "4807": "ances ",
  "4808": "21.",
  "4809": "2018 ",
  "4810": "2011 censu",
  "4811": "ale ",
  "4812": "ped",
  "4813": "urban are",
  "4814": "umb",
  "4815": "official languag",
  "4816": "three ",
  "4817": "comprom",
  "4818": "edul",
  "4819": "oth",
  "4820": "Assam",
  "4821": "ada, ",
  "4822": "alam",
  "4823": "ipur",
  "4824": "2004",
  "4825": "%. In ",
  "4826": "11 ",
  "4827": "scho",
  "4828": "firm",
  "4829": "main ",
  "4830": "es a ",
  "4831": "divor",
  "4832": "ess ",
  "4833": "her ",
  "4834": "prob",
  "4835": "important",
  "4836": "inno",
  "4837": "innov",
  "4838": "ba ",
  "4839": "tras ",
  "4840": "seri",
  "4841": "music",
  "4842": "tal",
  "4843": "emi",
  "4844": "uk",
  "4845": "dance-d",
  "4846": "dance-dram",
  "4847": "dance-dramas ",
  "4848": "fest",
  "4849": "olly",
  "4850": "ollywood",
  "4851": "Po",
  "4852": "commonly ",
  "4853": "kame",
  "4854": ". O",
  "4855": "popular",
  "4856": "tand",
  "4857": "tando",
  "4858": "gil",
  "4859": "20 ",
  "4860": "ockey ",
  "4861": "Wayback Machine",
  "4862": "Fact",
  "4863": "Factbo",
  "4864": " Wikim",
  "4865": " Wikimedia ",
  "4866": " ऑ",
  "4867": " उपमहाद्वीप",
  "4868": "�ेश है। भारत",
  "4869": "ृष्टि से �",
  "4870": "�त्तर-",
  "4871": "�त्तर-प",
  "4872": "�े",
  "4873": "ूट",
  "4874": " पश्चिम",
  "4875": "�्र",
  "4876": "ीलंक",
  "4877": " पर्वत",
  "4878": "ंगाल",
  "4879": "म्प",
  "4880": " में फ",
  "4881": "ू धर्म",
  "4882": "�ी। �",
  "4883": "�े",
  "4884": "ौर्य",
  "4885": "ुप्त साम्राज्य",
  "4886": "शील",
  "4887": "ता से �",
  "4888": "�ुआ",
  "4889": "\nप्र",
  "4890": " मध्य",
  "4891": "्लाम",
  "4892": " और प",
  "4893": " ने भारत",
  "4894": " सेन",
  "4895": " किया, �",
  "4896": " की स्थापना �",
  "4897": "�ारत को",
  "4898": "�िय",
  "4899": "�क्षिण भारत",
  "4900": "े समय",
  "4901": "े समय तक",
  "4902": "िवेश",
  "4903": "ा तथा �",
  "4904": "�पनी स",
  "4905": "भु",
  "4906": "ूत",
  "4907": "�ुरू",
  "4908": " हुआ। �",
  "4909": "िंस",
  "4910": "िरोध",
  "4911": " जान",
  "4912": " समाप्त",
  "4913": " संघीय",
  "4914": " में ",
  "4915": " से बढ़",
  "4916": "8, ",
  "4917": "ता द",
  "4918": " पुरु",
  "4919": " पुरुष",
  "4920": "ों के लिए",
  "4921": "ा और",
  "4922": " में भारत ने �",
  "4923": "ीय प्र",
  "4924": "िक्ष",
  "4925": "ा व",
  "4926": "-च",
  "4927": "�ारत का �",
  "4928": "श्म",
  "4929": "ेकर �",
  "4930": "�ारत और �",
  "4931": "ा, ब",
  "4932": "ागत",
  "4933": " आधिकारिक",
  "4934": "ा नाम",
  "4935": "ंधु",
  "4936": "�नुसार",
  "4937": " के नाम से �",
  "4938": " रत",
  "4939": "काश",
  "4940": " में ल",
  "4941": " तीस",
  "4942": "रान",
  "4943": "�र्तमान",
  "4944": "�ाना जाता है",
  "4945": "।\n\n�",
  "4946": "�तिहास",
  "4947": "भ्य",
  "4948": "�गभग",
  "4949": "ा हो",
  "4950": "�्ञ",
  "4951": "ीवन",
  "4952": "00 ईसा पूर्व",
  "4953": "ता के �",
  "4954": "�िकसित",
  "4955": "ोहन",
  "4956": "�स",
  "4957": " के नि",
  "4958": "र्भ",
  "4959": " उत्पाद",
  "4960": "�गमन",
  "4961": "�ुग",
  "4962": "ंथ",
  "4963": "ंगा के �",
  "4964": "�ैदानी क्षेत्र",
  "4965": " थी",
  "4966": "�ोट",
  "4967": "े म",
  "4968": "�य",
  "4969": " वर्ग",
  "4970": "भी �",
  "4971": "दर्श",
  "4972": "ा, और �",
  "4973": "�भर",
  "4974": "�ूर",
  "4975": " स्थाप",
  "4976": " अलग",
  "4977": " उन",
  "4978": " ध",
  "4979": " सेना",
  "4980": "�रिण",
  "4981": "�रिणाम",
  "4982": "�रिणामस्व",
  "4983": "�रिणामस्वरूप",
  "4984": ", प",
  "4985": "वंश",
  "4986": " 200",
  "4987": "ायद",
  "4988": "णाली �",
  "4989": " में भ",
  "4990": ", तथा �",
  "4991": " शास",
  "4992": "ांस्कृत",
  "4993": "ांस्कृतिक",
  "4994": " ६",
  "4995": " करने का प्रयास",
  "4996": "�से �",
  "4997": "ना प",
  "4998": "�न्हें �",
  "4999": "ों द्वार",
  "5000": "ना में �",
  "5001": "रे",
  "5002": " क्रम",
  "5003": " कृषि",
  "5004": "िकास",
  "5005": " और स",
  "5006": "ा सक",
  "5007": " बार",
  "5008": "�त",
  "5009": " के वि�",
  "5010": "े पर �",
  "5011": "�क्ष",
  "5012": "ते हुए",
  "5013": " किया और �",
  "5014": "�्रांस",
  "5015": "च्�",
  "5016": "च्छ",
  "5017": "राज",
  "5018": "�प",
  "5019": " लग",
  "5020": "ास्तव",
  "5021": " होता है",
  "5022": "ा द",
  "5023": "ंच",
  "5024": " आप",
  "5025": "सार",
  "5026": " आन्दोलन",
  "5027": "�्राप्त",
  "5028": " के लिये �",
  "5029": "ंघर्ष",
  "5030": "’",
  "5031": " सिंह",
  "5032": " जनव",
  "5033": " जनवरी",
  "5034": "�०",
  "5035": "ायिक",
  "5036": "�लग",
  "5037": "�सकी �",
  "5038": "ंदिरा गांध",
  "5039": " की घ",
  "5040": " की घोषण",
  "5041": "�ुद्ध",
  "5042": "ंयुक्त",
  "5043": "ीक्ष",
  "5044": "ीक्षण",
  "5045": " सु",
  "5046": "�फ्रीका और �",
  "5047": "ी हुई",
  "5048": "ीट",
  "5049": "ति से �",
  "5050": " ट",
  "5051": " हुआ।",
  "5052": " पहाड",
  "5053": " २४",
  "5054": "ुट",
  "5055": "ती हैं",
  "5056": " किस",
  "5057": "�ुख्य",
  "5058": "्यात",
  "5059": "�ष",
  "5060": "�ष्ण",
  "5061": "टिबंध",
  "5062": "टिबंधीय",
  "5063": "ाइन",
  "5064": "ैस",
  "5065": " नम",
  "5066": "ुष्क",
  "5067": "िम्न",
  "5068": ");\n�",
  "5069": " करता है",
  "5070": "र से �",
  "5071": " जून",
  "5072": "े में �",
  "5073": "क्ट",
  "5074": "ूब",
  "5075": " भारत के �",
  "5076": " संविधान के अनुसार",
  "5077": "�़",
  "5078": "ियों को",
  "5079": "ा र",
  "5080": "�्रधानमंत्री �",
  "5081": " २००४",
  "5082": " १९८",
  "5083": "�हुमत",
  "5084": "�ाजनैतिक",
  "5085": " की शुरुआत",
  "5086": "ने के बाद",
  "5087": "ी की �",
  "5088": "र्च",
  "5089": "। १९९�",
  "5090": "ी पार्ट",
  "5091": " कार्यकाल",
  "5092": ", जिसमें",
  "5093": " संयुक्त",
  "5094": "ीए",
  "5095": "�ुजर",
  "5096": "�ुजरात",
  "5097": "ें हैं",
  "5098": "वि�",
  "5099": " के माध्यम",
  "5100": " नाग",
  "5101": "�ंत्रिम",
  "5102": "�ंत्रिमण्ड",
  "5103": "�ंत्रिमण्डल",
  "5104": "त्येक",
  "5105": "ाधिकार",
  "5106": "�धिकार",
  "5107": "्वतंत्रता",
  "5108": "ौहार",
  "5109": ", भारत ने �",
  "5110": "�ूरोपीय",
  "5111": "नाव",
  "5112": "ंबंध",
  "5113": " 1962",
  "5114": "ोवियत",
  "5115": "ोवियत संघ",
  "5116": "ूस के साथ",
  "5117": " सहयोग",
  "5118": " शांति",
  "5119": "्रिय",
  "5120": " शक्ति",
  "5121": "ी भूमिका निभाई",
  "5122": "�ार",
  "5123": " बै",
  "5124": " अपन",
  "5125": " अब",
  "5126": "वीं �",
  "5127": "जट",
  "5128": " 1,",
  "5129": "ा, ज",
  "5130": "ी डॉलर �",
  "5131": "्थान पर �",
  "5132": " उद्योग",
  "5133": " पर्य",
  "5134": " पर्यटन",
  "5135": ", र",
  "5136": "ी कर्ज",
  "5137": "२.",
  "5138": "प्रिय",
  "5139": "�ॉ",
  "5140": "�ॉकी �",
  "5141": "�ेल",
  "5142": "�ेलीव",
  "5143": "2016",
  "5144": "కు పై",
  "5145": "కు పైగా �",
  "5146": "�ొదట",
  "5147": "ంతో �",
  "5148": "ాస్వామ",
  "5149": "ాస్వామ్య",
  "5150": "ేంద్రపాల",
  "5151": "ేంద్రపాలిత",
  "5152": "ేంద్రపాలిత ప్రాంత",
  "5153": "మె",
  "5154": "రీ",
  "5155": "�న్న �",
  "5156": "్యం క",
  "5157": " దేశాలలో �",
  "5158": "ుఖ్యమైన",
  "5159": "క్షణ",
  "5160": "ల క",
  "5161": " ఉప",
  "5162": "ఖండ",
  "5163": "�ధిక",
  "5164": "ిత్రక",
  "5165": " రహదార",
  "5166": "ి ఉంది. �",
  "5167": "ాలయ",
  "5168": "�క్షిణాన",
  "5169": "శ్చ",
  "5170": "శ్చిమ",
  "5171": "ాకిస్తాన",
  "5172": "్, బ",
  "5173": "ాదేశ",
  "5174": "ను ప",
  "5175": "ీవ",
  "5176": "ోన",
  "5177": "్గ",
  "5178": " ద్వీప",
  "5179": "ాలు. �",
  "5180": "�న",
  "5181": "�ది �",
  "5182": "ుళ",
  "5183": "ి సం�",
  "5184": "ింది.\n",
  "5185": "్రాజ్య",
  "5186": " సరిహద్ద",
  "5187": "�ిన్న",
  "5188": "ాలుగా �",
  "5189": "ోయ",
  "5190": " వ శతాబ్దం �",
  "5191": "�్రిటిష",
  "5192": "్ ఇండ",
  "5193": "ుకోవడ",
  "5194": "ీష",
  "5195": "ా గ",
  "5196": "ాయక",
  "5197": "�ధ",
  "5198": "ేగ",
  "5199": "ేగంగా �",
  "5200": "భివ",
  "5201": "భివృ",
  "5202": "భివృద్ధ",
  "5203": "ుతున్న",
  "5204": "క్షరాస",
  "5205": "క్షరాస్య",
  "5206": "క్షరాస్యత",
  "5207": "�వ",
  "5208": "ర్కొ",
  "5209": "ి.\n\n",
  "5210": "ాలుగ",
  "5211": "�ారతదేశానికి �",
  "5212": "లలో �",
  "5213": "� పేర",
  "5214": "�ప",
  "5215": "యో",
  "5216": "ష్�",
  "5217": "ష్ణ",
  "5218": "ోద",
  "5219": "ంటే",
  "5220": "�క్కువగా �",
  "5221": "రత",
  "5222": "�ిశ",
  "5223": " అయిన",
  "5224": "ుర్త",
  "5225": "్ అ",
  "5226": "ా వ",
  "5227": "ొదట",
  "5228": "�త్స",
  "5229": "పూ",
  "5230": "ెహ",
  "5231": " విధ",
  "5232": " సంస్కృత",
  "5233": "ం, భారతీయ",
  "5234": " సాం",
  "5235": "ారస",
  "5236": "ారసత్వ",
  "5237": "�రువాత",
  "5238": "ోళ",
  "5239": "ులు, ప",
  "5240": "�ొదల",
  "5241": " శాస్త్ర",
  "5242": " ఖ",
  "5243": "ేత",
  "5244": "ురుష",
  "5245": "లతో",
  "5246": "రో",
  "5247": "ా ర",
  "5248": "మన",
  "5249": "ించింది. ",
  "5250": ", గ",
  "5251": " ప్రధానమంత్ర",
  "5252": "ారణ",
  "5253": "�ాజకీయ",
  "5254": "\nభారతదేశం �",
  "5255": "ిస్�",
  "5256": "ుంది.\n",
  "5257": " పద్ధత",
  "5258": "ార్య",
  "5259": "�ోక",
  "5260": " సంఖ్య",
  "5261": "ుంది. �",
  "5262": "�ూ",
  "5263": " చరిత్ర",
  "5264": " జాతీయ",
  "5265": "త్ర",
  "5266": " ఎన్న",
  "5267": "మై",
  "5268": ".�",
  "5269": "�్ర",
  "5270": "�్రదాయ",
  "5271": ", పాక",
  "5272": "ిస్థాన",
  "5273": "ు క",
  "5274": "�న్నాయి.\n",
  "5275": "ి:",
  "5276": " వాతావరణ",
  "5277": "�ిల్లీ",
  "5278": "మ్మ",
  "5279": "ూ క",
  "5280": " ప్రజల",
  "5281": "ాదన",
  "5282": " స్థ",
  "5283": " జనాభా �",
  "5284": "ాల జాబిత",
  "5285": "�ర్ధ",
  "5286": "ిక వ్యవస్థ",
  "5287": "ే. �",
  "5288": " పరిశ",
  "5289": "్ ట",
  "5290": "ించే",
  "5291": " నగర",
  "5292": "దర",
  "5293": "ాబాద్",
  "5294": "ుటుంబ",
  "5295": "ాలకు �",
  "5296": "-�",
  "5297": "ిడ",
  "5298": "�ామ",
  "5299": "�ేశాల",
  "5300": "�ర్వ",
  "5301": "�ర్వీ",
  "5302": "�ర్వీస",
  "5303": "ర్",
  "5304": "�న",
  "5305": " మార్గ",
  "5306": "�ో",
  "5307": "ాలు\n�",
  "5308": "ప్రదాయ",
  "5309": " సంగీత",
  "5310": "�ెంగాల",
  "5311": "హార",
  "5312": "తక",
  "5313": "sober",
  "5314": "ado en ",
  "5315": "más pobl",
  "5316": "países más ",
  "5317": "Í",
  "5318": "Índi",
  "5319": "este, ",
  "5320": "kiló",
  "5321": "a con ",
  "5322": "región ",
  "5323": "subcontinente indio ",
  "5324": "a. El ",
  "5325": "sij",
  "5326": "ismo, ",
  "5327": "durante el ",
  "5328": "principi",
  "5329": "del siglo X",
  "5330": "se convirtió en ",
  "5331": "independiente ",
  "5332": "por un ",
  "5333": ".​\nLa India ",
  "5334": "territorios de la Uni",
  "5335": "con un ",
  "5336": "economía india ",
  "5337": "términos de ",
  "5338": "PIB ",
  "5339": ". Las ",
  "5340": "reformas ",
  "5341": "rápido ",
  "5342": "blem",
  "5343": "o de la población ",
  "5344": "pose",
  "5345": " % del ",
  "5346": "sociedad ",
  "5347": "alberga ",
  "5348": "flor",
  "5349": "difer",
  "5350": "uno de los ",
  "5351": "permiti",
  "5352": "empe",
  "5353": "destac",
  "5354": "» ",
  "5355": "aldad ",
  "5356": "más del ",
  "5357": " % de la renta ",
  "5358": " % de la renta nacional ",
  "5359": "en 202",
  "5360": "mientras que el ",
  "5361": "pobre ",
  "5362": "solo ",
  "5363": "sobre la ",
  "5364": "élite ",
  "5365": ".​\nEl ",
  "5366": "sigui",
  "5367": "beng",
  "5368": "bengalí",
  "5369": "sánscrit",
  "5370": "tamil",
  "5371": ".[",
  "5372": ".[ci",
  "5373": ".[cita re",
  "5374": ".[cita requ",
  "5375": ".[cita requer",
  "5376": ".[cita requerid",
  "5377": ".[cita requerida",
  "5378": "), la ",
  "5379": "denomin",
  "5380": "Constitución ",
  "5381": "hinduist",
  "5382": "símbolos ",
  "5383": "del país ",
  "5384": "territorio de la ",
  "5385": "sus propios ",
  "5386": ": el ",
  "5387": "nacional (el ",
  "5388": "​ y el ",
  "5389": "Á",
  "5390": "fric",
  "5391": "dond",
  "5392": "os que ",
  "5393": "Despu",
  "5394": "a. C.",
  "5395": "es, la ",
  "5396": "estructur",
  "5397": "agrícol",
  "5398": "desarrol",
  "5399": "zación ",
  "5400": "primera ",
  "5401": "cultura ",
  "5402": ". en ",
  "5403": "ndose ",
  "5404": "fuerza ",
  "5405": "artes",
  "5406": "Dur",
  "5407": "muchas ",
  "5408": "de las ",
  "5409": "ier",
  "5410": "escrit",
  "5411": "historiadores ",
  "5412": " y la ",
  "5413": "mayoría de los ",
  "5414": "ía de ",
  "5415": "campes",
  "5416": "gió ",
  "5417": "mes",
  "5418": "meset",
  "5419": "encia de ",
  "5420": "jef",
  "5421": ". En el ",
  "5422": "mentos ",
  "5423": "así ",
  "5424": "VI",
  "5425": "peque",
  "5426": "y las ",
  "5427": "quí",
  "5428": "adas",
  "5429": "entes",
  "5430": "ense",
  "5431": "en la India",
  "5432": "redu",
  "5433": "áre",
  "5434": "áreas ",
  "5435": "de la vida ",
  "5436": "llev",
  "5437": "puestos ",
  "5438": "reinos ",
  "5439": "ov",
  "5440": "arquitectur",
  "5441": "También ",
  "5442": "clásica ",
  "5443": "as de la India ",
  "5444": "del 6",
  "5445": ", se ",
  "5446": "intent",
  "5447": "se hacia el ",
  "5448": "ando los ",
  "5449": "aún ",
  "5450": "controlar ",
  "5451": "o a la ",
  "5452": "dentro de la ",
  "5453": "en tod",
  "5454": "ejér",
  "5455": "ejérci",
  "5456": "asiátic",
  "5457": "utiliz",
  "5458": "élites ",
  "5459": "debi",
  "5460": "tecnolog",
  "5461": "tiemp",
  "5462": "entonces ",
  "5463": "con las ",
  "5464": "prá",
  "5465": "prác",
  "5466": "práctic",
  "5467": "especialmente ",
  "5468": "és de la ",
  "5469": "casi ",
  "5470": "militares ",
  "5471": "biern",
  "5472": "inte",
  "5473": "estas ",
  "5474": "Compañí",
  "5475": "activ",
  "5476": "Much",
  "5477": "oment",
  "5478": "verti",
  "5479": "manera ",
  "5480": "cambios ",
  "5481": "ación de la ",
  "5482": "o en el ",
  "5483": "proporcion",
  "5484": "ayud",
  "5485": "propiedad ",
  "5486": "Entre las ",
  "5487": "idades ",
  "5488": "seguido ",
  "5489": "metr",
  "5490": "Gu",
  "5491": "obtuvo ",
  "5492": "al, el ",
  "5493": "importante ",
  "5494": "relacion",
  "5495": "naciones ",
  "5496": "ado",
  "5497": "primer ministro ",
  "5498": "mayoría de las ",
  "5499": "ejecutiv",
  "5500": "política ",
  "5501": "cámara ",
  "5502": "Conse",
  "5503": "Rajya Sabha ",
  "5504": "bran ",
  "5505": "INC ",
  "5506": "mayoría ",
  "5507": "quier",
  "5508": "por lo que ",
  "5509": "ó en el ",
  "5510": "en su ",
  "5511": "os de comun",
  "5512": "os de comunic",
  "5513": "cuatro ",
  "5514": "nivel ",
  "5515": "los últimos ",
  "5516": "están ",
  "5517": "ores y ",
  "5518": "relaciones ",
  "5519": "guerra ",
  "5520": "dismin",
  "5521": "disminu",
  "5522": "Paqu",
  "5523": "Paquist",
  "5524": "Organización ",
  "5525": "A pesar de ",
  "5526": "estre",
  "5527": "equip",
  "5528": "Der",
  "5529": "lingüístic",
  "5530": "a men",
  "5531": "ográfica ",
  "5532": "cordill",
  "5533": "e, la ",
  "5534": "Ghats ",
  "5535": "en la India, ",
  "5536": "as.​ ",
  "5537": "incluyen el ",
  "5538": "más importantes ",
  "5539": ".​ Los ",
  "5540": "aun",
  "5541": " % de todos los ",
  "5542": "ífer",
  "5543": "existen ",
  "5544": "bosqu",
  "5545": "en las zonas ",
  "5546": "ográfic",
  "5547": "últimas ",
  "5548": "últimas décad",
  "5549": "además de ",
  "5550": "además de que ",
  "5551": "agu",
  "5552": "té",
  "5553": "bill",
  "5554": "Según el ",
  "5555": "también es ",
  "5556": "''",
  "5557": "población",
  "5558": "(0,",
  "5559": "hombres",
  "5560": "udo ",
  "5561": "rimon",
  "5562": "rimoni",
  "5563": "obr",
  "5564": "Copa Mundial de ",
  "5565": "Copa Mundial de Críquet ",
  "5566": "Republic of ",
  "5567": "th-largest ",
  "5568": "most popul",
  "5569": "most populous ",
  "5570": "in the world ",
  "5571": "independence ",
  "5572": "1947, the ",
  "5573": "Arabi",
  "5574": "Arabian Se",
  "5575": "Bay ",
  "5576": "Bay of ",
  "5577": "bord",
  "5578": "China, ",
  "5579": "Nep",
  "5580": "tan ",
  "5581": "Banglades",
  "5582": "Maldiv",
  "5583": "Andaman ",
  "5584": "Nicobar ",
  "5585": "share ",
  "5586": "Myanmar",
  "5587": "Myanmar, ",
  "5588": "Modern ",
  "5589": "on the Indian subcontinent ",
  "5590": "000 years ago",
  "5591": ". Their ",
  "5592": "isol",
  "5593": "as h",
  "5594": "ett",
  "5595": "in the western ",
  "5596": "9,",
  "5597": "gradually ",
  "5598": "Indus Valley Ci",
  "5599": "Indus Valley Civili",
  "5600": "Indus Valley Civilis",
  "5601": "aic ",
  "5602": "into India ",
  "5603": "northwest",
  "5604": "nings of ",
  "5605": "regions. ",
  "5606": "within ",
  "5607": "Buddhism and ",
  "5608": "aris",
  "5609": "arly ",
  "5610": "gave ",
  "5611": "architec",
  "5612": "architecture",
  "5613": "statu",
  "5614": "declin",
  "5615": "ed, and ",
  "5616": "untouch",
  "5617": "belief",
  "5618": "Mid",
  "5619": "Middle ",
  "5620": "cultu",
  "5621": "Southeast Asi",
  "5622": "ism, and ",
  "5623": "oroastrian",
  "5624": "ism ",
  "5625": "and western ",
  "5626": "armi",
  "5627": "ran ",
  "5628": "resulting ",
  "5629": "Sultan",
  "5630": "medieval ",
  "5631": "south ",
  "5632": "Vijay",
  "5633": "Vijayanag",
  "5634": "created a ",
  "5635": "last",
  "5636": "ed, ",
  "5637": "ject",
  "5638": "Mughal Empire ",
  "5639": "expand",
  "5640": "sover",
  "5641": "sovereig",
  "5642": "sovereign",
  "5643": "rule ",
  "5644": "righ",
  "5645": "ed s",
  "5646": "changes ",
  "5647": "national",
  "5648": "ire and ",
  "5649": "influence ",
  "5650": "movement",
  "5651": "primary ",
  "5652": "factor ",
  "5653": "partition",
  "5654": "ons, ",
  "5655": "on of ",
  "5656": "los",
  "5657": ".\nIndia has ",
  "5658": "a feder",
  "5659": "a federal ",
  "5660": "plur",
  "5661": "societ",
  "5662": "India's population ",
  "5663": "this time, ",
  "5664": "nominal ",
  "5665": "per capit",
  "5666": "per capita ",
  "5667": "2,6",
  "5668": "literacy rate ",
  "5669": "% to ",
  "5670": ". The Indian ",
  "5671": "s. India has ",
  "5672": "pover",
  "5673": "st of ",
  "5674": "inequ",
  "5675": "inequalit",
  "5676": "pendi",
  "5677": "disputes ",
  "5678": "nei",
  "5679": "resol",
  "5680": ". Among the ",
  "5681": "gend",
  "5682": "malnu",
  "5683": "malnutri",
  "5684": "pollu",
  "5685": "megadi",
  "5686": "megadiver",
  "5687": "bio",
  "5688": "wild",
  "5689": "life, ",
  "5690": "protected ",
  "5691": "According to the ",
  "5692": "mediately ",
  "5693": "a re",
  "5694": "y-",
  "5695": "from South ",
  "5696": "Greek ",
  "5697": "ν",
  "5698": "ν�",
  "5699": "νδ",
  "5700": "os (",
  "5701": "cha",
  "5702": "Persian ",
  "5703": "Sanskrit ",
  "5704": "Sind",
  "5705": "Indo",
  "5706": "ˈ",
  "5707": "ː",
  "5708": "languages",
  "5709": "name ",
  "5710": "a, which ",
  "5711": "originally ",
  "5712": "North ",
  "5713": "ained ",
  "5714": "currenc",
  "5715": "and was ",
  "5716": "Hist",
  "5717": "ence of ",
  "5718": "rom",
  "5719": "dat",
  "5720": "line",
  "5721": "anat",
  "5722": "reach",
  "5723": "0,000 ",
  "5724": "lik",
  "5725": "initi",
  "5726": "ally in ",
  "5727": "etic ",
  "5728": "eh",
  "5729": "Bal",
  "5730": "an, ",
  "5731": "ped ",
  "5732": "flo",
  "5733": "Har",
  "5734": "a, D",
  "5735": "avir",
  "5736": "character",
  "5737": "stand",
  "5738": "written ",
  "5739": "cr",
  "5740": "town",
  "5741": "around the ",
  "5742": "economy",
  "5743": "today ",
  "5744": "found ",
  "5745": "oldest ",
  "5746": "Indo-Ar",
  "5747": "at is ",
  "5748": "acros",
  "5749": "settl",
  "5750": "es of the ",
  "5751": "jo",
  "5752": "fire",
  "5753": "plement",
  "5754": "prepar",
  "5755": "dri",
  "5756": "divi",
  "5757": "de, ",
  "5758": "being ",
  "5759": "parts of ",
  "5760": "would ",
  "5761": "ṇ",
  "5762": "rough",
  "5763": "tak",
  "5764": "varn",
  "5765": ". By the ",
  "5766": "those ",
  "5767": "could ",
  "5768": "ally and ",
  "5769": "these ",
  "5770": "back",
  "5771": "gence ",
  "5772": "power in ",
  "5773": "Ash",
  "5774": "Ashok",
  "5775": "empire ",
  "5776": "subcontinent, ",
  "5777": "excep",
  "5778": "ep ",
  "5779": "in which ",
  "5780": "adop",
  "5781": "polic",
  "5782": "bodi",
  "5783": "os.\n",
  "5784": "By the ",
  "5785": "th centuri",
  "5786": "th centuries, the ",
  "5787": "x ",
  "5788": "system of ",
  "5789": "devo",
  "5790": "rather ",
  "5791": "assert ",
  "5792": "self",
  "5793": "lower",
  "5794": "sci",
  "5795": "Sangam ",
  "5796": "eal",
  "5797": "eras ",
  "5798": "Chol",
  "5799": "Kaver",
  "5800": "conserv",
  "5801": "ism, ",
  "5802": "god",
  "5803": "partic",
  "5804": "ular, ",
  "5805": "a.\n\n",
  "5806": "Medi",
  "5807": "much ",
  "5808": "had been ",
  "5809": "cle",
  "5810": "way ",
  "5811": "show ",
  "5812": ".\nIn the ",
  "5813": "imit",
  "5814": "resur",
  "5815": "big",
  "5816": "templ",
  "5817": "patr",
  "5818": "capital ",
  "5819": "s as ",
  "5820": "appe",
  "5821": "every",
  "5822": "under",
  "5823": "another ",
  "5824": "eff",
  "5825": "South Indian ",
  "5826": "La",
  "5827": "pin",
  "5828": "Indonesia. ",
  "5829": "some",
  "5830": "sometimes ",
  "5831": "s into ",
  "5832": "Central Asian ",
  "5833": "hor",
  "5834": "leading ",
  "5835": "Islamic ",
  "5836": "jec",
  "5837": "law",
  "5838": "s.\n",
  "5839": "ol ",
  "5840": "sav",
  "5841": "ed India ",
  "5842": "devast",
  "5843": "vis",
  "5844": "sc",
  "5845": "ncre",
  "5846": "indigenous ",
  "5847": "tion and ",
  "5848": "ild",
  "5849": "came ",
  "5850": "after",
  "5851": "bal",
  "5852": "tribal ",
  "5853": "identi",
  "5854": "g ",
  "5855": "polici",
  "5856": "reven",
  "5857": "revenu",
  "5858": "ace ",
  "5859": "maint",
  "5860": "maintain",
  "5861": "in India's ",
  "5862": "painting, ",
  "5863": "group",
  "5864": "adver",
  "5865": "recog",
  "5866": "commercial ",
  "5867": "imperial ",
  "5868": "air",
  "5869": "increasing",
  "5870": "increasingly ",
  "5871": "it to ",
  "5872": "streng",
  "5873": "subsequent ",
  "5874": "due ",
  "5875": "manu",
  "5876": "manufac",
  "5877": "good",
  "5878": "Many ",
  "5879": "period",
  "5880": "having ",
  "5881": "184",
  "5882": "Lord ",
  "5883": "set ",
  "5884": "ess",
  "5885": "rail",
  "5886": "tele",
  "5887": "bellion ",
  "5888": "invasi",
  "5889": "British",
  "5890": "weal",
  "5891": "princ",
  "5892": "guard ",
  "5893": "1885",
  "5894": "fam",
  "5895": "infr",
  "5896": "industrial ",
  "5897": "Indian",
  "5898": "However, ",
  "5899": "provid",
  "5900": "co-",
  "5901": "led by ",
  "5902": "1930",
  "5903": "es in the ",
  "5904": "decade ",
  "5905": ". All ",
  "5906": ".\nIndia's ",
  "5907": "1950 ",
  "5908": "public",
  "5909": "separati",
  "5910": "Jam",
  "5911": "Jammu",
  "5912": "Kashmir",
  "5913": "Geograph",
  "5914": "bul",
  "5915": "strali",
  "5916": "ses ",
  "5917": "70 ",
  "5918": "supercontin",
  "5919": "subduc",
  "5920": "Eurasi",
  "5921": "sli",
  "5922": "upper ",
  "5923": "lay",
  "5924": "Himalayas",
  "5925": "Ti",
  "5926": "ken",
  "5927": "an Plateau",
  "5928": "sedi",
  "5929": "Indo-Gang",
  "5930": "makes ",
  "5931": "ve the ",
  "5932": "Araval",
  "5933": "Aravalli",
  "5934": "rang",
  "5935": "west ",
  "5936": "Thar Des",
  "5937": "spread ",
  "5938": "s.\nThe ",
  "5939": "remaining ",
  "5940": "far ",
  "5941": "Gujar",
  "5942": "rich ",
  "5943": "Jharkh",
  "5944": "mas",
  "5945": "Decc",
  "5946": "flan",
  "5947": "contain",
  "5948": "one ",
  "5949": "latitu",
  "5950": "68",
  "5951": "orig",
  "5952": "Brahmapu",
  "5953": "Brahmaputr",
  "5954": "drain ",
  "5955": "drain into the ",
  "5956": "Kosi",
  "5957": "ents ",
  "5958": "; and the ",
  "5959": "7,5",
  "5960": "kilomet",
  "5961": "kilometres ",
  "5962": "kilometres (",
  "5963": "00 mi",
  "5964": "00 mi) ",
  "5965": "belong ",
  "5966": "1,3",
  "5967": ": 43",
  "5968": "Ran",
  "5969": "shar",
  "5970": ".\n\nC",
  "5971": "ly influenc",
  "5972": "Himalayas ",
  "5973": "vot",
  "5974": "summer ",
  "5975": "nds ",
  "5976": "simil",
  "5977": "Jun",
  "5978": "dr",
  "5979": ". According to ",
  "5980": "ity of ",
  "5981": "y, a ",
  "5982": "species ",
  "5983": "mammal",
  "5984": "12.",
  "5985": "es. F",
  "5986": "of Indian ",
  "5987": "s in the ",
  "5988": "Western Ghat",
  "5989": ".3",
  "5990": "India, and the ",
  "5991": "ak ",
  "5992": "rig",
  "5993": "uri",
  "5994": "vol",
  "5995": "extinc",
  "5996": "reptil",
  "5997": "vul",
  "5998": "threat",
  "5999": "ened ",
  "6000": "desig",
  "6001": "design",
  "6002": "cro",
  "6003": "great ",
  "6004": "carri",
  "6005": "they were ",
  "6006": "recent ",
  "6007": "193",
  "6008": "add",
  "6009": "Bios",
  "6010": "Government",
  "6011": "tics\n",
  "6012": ") and the ",
  "6013": "Janata P",
  "6014": "Janata Part",
  "6015": "Jaw",
  "6016": "Jawa",
  "6017": "Jawahar",
  "6018": "Jawaharl",
  "6019": "Jawaharlal ",
  "6020": "offic",
  "6021": "he ",
  "6022": "the following ",
  "6023": "chos",
  "6024": "chosen ",
  "6025": "Indira Gandhi ",
  "6026": "1967",
  "6027": "defe",
  "6028": "Li",
  "6029": "1975, ",
  "6030": "served as ",
  "6031": "retur",
  "6032": "Rajiv",
  "6033": "Rajiv ",
  "6034": ", who ",
  "6035": "V. ",
  "6036": "1991, ",
  "6037": "round",
  "6038": "a member of ",
  "6039": "organisation ",
  "6040": "1996",
  "6041": ", the BJP ",
  "6042": "coalition ",
  "6043": "governments ",
  "6044": "governments follow",
  "6045": "eve ",
  "6046": "Bih",
  "6047": "mandat",
  "6048": "1999",
  "6049": "Democr",
  "6050": "became the first ",
  "6051": "4 general election",
  "6052": "UPA ",
  "6053": "elected ",
  "6054": "Modi ",
  "6055": "\nThe ",
  "6056": "Constituent ",
  "6057": "Constituent Ass",
  "6058": "Constituent Assemb",
  "6059": "Constituent Assembly ",
  "6060": "Constituent Assembly of India ",
  "6061": "common ",
  "6062": "ties ",
  "6063": "194",
  "6064": "descri",
  "6065": "spic",
  "6066": "exclu",
  "6067": "def",
  "6068": "constitutional ",
  "6069": "e. The ",
  "6070": "ure ",
  "6071": "Sabh",
  "6072": "elect",
  "6073": "defini",
  "6074": "United Stat",
  "6075": "es, or ",
  "6076": "distinc",
  "6077": "derec",
  "6078": "les ",
  "6079": "th.\nThe ",
  "6080": "Union ",
  "6081": "Coun",
  "6082": "cil ",
  "6083": "head",
  "6084": "foli",
  "6085": "folio ",
  "6086": "subordin",
  "6087": "house ",
  "6088": "judi",
  "6089": "suprem",
  "6090": "court ",
  "6091": "cas",
  "6092": "constitution",
  "6093": "uch",
  "6094": "Ter",
  "6095": "Delhi, ",
  "6096": "Westmin",
  "6097": "Westminst",
  "6098": "ator",
  "6099": "becom",
  "6100": "Non-",
  "6101": "1947, 1965, 1971",
  "6102": "So",
  "6103": "Sovi",
  "6104": "suppli",
  "6105": "nuclear weap",
  "6106": "1974",
  "6107": "signed ",
  "6108": "Nucle",
  "6109": "Tre",
  "6110": "Treat",
  "6111": "discri",
  "6112": "discrimin",
  "6113": "doc",
  "6114": "Col",
  "6115": "restric",
  "6116": "energy ",
  "6117": "Econom",
  "6118": "among the ",
  "6119": "2010",
  "6120": "domest",
  "6121": "nation ",
  "6122": "in the world",
  "6123": "asing ",
  "6124": "ographic",
  "6125": "GDP ",
  "6126": "ance of ",
  "6127": "trade ",
  "6128": "largest",
  "6129": "2017",
  "6130": "1985",
  "6131": "was the world's ",
  "6132": "calend",
  "6133": "rates ",
  "6134": "80 ",
  "6135": "2009",
  "6136": "industry ",
  "6137": "10,",
  "6138": ".4",
  "6139": "grew by ",
  "6140": "�",
  "6141": "₹",
  "6142": ".9",
  "6143": "att",
  "6144": "gas ",
  "6145": "age",
  "6146": "have been ",
  "6147": "8,",
  "6148": "resident",
  "6149": "report",
  "6150": "28",
  "6151": "2001 ",
  "6152": "54",
  "6153": "previ",
  "6154": "per 1,",
  "6155": "per 1,000 ",
  "6156": "birth",
  "6157": "sex",
  "6158": "rati",
  "6159": "fem",
  "6160": "2014, ",
  "6161": "esp",
  "6162": "has been an ",
  "6163": "important ",
  "6164": "rural are",
  "6165": "p ",
  "6166": "there were ",
  "6167": "Lan",
  "6168": "Languag",
  "6169": "e\"",
  "6170": "compromi",
  "6171": "i) ",
  "6172": "formal ",
  "6173": "bit",
  "6174": "es, including ",
  "6175": "schedul",
  "6176": "scheduled ",
  "6177": "ali, ",
  "6178": "ri, ",
  "6179": "ayalam",
  "6180": "ya, ",
  "6181": "kan",
  "6182": "Reli",
  "6183": "Religi",
  "6184": "s: ",
  "6185": "Hinduism, ",
  "6186": "population of ",
  "6187": "adher",
  "6188": "secular ",
  "6189": "fre",
  "6190": "libert",
  "6191": "% of the ",
  "6192": "Pol",
  "6193": "San",
  "6194": "Ni",
  "6195": "Kerala ",
  "6196": "men ",
  "6197": "1951",
  "6198": "12",
  "6199": "school",
  "6200": "Pri",
  "6201": "bercul",
  "6202": "berculosi",
  "6203": "WH",
  "6204": "WHO",
  "6205": "total",
  "6206": "ase ",
  "6207": "breath",
  "6208": "limit",
  "6209": "Although ",
  "6210": "as: ",
  "6211": "belo",
  "6212": "below ",
  "6213": "\" or ",
  "6214": "marr",
  "6215": "entren",
  "6216": "patri",
  "6217": "norm",
  "6218": "very ",
  "6219": "natal ",
  "6220": "Central, ",
  "6221": "centuries ",
  "6222": "pran",
  "6223": "different ",
  "6224": "Kar",
  "6225": "ola ",
  "6226": "bron",
  "6227": "painting",
  "6228": "manus",
  "6229": "manuscrip",
  "6230": "ple",
  "6231": "day ",
  "6232": "Cal",
  "6233": "transmit",
  "6234": "transmitted ",
  "6235": "contributions ",
  "6236": "cians ",
  "6237": "neg",
  "6238": "try ",
  "6239": "trig",
  "6240": "fun",
  "6241": "wide ",
  "6242": "instr",
  "6243": "instru",
  "6244": "cinem",
  "6245": "classic",
  "6246": "dance tradition",
  "6247": "termin",
  "6248": "promin",
  "6249": "hau",
  "6250": "Prad",
  "6251": "Prades",
  "6252": "festiv",
  "6253": "hangr",
  "6254": "rigi",
  "6255": "Bollywood",
  "6256": "sari ",
  "6257": "kur",
  "6258": "chur",
  "6259": "churid",
  "6260": "churidar",
  "6261": "kameez ",
  "6262": "tton ",
  "6263": "embro",
  "6264": "condi",
  "6265": "cooked ",
  "6266": "sim",
  "6267": "marin",
  "6268": "si ",
  "6269": "rick",
  "6270": "ricket ",
  "6271": "hockey ",
  "6272": "pic",
  "6273": "\nE",
  "6274": "Di",
  "6275": "World Factbo",
  "6276": "Fu",
  "6277": ": भारत",
  "6278": "गोल",
  "6279": " है, ज",
  "6280": " और म",
  "6281": " महास",
  "6282": " महासाग",
  "6283": "र में �",
  "6284": "ालद",
  "6285": "ालदीव",
  "6286": "-प",
  "6287": "ोन",
  "6288": "ुद्र",
  "6289": "ीमा �",
  "6290": "�त्तर में �",
  "6291": "�रब",
  "6292": "र है",
  "6293": "�ब",
  "6294": "�च",
  "6295": " बौद्ध",
  "6296": "�ोते �",
  "6297": "ारम्भिक",
  "6298": " में स्थित",
  "6299": " और ग",
  "6300": "का स",
  "6301": "माज",
  "6302": ", इस",
  "6303": "�ू",
  "6304": "�ुस्लिम",
  "6305": "ातार",
  "6306": "�न्ततः",
  "6307": " दिल्ल",
  "6308": "ी सल्तनत",
  "6309": " की स्थापना हुई",
  "6310": " वीं शताब्दी में",
  "6311": " लंब",
  "6312": "। प",
  "6313": "�ीरे-",
  "6314": "�ीरे-ध",
  "6315": "�ीरे-धीर",
  "6316": "�्रिटिश",
  "6317": " इंड",
  "6318": "ंप",
  "6319": "ंपन",
  "6320": " का विस्तार",
  "6321": "�्रभु",
  "6322": "ज़",
  "6323": "बूत",
  "6324": "�ीरे �",
  "6325": "भावश",
  "6326": "भावशाली �",
  "6327": "ंदोलन",
  "6328": " शुरू",
  "6329": "हिंस",
  "6330": " बन गय",
  "6331": "त्व",
  "6332": "�िभाज",
  "6333": " अध",
  "6334": "�धार पर �",
  "6335": " की जन",
  "6336": " से बढ़कर",
  "6337": "ी ",
  "6338": " और इस",
  "6339": " एक त",
  "6340": "ी से �",
  "6341": "ती हुई",
  "6342": "ूचना �",
  "6343": "ूचना प्र",
  "6344": "ूचना प्रौद्योगिक",
  "6345": "ीय तथा �",
  "6346": "रीब",
  "6347": "र को",
  "6348": " कश्म",
  "6349": " लेकर �",
  "6350": ", ग",
  "6351": " के साम",
  "6352": " है। ",
  "6353": "ंपरागत",
  "6354": "ंस्कृत",
  "6355": "ंस्कृति",
  "6356": " देख",
  "6357": "ा गया है",
  "6358": "ों और �",
  "6359": "ों पर",
  "6360": "िवास",
  "6361": " किए गए",
  "6362": " थे",
  "6363": "में स",
  "6364": "त्पत्त",
  "6365": "त्पत्ति",
  "6366": "वत",
  "6367": "ा के अनुसार",
  "6368": "रत",
  "6369": "ंतरिक",
  "6370": " तीसर",
  "6371": "ुस्तान",
  "6372": " भी है",
  "6373": " विशेष",
  "6374": "चलित",
  "6375": "।  ",
  "6376": " उत्तर �",
  "6377": "िया, �",
  "6378": "र्य",
  "6379": ", हिन्द",
  "6380": " आदि",
  "6381": " से भी �",
  "6382": " का इतिहास",
  "6383": ", जिसमें स",
  "6384": "ी सभ्य",
  "6385": "ों तथा �",
  "6386": "नेक",
  "6387": "ामिल",
  "6388": "000 वर्ष",
  "6389": " आध",
  "6390": "ाचीनतम",
  "6391": " 3",
  "6392": "ुरान",
  "6393": " आज",
  "6394": "ा, जिस",
  "6395": " मे",
  "6396": "गढ़",
  "6397": "ा था ज",
  "6398": "�्राचीन",
  "6399": " के मध्य",
  "6400": " अपने �",
  "6401": "ीब",
  "6402": "�सप",
  "6403": "�सपास",
  "6404": "�हाँ",
  "6405": "2000",
  "6406": " युग",
  "6407": " का आगमन",
  "6408": ", व",
  "6409": " माना जाता है",
  "6410": "�प",
  "6411": "ैद",
  "6412": "ैदिक",
  "6413": "�त्तर-पश्चिम",
  "6414": "-आ",
  "6415": "धि",
  "6416": " में ज",
  "6417": " गंगा के �",
  "6418": " गंगा के मैदानी क्षेत्र",
  "6419": "-व",
  "6420": "�द",
  "6421": " को छोड़",
  "6422": " आक",
  "6423": "ित किय",
  "6424": " को एक",
  "6425": "�ीस",
  "6426": " स्थापित",
  "6427": " बड़",
  "6428": "ाओं को",
  "6429": " उनके �",
  "6430": "�ाम",
  "6431": " अश",
  "6432": "ुक्त",
  "6433": " किया।",
  "6434": "्रम",
  "6435": " में य",
  "6436": " राजवंश",
  "6437": "�ासन थ",
  "6438": "म स",
  "6439": "ाहित",
  "6440": "ाहित्य",
  "6441": ", च",
  "6442": "्हों",
  "6443": "्होंने �",
  "6444": "्यापार",
  "6445": " तथ",
  "6446": "�्ञान",
  "6447": " भारत\n",
  "6448": " १२",
  "6449": "ा ह",
  "6450": "�पने �",
  "6451": " की और �",
  "6452": "ना पड़",
  "6453": "ा त",
  "6454": " किया ज",
  "6455": "ये �",
  "6456": " सामान",
  "6457": " हो गय",
  "6458": "ीय म",
  "6459": "ा गया थ",
  "6460": "�नकी �",
  "6461": "घ",
  "6462": " राजधान",
  "6463": " व्यवस्था",
  "6464": "ोड",
  "6465": " द्वारा स",
  "6466": "ठित",
  "6467": "र्मण",
  "6468": "ियंत्र",
  "6469": "े पै",
  "6470": "े पैमान",
  "6471": "�ै",
  "6472": "�ैर-",
  "6473": "ा किय",
  "6474": "�ारत की �",
  "6475": "�ार",
  "6476": "�ाल",
  "6477": "ुर्तगाल",
  "6478": "�ठ",
  "6479": "े देश",
  "6480": "�्रोह",
  "6481": " करव",
  "6482": " लगभग",
  "6483": " करने में स",
  "6484": " की दृष्टि से �",
  "6485": "�र्ज",
  "6486": "ी का �",
  "6487": " फैल",
  "6488": " बदल",
  "6489": "ी व",
  "6490": "�त्य",
  "6491": "ा दिय",
  "6492": " बोल",
  "6493": " भारतीय स",
  "6494": "दी",
  "6495": " और विश्व",
  "6496": "टल",
  "6497": " स्वतंत्रता �",
  "6498": " स्वतंत्रता प्राप्त",
  "6499": "ी संघर्ष",
  "6500": " के रूप",
  "6501": " सामाजिक",
  "6502": "�सके स",
  "6503": "ोस",
  "6504": "िकार",
  "6505": "गस्त",
  "6506": "�७",
  "6507": " गणराज्य बन",
  "6508": "-�",
  "6509": "�ंदिरा गांध",
  "6510": "�ी �",
  "6511": " के पड़ोसी �",
  "6512": "�सके",
  "6513": "। १९६",
  "6514": " लड़",
  "6515": " तथा स",
  "6516": " देशों में �",
  "6517": "० के दशक",
  "6518": " सुधार",
  "6519": "�िकासशील",
  "6520": "ों की स",
  "6521": "भू",
  "6522": "�ारतीय प्लेट",
  "6523": " में यह",
  "6524": "ोंड",
  "6525": "�िस्स",
  "6526": "ी.",
  "6527": " की ग",
  "6528": "�वस",
  "6529": "ठार",
  "6530": " जम",
  "6531": "तिशील",
  "6532": "�ँचाई",
  "6533": "�र्व",
  "6534": "्रेण",
  "6535": "ाचल",
  "6536": " मील",
  "6537": "ी म",
  "6538": " नदिय",
  "6539": "िवाल",
  "6540": " नदियाँ",
  "6541": "िश्र",
  "6542": " अन्त",
  "6543": " कहते हैं। �",
  "6544": "�लोढ़",
  "6545": "लोढ़",
  "6546": "ी तथा द",
  "6547": "�हाड",
  "6548": "तप",
  "6549": "तपुड़",
  "6550": "�ह",
  "6551": "�ाट",
  "6552": "�ूर्वी �",
  "6553": " में भारत में �",
  "6554": "�ह",
  "6555": "�ष्ण क",
  "6556": "�ष्ण कटिबंधीय",
  "6557": "�ष्ण कटिबंधीय नम",
  "6558": "ों में श",
  "6559": "ाए जाते हैं",
  "6560": "�र्णन",
  "6561": "�ुल",
  "6562": " सकते हैं",
  "6563": " ऋतु (",
  "6564": ") –",
  "6565": "िग",
  "6566": " ३",
  "6567": " ४",
  "6568": " से स",
  "6569": "ौट",
  "6570": "रल",
  "6571": "�ानसून",
  "6572": "ी है और �",
  "6573": "रद",
  "6574": "क्टूब",
  "6575": "नाड",
  "6576": "ी, म",
  "6577": "नीति",
  "6578": " शक्त",
  "6579": "�़्याद",
  "6580": " केंद्रीय",
  "6581": "पंथ",
  "6582": "�ड",
  "6583": " है, जिस",
  "6584": "मोहन",
  "6585": "मोहन सिंह",
  "6586": "ोषित",
  "6587": "�ाजप",
  "6588": "ा ब",
  "6589": "। १९८",
  "6590": "ों के न",
  "6591": " चुनाव",
  "6592": "५२",
  "6593": "हरू",
  "6594": " जीत",
  "6595": " के लिये प्र",
  "6596": "�ीत",
  "6597": " मोर्च",
  "6598": "ा ने �",
  "6599": " के बाहर",
  "6600": "रकार बनाई",
  "6601": "ी को बहु",
  "6602": "ी को बहुमत",
  "6603": "ी, और �",
  "6604": "ी ज",
  "6605": "फल रह",
  "6606": "ा, जिसमें",
  "6607": "ेय",
  "6608": "�न",
  "6609": "ों के स",
  "6610": "हयोग",
  "6611": ", जिसके �",
  "6612": " ८",
  "6613": " राज्यों की �",
  "6614": "ियां",
  "6615": " कार्यपालिक",
  "6616": "ों का च",
  "6617": "�ि",
  "6618": "�ूस",
  "6619": "�ूसर",
  "6620": " नागरिक",
  "6621": " के पास",
  "6622": "ने रह",
  "6623": " में इस",
  "6624": "�ोग",
  "6625": "िवार",
  "6626": "मर्थन",
  "6627": "�पने",
  "6628": "्श",
  "6629": " के माम",
  "6630": " के मामल",
  "6631": " अधिकार",
  "6632": "नन",
  "6633": ", हालाँकि",
  "6634": "द्यप",
  "6635": "द्यपि",
  "6636": "ास्तविक",
  "6637": " इसका �",
  "6638": "�वं �",
  "6639": " है।\n\n",
  "6640": " सौहार",
  "6641": " सौहार्द",
  "6642": "पूर्ण संबंध",
  "6643": "�फ्रीका और एशिय",
  "6644": "ा संबंध",
  "6645": " और 199",
  "6646": " और 1999",
  "6647": " के युद्ध",
  "6648": " 1960 के दशक",
  "6649": "�थियार",
  "6650": "�ी",
  "6651": " सामरिक",
  "6652": " के वर्ष",
  "6653": " के वर्षों में",
  "6654": " व्यापार",
  "6655": "िएश",
  "6656": "िएशन",
  "6657": "ुलिस",
  "6658": "ा प्रदान",
  "6659": "ठक",
  "6660": " सक्रिय",
  "6661": " भागी",
  "6662": "शस्त्र",
  "6663": "�्ध",
  "6664": " कमांड",
  "6665": "�पर",
  "6666": "�परेश",
  "6667": "�परेशन",
  "6668": " के प्रमुख",
  "6669": "ीति",
  "6670": " बनाने",
  "6671": " समझ",
  "6672": " समझौ",
  "6673": " 10",
  "6674": " 22",
  "6675": "र्ट",
  "6676": " क्रय",
  "6677": "ृद्धि",
  "6678": "ृद्धि हुई",
  "6679": " ब्रिटिश",
  "6680": " अप्रैल 195",
  "6681": "ारी भारतीय",
  "6682": "ीफ ऑ",
  "6683": "ीफ ऑफ",
  "6684": " स्ट",
  "6685": " स्टाफ",
  "6686": "ौसेना के �",
  "6687": "1961",
  "6688": "सम",
  "6689": "�िकसित हुई",
  "6690": "िर्यात",
  "6691": " के कई",
  "6692": " ने अ",
  "6693": "ूह",
  "6694": "ियो",
  "6695": " की दर से �",
  "6696": "ात्र",
  "6697": " में बड़",
  "6698": " में बड़ी भूमिका निभाई",
  "6699": "�हुम",
  "6700": "�हुमूल्य",
  "6701": "�हुमूल्य रत",
  "6702": "�हुमूल्य रत्न",
  "6703": "चित",
  "6704": " उसके �",
  "6705": "र के �",
  "6706": ".२",
  "6707": " डाल",
  "6708": " विदेशी कर्ज",
  "6709": " अरब अमरीक",
  "6710": " कर्ज",
  "6711": "21,",
  "6712": "४.",
  "6713": "९.",
  "6714": ",७",
  "6715": " (०",
  "6716": " % या �",
  "6717": " लाख)",
  "6718": "�ाजस्थ",
  "6719": "�ाजस्थान",
  "6720": "�नुस",
  "6721": "�नुसूच",
  "6722": "ाई जात",
  "6723": ", झ",
  "6724": ", झार",
  "6725": ", झारख",
  "6726": "काज",
  "6727": " प्राचीन भाष",
  "6728": " भाषाएँ",
  "6729": "�िन्दी भाष",
  "6730": "ी राज्य",
  "6731": " करे",
  "6732": "�पयोग",
  "6733": " भाषाओं का �",
  "6734": "\nभारतीय",
  "6735": " पार",
  "6736": "�द",
  "6737": "ंजन",
  "6738": " मिलियन)",
  "6739": "सन्द",
  "6740": "-0",
  "6741": " కో",
  "6742": "�నాభ",
  "6743": "�ై",
  "6744": "స్థాన",
  "6745": "ి పెద్ద",
  "6746": " ప్రజాస్వామ్య",
  "6747": "�లిగ",
  "6748": "ార్ల",
  "6749": "ాఖ్య",
  "6750": "లిగ",
  "6751": " దేశాలలో ఒకట",
  "6752": "ియాలో �",
  "6753": " ఉపఖండ",
  "6754": "ుకొ",
  "6755": "�నేక",
  "6756": "ారిత్రక",
  "6757": "ాణిజ",
  "6758": "ాణిజ్య",
  "6759": " హ",
  "6760": "ిమాలయ",
  "6761": " మహ",
  "6762": "ం, త",
  "6763": "్, బంగ్ల",
  "6764": "్, బంగ్లాదేశ",
  "6765": "్, న",
  "6766": "ేప",
  "6767": "ేపాల",
  "6768": "�ూ",
  "6769": "�ఫ",
  "6770": "�ఫ్�",
  "6771": "�ఫ్ఘ",
  "6772": "�రిహద్ద",
  "6773": "�్రీ",
  "6774": "గ్గ",
  "6775": " నాగ",
  "6776": " నాగరిక",
  "6777": " నాగరికత",
  "6778": ", బ",
  "6779": " జాత",
  "6780": "విధ",
  "6781": "్ లో �",
  "6782": " సామ్రాజ్య",
  "6783": " కాలంలో",
  "6784": "�ాగ",
  "6785": "ించి, �",
  "6786": "ో ప",
  "6787": "ాటు �",
  "6788": "�ుండి �",
  "6789": "స్ట",
  "6790": "ియా క",
  "6791": "ంపెన",
  "6792": " పరిప",
  "6793": "�ధ్య",
  "6794": "�చ్చింది. �",
  "6795": "�హ",
  "6796": "ాత్మ",
  "6797": "ా గాం",
  "6798": "ా గాంధ",
  "6799": "ా గాంధీ",
  "6800": " స్వాతంత్ర",
  "6801": " దేశంగా �",
  "6802": "ార్క",
  "6803": " ఆర్థ",
  "6804": "ిక సం�",
  "6805": "సర",
  "6806": "భివృద్ధి చెంద",
  "6807": "యిత",
  "6808": "ూర్వ",
  "6809": "ేర్ల",
  "6810": "ీటిలో �",
  "6811": "ంబూ",
  "6812": "బడిన",
  "6813": "� పేరు �",
  "6814": " (�",
  "6815": "లస",
  "6816": " ప్రదేశ",
  "6817": " పండ",
  "6818": ", ఈ",
  "6819": "�ంటాయ",
  "6820": " తరువాత",
  "6821": "ేరు �",
  "6822": "�ీ",
  "6823": "� ర",
  "6824": "కు",
  "6825": "ు.\n",
  "6826": "నద",
  "6827": "దేశం �",
  "6828": "�ూప",
  "6829": "ొందిన",
  "6830": "�ెండు",
  "6831": "ింప",
  "6832": "\nచ",
  "6833": "్యమైన",
  "6834": "�ొట్ట",
  "6835": "�ొట్టమ",
  "6836": "�ొట్టమొదట",
  "6837": "ాల క",
  "6838": "�ర్పడ్డ",
  "6839": "�్ర",
  "6840": "ావర",
  "6841": "ాలు ప",
  "6842": "�్వతంత్ర",
  "6843": "స్కృత",
  "6844": "ోక",
  "6845": " య",
  "6846": "ారు ప",
  "6847": "ాలించ",
  "6848": "గోళ",
  "6849": "�ాం",
  "6850": "స్ర",
  "6851": "లతో, �",
  "6852": "ులు ప",
  "6853": "�ుఖ్య",
  "6854": "ుకున్న",
  "6855": "�ంగ్ల",
  "6856": "్యాప",
  "6857": "్యాపార",
  "6858": "లంప",
  "6859": " చిన్న",
  "6860": " వి�",
  "6861": "�ల",
  "6862": "�ామ",
  "6863": "�ర్పడ",
  "6864": "ాలతో కూడిన",
  "6865": "లను �",
  "6866": "ంలో అ",
  "6867": "ి ఇ",
  "6868": "ించిన �",
  "6869": "�ు",
  "6870": " సభ్య",
  "6871": "రో �",
  "6872": " ఆర్ధ",
  "6873": " రాజకీయ",
  "6874": "ించింది. �",
  "6875": " ప్రకార",
  "6876": "�ిర్వహణ",
  "6877": "మల",
  "6878": "�ాష్ట్రపత",
  "6879": "లక",
  "6880": "ల్",
  "6881": "ేజ",
  "6882": "�త్సర",
  "6883": "ాలు గల",
  "6884": "వి. �",
  "6885": "ా సం�",
  "6886": "�ీర్ణ",
  "6887": "మించ",
  "6888": "బడ్డ",
  "6889": "లో స",
  "6890": "చే",
  "6891": "ం చేయ",
  "6892": "ిస్తారు.\n",
  "6893": "ిస్తారు.\n�",
  "6894": "�ారతదేశపు �",
  "6895": "�ాజ్య",
  "6896": "ుకుంటారు. �",
  "6897": "�ై",
  "6898": "�ూచ",
  "6899": "ి అనే",
  "6900": " ఘ",
  "6901": "ేంద్ర ప్రభుత్వ",
  "6902": "ాంగ్రెసు ప",
  "6903": "ూ వచ్చ",
  "6904": "ానిక",
  "6905": "ాదాప",
  "6906": "్ళ",
  "6907": " సార",
  "6908": " ఎన్నిక",
  "6909": "ిన క",
  "6910": "ా ",
  "6911": "ల్లో �",
  "6912": "�ాత్ర",
  "6913": "ేష",
  "6914": "�న",
  "6915": "ేర్కొ",
  "6916": "వచ్చ",
  "6917": "ిక, �",
  "6918": "న్నాయి. �",
  "6919": "�్రదాయాలు �",
  "6920": "ల్ప",
  "6921": "ీ�",
  "6922": "ీఠ",
  "6923": "ైప",
  "6924": "నుమ",
  "6925": "కొ",
  "6926": "ా)",
  "6927": "నాలు �",
  "6928": "ాశ్మ",
  "6929": "ాశ్మీర",
  "6930": "�ాస్త్ర",
  "6931": "�ాస్త్రీయ",
  "6932": "ాల జాబితా",
  "6933": "పడ",
  "6934": "ూల",
  "6935": " పరిశ్రమ",
  "6936": "లు. �",
  "6937": " ప్రధాన ప",
  "6938": "్ ర",
  "6939": "ం 1",
  "6940": "ాలు, ప",
  "6941": "ెల్ల",
  "6942": " మంద",
  "6943": "ీక",
  "6944": " మూడ",
  "6945": "�ేశంలోని �",
  "6946": " (వ",
  "6947": " (వెన",
  "6948": " (వెనుక",
  "6949": " (వెనుకట",
  "6950": "గణ",
  "6951": "�ేశంలోన",
  "6952": "�ూడ",
  "6953": "�ం�",
  "6954": "�ంధ",
  "6955": " కార్య",
  "6956": " కార్యక్రమ",
  "6957": "ంగా, �",
  "6958": "�రుప",
  "6959": "�ంస్కృత",
  "6960": "ెలుగ",
  "6961": "న్నడ",
  "6962": "ూర",
  "6963": "\nఅ",
  "6964": " రవాణా సౌకర్య",
  "6965": "లు మార్గ",
  "6966": " ప్రార",
  "6967": " ప్రారం�",
  "6968": " ప్రారంభ",
  "6969": " రైల్వే",
  "6970": "ంది.\n",
  "6971": "�స్�",
  "6972": "�స్లామ",
  "6973": "�స్లామాబాద్",
  "6974": "్‌ల",
  "6975": "�క్షిణాస",
  "6976": "�క్షిణాసియా �",
  "6977": " రైలు సర్వీస",
  "6978": "ాలనే",
  "6979": " ప్రతిపాదన",
  "6980": "ళ్లను �",
  "6981": " శాఖ",
  "6982": "మేన",
  "6983": "రవ",
  "6984": "ు త",
  "6985": "ిస్తున్న",
  "6986": "�ిర్మ",
  "6987": "డ్డు మార్గ",
  "6988": " రహదారులు, �",
  "6989": "తి �",
  "6990": "�ే�",
  "6991": "�ేవల",
  "6992": "ిద్ధి చెంద",
  "6993": "�ా�",
  "6994": "�ావిస్త",
  "6995": "ప్రదాయిక",
  "6996": "ోధ",
  "6997": "ినది. �",
  "6998": "ూడా �",
  "6999": "లలో",
  "7000": "తకాలు �",
  "7001": "్ స",
  "7002": "్యాల",
  "7003": "్యాలెండ",
  "7004": "్యాలెండర్",
  "7005": "ెలవ",
  "7006": "ం\nభారత",
  "7007": "IS",
  "7008": "ISB",
  "7009": "ISBN",
  "7010": "1-",
  "7011": "7 ",
  "7012": "ిక వెబ",
  "7013": "ిక వెబ్‌స",
  "7014": "ిక వెబ్‌సైట",
  "7015": "en hindi",
  "7016": "República ",
  "7017": "República de la India ",
  "7018": "soberan",
  "7019": "millones de habit",
  "7020": "desde el ",
  "7021": "entre los países más ",
  "7022": "golf",
  "7023": "golfo de ",
  "7024": "golfo de Bengal",
  "7025": "a al ",
  "7026": "lo larg",
  "7027": "líne",
  "7028": "coster",
  "7029": "Pakistán ",
  "7030": "oeste",
  "7031": "al norte ",
  "7032": "al y ",
  "7033": "cerc",
  "7034": "islas ",
  "7035": "uev",
  "7036": "Bomb",
  "7037": "histó",
  "7038": "histór",
  "7039": "histórica ",
  "7040": "por sus ",
  "7041": "riqu",
  "7042": "riquez",
  "7043": "budis",
  "7044": "budism",
  "7045": ", mientras que ",
  "7046": "religiones ",
  "7047": "aí",
  "7048": "anex",
  "7049": "a de las Indias Orientales ",
  "7050": "principios del ",
  "7051": "principios del siglo X",
  "7052": "VIII",
  "7053": "ada por el ",
  "7054": "ino ",
  "7055": "Unido ",
  "7056": "IX",
  "7057": "se convirtió en una ",
  "7058": "nación ",
  "7059": "nación independiente ",
  "7060": "en 1947, ",
  "7061": "luch",
  "7062": "independencia ",
  "7063": "marcada ",
  "7064": "encia, ",
  "7065": "encab",
  "7066": "encabez",
  "7067": "una re",
  "7068": "una república ",
  "7069": "federal",
  "7070": "compuest",
  "7071": "ocho ",
  "7072": "democraci",
  "7073": "o y la ",
  "7074": "una de las econom",
  "7075": "ías de ",
  "7076": "más rápido ",
  "7077": "más rápido crecimient",
  "7078": "sin embarg",
  "7079": "nivel",
  "7080": "pobre",
  "7081": "alf",
  "7082": "alfab",
  "7083": "alfabeti",
  "7084": "const",
  "7085": "es. En ",
  "7086": "0 % más ",
  "7087": "rico de la población ",
  "7088": "oso",
  "7089": "alberga una ",
  "7090": "há",
  "7091": "prote",
  "7092": "protegi",
  "7093": "Trat",
  "7094": "Tratado de ",
  "7095": "en sus ",
  "7096": "ría ",
  "7097": "empeñ",
  "7098": "caracter",
  "7099": "caracteriz",
  "7100": "actualmente ",
  "7101": "o, según ",
  "7102": "forme ",
  "7103": "cali",
  "7104": "inglés ",
  "7105": "jar",
  "7106": "marath",
  "7107": "nombre ",
  "7108": "o, que ",
  "7109": " (/",
  "7110": "egos ",
  "7111": "unci",
  "7112": "oficial del ",
  "7113": "deriv",
  "7114": "rey ",
  "7115": ".[cita requerida] ",
  "7116": "a para ",
  "7117": "nacionales",
  "7118": "como la ",
  "7119": "tiene el ",
  "7120": "significativ",
  "7121": "demás ",
  "7122": "unión ",
  "7123": "símbol",
  "7124": "diversos ",
  "7125": "común",
  "7126": "ado o ",
  "7127": "),​ el ",
  "7128": "ár",
  "7129": "primeros ",
  "7130": "humanos ",
  "7131": "conocidos ",
  "7132": "ado al ",
  "7133": "Áfric",
  "7134": "donde ",
  "7135": "orment",
  "7136": "e. Los ",
  "7137": "en el sur",
  "7138": "an de ",
  "7139": "unos ",
  "7140": "apar",
  "7141": "pru",
  "7142": "prueb",
  "7143": "construc",
  "7144": "construcción de ",
  "7145": "as en ",
  "7146": "lo que ho",
  "7147": "lo que hoy ",
  "7148": "lo que hoy es ",
  "7149": "án, ",
  "7150": "Pakistán",
  "7151": "floreci",
  "7152": "basá",
  "7153": "basándose ",
  "7154": "Durante ",
  "7155": "regiones del ",
  "7156": "ític",
  "7157": "durante este ",
  "7158": "llanura del ",
  "7159": "superior",
  "7160": "consideran ",
  "7161": "este período ",
  "7162": "sistema de cast",
  "7163": "guerr",
  "7164": "yó ",
  "7165": "pueb",
  "7166": "ar sus ",
  "7167": "gran número de ",
  "7168": "finales ",
  "7169": "védic",
  "7170": "alred",
  "7171": "alreded",
  "7172": "alrededor ",
  "7173": "pequeños ",
  "7174": "dio lugar ",
  "7175": "cuales ",
  "7176": "se convirtieron ",
  "7177": "se convirtieron en ",
  "7178": "adqui",
  "7179": "ancia ",
  "7180": "durante la ",
  "7181": "enseñ",
  "7182": "as las ",
  "7183": "clases ",
  "7184": "a urban",
  "7185": "vieron ",
  "7186": "amente, ",
  "7187": "reduci",
  "7188": "vez se ",
  "7189": "mayor parte del ",
  "7190": "ahora ",
  "7191": "lengua ",
  "7192": "tamil ",
  "7193": "d. C",
  "7194": "d. C.",
  "7195": "ín",
  "7196": "onal ",
  "7197": "occidental ",
  "7198": "sud",
  "7199": "orient",
  "7200": "afir",
  "7201": "los siglos ",
  "7202": "impuestos ",
  "7203": "ado en la ",
  "7204": "ual",
  "7205": "lej",
  "7206": "miento de la ",
  "7207": "encontr",
  "7208": "patroc",
  "7209": "astron",
  "7210": "astronom",
  "7211": "diversid",
  "7212": "llanura ",
  "7213": "expa",
  "7214": "expandi",
  "7215": "expandir",
  "7216": "expandirse hacia el ",
  "7217": "derro",
  "7218": "derrot",
  "7219": "ar un ",
  "7220": "mucho ",
  "7221": "tiem",
  "7222": "tiempo",
  "7223": "igual ",
  "7224": "encias ",
  "7225": "a la India ",
  "7226": "miento del ",
  "7227": "desarrollo de ",
  "7228": "a y los ",
  "7229": "cuent",
  "7230": "eron a un ",
  "7231": "ático",
  "7232": "ya que la ",
  "7233": "sur de la India ",
  "7234": "sión",
  "7235": "a, y ",
  "7236": "sidi",
  "7237": "vast",
  "7238": "islá",
  "7239": "o en ",
  "7240": "sultanato ",
  "7241": "siones ",
  "7242": "as, el ",
  "7243": "no musulman",
  "7244": "sold",
  "7245": "idos, ",
  "7246": "mica ",
  "7247": "cam",
  "7248": "fuerte ",
  "7249": "tecnología ",
  "7250": "militar ",
  "7251": "peninsular",
  "7252": "gobernantes ",
  "7253": "ante la ",
  "7254": "o, los ",
  "7255": "an la ",
  "7256": "que los ",
  "7257": "hici",
  "7258": "hicieron ",
  "7259": "merc",
  "7260": "relativ",
  "7261": "paz ",
  "7262": "recientemente ",
  "7263": "en el norte ",
  "7264": "reconoci",
  "7265": "del comerci",
  "7266": "del comercio ",
  "7267": "o de las ",
  "7268": "integr",
  "7269": "muchas de ",
  "7270": "en la cost",
  "7271": "estos ",
  "7272": "posterior ",
  "7273": "er la ",
  "7274": "económico ",
  "7275": "o británic",
  "7276": "se converti",
  "7277": "ó de ",
  "7278": "de la Compañí",
  "7279": "de la población ",
  "7280": "ferro",
  "7281": "es, los ",
  "7282": "después de ",
  "7283": "rebeli",
  "7284": "rebelión ",
  "7285": "estil",
  "7286": "ario de ",
  "7287": "algunos ",
  "7288": "ó los ",
  "7289": "olución ",
  "7290": "o. ",
  "7291": "contra los ",
  "7292": "Congreso ",
  "7293": "Congreso Nacional ",
  "7294": "Congreso Nacional Indi",
  "7295": "agricult",
  "7296": "es de los ",
  "7297": "empleo ",
  "7298": "o para la ",
  "7299": "hay ",
  "7300": "situ",
  "7301": "permaneci",
  "7302": "perio",
  "7303": "periodist",
  "7304": ": \"",
  "7305": "hacer ",
  "7306": "británicos ",
  "7307": "ar las ",
  "7308": "cos",
  "7309": "suel",
  "7310": "Davi",
  "7311": "os, que ",
  "7312": "eran ",
  "7313": "Guerra ",
  "7314": "aproxim",
  "7315": "aproximadamente ",
  "7316": "millón de ",
  "7317": "cooper",
  "7318": "aron una ",
  "7319": "legislativ",
  "7320": "elecciones ",
  "7321": ". Tod",
  "7322": "ción, ",
  "7323": "democrátic",
  "7324": "Cort",
  "7325": "Corte ",
  "7326": "Corte Su",
  "7327": "1990, ",
  "7328": ",​ y ",
  "7329": "influencia ",
  "7330": "pelí",
  "7331": "películ",
  "7332": "un papel ",
  "7333": "importante en la ",
  "7334": "mundial",
  "7335": "en el nor",
  "7336": ".​ Las ",
  "7337": "entre las ",
  "7338": "a\nLa ",
  "7339": "quier ",
  "7340": "bajo el ",
  "7341": "de la década de ",
  "7342": "años.​ ",
  "7343": "poder ejecutiv",
  "7344": "cámara baj",
  "7345": "ete ",
  "7346": "directamente ",
  "7347": "Lok Sabha ",
  "7348": "ven ",
  "7349": "seis ",
  "7350": "miembros ",
  "7351": "hasta ",
  "7352": "miembros de la ",
  "7353": "tribun",
  "7354": "elaciones ",
  "7355": "incluyendo el ",
  "7356": "De ",
  "7357": "ganó la ",
  "7358": "debido ",
  "7359": "coalición del ",
  "7360": "coalición del Fr",
  "7361": "coalición del Frente ",
  "7362": "las elec",
  "7363": "ningún ",
  "7364": "formó un ",
  "7365": ".​\nLos ",
  "7366": "s. El ",
  "7367": "se convirtió en el ",
  "7368": "dos de ",
  "7369": "izquier",
  "7370": "reelegido ",
  "7371": "visión ",
  "7372": "arios ",
  "7373": "cuart",
  "7374": "medios de comunic",
  "7375": "concentr",
  "7376": "propietari",
  "7377": "ON",
  "7378": "entes, ",
  "7379": ".​\nEn ",
  "7380": "osas ",
  "7381": "as que se ",
  "7382": "exteri",
  "7383": "fuerzas arm",
  "7384": "la India ha ",
  "7385": "vec",
  "7386": "manteni",
  "7387": "miento de ",
  "7388": "de esta ",
  "7389": "al de la ",
  "7390": "La India ha ",
  "7391": "as con ",
  "7392": "Paquistán ",
  "7393": "tenido ",
  "7394": "Organización Mundial ",
  "7395": "Estados ",
  "7396": "como las ",
  "7397": "tiene una ",
  "7398": "desarrollo ",
  "7399": "sof",
  "7400": "extr",
  "7401": "extran",
  "7402": "de \"",
  "7403": "erdo ",
  "7404": "Derechos ",
  "7405": "nacional de ",
  "7406": "incluyen ",
  "7407": "os por ",
  "7408": "Ley ",
  "7409": "Ley de ",
  "7410": "dividi",
  "7411": "os a ",
  "7412": "ograf",
  "7413": "ografía\n",
  "7414": "mont",
  "7415": "alto ",
  "7416": "sur del ",
  "7417": "pag",
  "7418": "desier",
  "7419": "desierto de ",
  "7420": "Ghats occid",
  "7421": "Ghats occident",
  "7422": "contiene ",
  "7423": "alizan ",
  "7424": "de la India es de ",
  "7425": "kilómetr",
  "7426": "desemb",
  "7427": "desemboc",
  "7428": "desembocan ",
  "7429": "desembocan en el ",
  "7430": "Entre los ",
  "7431": "extremadamente ",
  "7432": "son el ",
  "7433": "áticos de ",
  "7434": ".​​ El ",
  "7435": "juni",
  "7436": "hú",
  "7437": "húmed",
  "7438": "presenta ",
  "7439": "mamífer",
  "7440": "cubier",
  "7441": "bosque ",
  "7442": "ampliamente ",
  "7443": "en las zonas rur",
  "7444": "según la ",
  "7445": "os.​ Entre las ",
  "7446": "ganado ",
  "7447": "silv",
  "7448": "convirti",
  "7449": "agríco",
  "7450": "agrícola ",
  "7451": "industria ",
  "7452": "o, las ",
  "7453": "as son ",
  "7454": "productos quí",
  "7455": "productos químic",
  "7456": "petr",
  "7457": "petró",
  "7458": "petróle",
  "7459": "billones de ",
  "7460": "billones de dólar",
  "7461": "idad de ",
  "7462": "promedi",
  "7463": "tip",
  "7464": ".​​\n\n",
  "7465": "millones ",
  "7466": "barri",
  "7467": " % en ",
  "7468": "han sido ",
  "7469": "ni ",
  "7470": "das ",
  "7471": "Tr",
  "7472": "jainist",
  "7473": "familias ",
  "7474": "clásicas",
  "7475": "télu",
  "7476": "télugu",
  "7477": "2010 ",
  "7478": "a menudo ",
  "7479": "matrimoni",
  "7480": "estilos ",
  "7481": "populares ",
  "7482": "obras ",
  "7483": "tici",
  "7484": "deporte ",
  "7485": "críquet ",
  "7486": "Copa Mundial de Críquet de ",
  "7487": "Premi",
  "7488": "út",
  "7489": "útbol ",
  "7490": "Port",
  "7491": "sobre India.\n Wik",
  "7492": "India Archiv",
  "7493": "India Archivado ",
  "7494": "India Archivado el ",
  "7495": "en Wayback Machine",
  "7496": "en Wayback Machine. en ",
  "7497": "ally the ",
  "7498": "It ",
  "7499": "independence in ",
  "7500": "democrac",
  "7501": "ed by the Indian ",
  "7502": "Oce",
  "7503": "on the south",
  "7504": "Arabian Sea ",
  "7505": "west, and the ",
  "7506": "theast",
  "7507": "China, Nep",
  "7508": "Bangladesh ",
  "7509": ". In the Indian ",
  "7510": "near ",
  "7511": "a and the ",
  "7512": "es. Its ",
  "7513": "Andaman and ",
  "7514": "Andaman and Nicobar ",
  "7515": "Andaman and Nicobar Is",
  "7516": "Myanmar, Th",
  "7517": "Myanmar, Thail",
  "7518": "and and ",
  "7519": "from Africa ",
  "7520": "55,000 years ago",
  "7521": "55,000 years ago. Their ",
  "7522": "55,000 years ago. Their long ",
  "7523": "55,000 years ago. Their long occup",
  "7524": "55,000 years ago. Their long occupation, ",
  "7525": "isolation ",
  "7526": "isolation as h",
  "7527": "isolation as hun",
  "7528": "isolation as hunter",
  "7529": "isolation as hunter-",
  "7530": "isolation as hunter-g",
  "7531": "isolation as hunter-gath",
  "7532": "isolation as hunter-gather",
  "7533": "isolation as hunter-gatherers, ",
  "7534": "isolation as hunter-gatherers, has ",
  "7535": "isolation as hunter-gatherers, has ma",
  "7536": "isolation as hunter-gatherers, has made the ",
  "7537": "isolation as hunter-gatherers, has made the region ",
  "7538": "isolation as hunter-gatherers, has made the region high",
  "7539": "isolation as hunter-gatherers, has made the region highly ",
  "7540": "isolation as hunter-gatherers, has made the region highly diver",
  "7541": "isolation as hunter-gatherers, has made the region highly diverse",
  "7542": "in the western margin",
  "7543": "in the western margins of the ",
  "7544": "in the western margins of the Indus ",
  "7545": "in the western margins of the Indus river ",
  "7546": "basi",
  "7547": "000 years ago, ",
  "7548": "evol",
  "7549": "into the Indus Valley Civilis",
  "7550": "ation of the ",
  "7551": "ation of the third ",
  "7552": "ation of the third millennium BCE",
  "7553": "1200 BCE",
  "7554": "1200 BCE, an ",
  "7555": "1200 BCE, an arch",
  "7556": "1200 BCE, an archaic ",
  "7557": "1200 BCE, an archaic form of ",
  "7558": "1200 BCE, an archaic form of Sanskrit",
  "7559": "1200 BCE, an archaic form of Sanskrit, an ",
  "7560": "1200 BCE, an archaic form of Sanskrit, an Indo-",
  "7561": "1200 BCE, an archaic form of Sanskrit, an Indo-European ",
  "7562": "1200 BCE, an archaic form of Sanskrit, an Indo-European languag",
  "7563": "1200 BCE, an archaic form of Sanskrit, an Indo-European language, ",
  "7564": "diffu",
  "7565": "diffused ",
  "7566": "diffused into India ",
  "7567": "diffused into India from the ",
  "7568": "diffused into India from the northwest",
  "7569": "diffused into India from the northwest. Its ",
  "7570": "hym",
  "7571": "hymn",
  "7572": "existing ",
  "7573": "Dravidian languag",
  "7574": "supplant",
  "7575": "supplanted in the ",
  "7576": "400 BCE, ",
  "7577": "Buddhism and Jainism",
  "7578": "had aris",
  "7579": "had arisen",
  "7580": "cla",
  "7581": "claim",
  "7582": "link",
  "7583": "gave rise ",
  "7584": "loo",
  "7585": "loose",
  "7586": "loose-",
  "7587": "loose-k",
  "7588": "loose-kn",
  "7589": "loose-knit ",
  "7590": ". During this ",
  "7591": "era, ",
  "7592": "was a f",
  "7593": "urish",
  "7594": "creativ",
  "7595": "creativity ",
  "7596": "creativity in ",
  "7597": "creativity in art, ",
  "7598": "creativity in art, architecture",
  "7599": "s of women ",
  "7600": "untouchability ",
  "7601": "organised ",
  "7602": ". In South ",
  "7603": ". In South India, the ",
  "7604": "cultures ",
  "7605": "kingdoms of ",
  "7606": "1st ",
  "7607": "Islam, ",
  "7608": "Chri",
  "7609": "Christian",
  "7610": "Christianit",
  "7611": "Christianity, ",
  "7612": "aism, and ",
  "7613": "Zoroastrian",
  "7614": "Early ",
  "7615": "overran ",
  "7616": "s. The resulting ",
  "7617": "Delhi Sultan",
  "7618": "Delhi Sultanate ",
  "7619": "dre",
  "7620": "drew ",
  "7621": "northern India ",
  "7622": "net",
  "7623": "works of ",
  "7624": "Vijayanagara ",
  "7625": "long-",
  "7626": "ed, re",
  "7627": "institution",
  "7628": "alised ",
  "7629": "sher",
  "7630": "centuri",
  "7631": "centuries of ",
  "7632": "economic expan",
  "7633": "relative ",
  "7634": "relative pe",
  "7635": "Gradu",
  "7636": "expanding ",
  "7637": "rule of the ",
  "7638": "turned ",
  "7639": "sovereignt",
  "7640": "1858",
  "7641": "rights ",
  "7642": "were gr",
  "7643": "were introduc",
  "7644": "as of ",
  "7645": "public life ",
  "7646": "nationalist ",
  "7647": "Empire and ",
  "7648": "Not",
  "7649": "non",
  "7650": "nonviol",
  "7651": "nonviolent ",
  "7652": "ending ",
  "7653": "ed into ",
  "7654": "independent ",
  "7655": "-majority ",
  "7656": "-majority domini",
  "7657": "and a ",
  "7658": "large-",
  "7659": "large-s",
  "7660": "large-scal",
  "7661": "large-scale ",
  "7662": "loss of ",
  "7663": "edent",
  "7664": "through a ",
  "7665": "democratic ",
  "7666": ". It is a ",
  "7667": "lingu",
  "7668": "ethn",
  "7669": "grew from ",
  "7670": "361 million ",
  "7671": "4 billion in ",
  "7672": ". During this time, ",
  "7673": "income ",
  "7674": "increased from ",
  "7675": "01",
  "7676": "middle clas",
  "7677": "reduced ",
  "7678": "poverty ",
  "7679": "rate, ",
  "7680": "cost of ",
  "7681": "increasing ",
  "7682": "nuclear",
  "7683": "that r",
  "7684": "military ex",
  "7685": "neigh",
  "7686": "neighbo",
  "7687": "neighbour",
  "7688": "unresol",
  "7689": "unresolved ",
  "7690": "since the ",
  "7691": "alleng",
  "7692": "es India ",
  "7693": "gender ",
  "7694": "inequality, ",
  "7695": "chil",
  "7696": "child ",
  "7697": "level",
  "7698": "air pollu",
  "7699": "megadiverse ",
  "7700": "biodiversity ",
  "7701": "biodiversity h",
  "7702": "biodiversity hot",
  "7703": "biodiversity hots",
  "7704": "biodiversity hotspot",
  "7705": "s. India's ",
  "7706": "traditionally been ",
  "7707": "view",
  "7708": "ance in ",
  "7709": "its culture",
  "7710": ", is ",
  "7711": "tym",
  "7712": "tymolog",
  "7713": "tymology\n",
  "7714": "immediately ",
  "7715": "lass",
  "7716": "lassical ",
  "7717": "Lati",
  "7718": "ed histor",
  "7719": "stre",
  "7720": "ers of ",
  "7721": "are: ",
  "7722": "�",
  "7723": "Ἰ",
  "7724": "Ἰνδ",
  "7725": "ί",
  "7726": "); ",
  "7727": "or the ",
  "7728": "Indus",
  "7729": "Acha",
  "7730": "Achaem",
  "7731": "Achaemeni",
  "7732": "Old ",
  "7733": "Sindhu",
  "7734": "specific",
  "7735": "well-",
  "7736": "basin",
  "7737": "ferred ",
  "7738": "ans as ",
  "7739": "Bharat (",
  "7740": "Bhā",
  "7741": "pron",
  "7742": "[ˈ",
  "7743": "[ˈb",
  "7744": "[ˈb�",
  "7745": "[ˈbʱ",
  "7746": "aː",
  "7747": "Constitution of ",
  "7748": "appli",
  "7749": "Bharat ",
  "7750": "gained ",
  "7751": "19th century ",
  "7752": "name for ",
  "7753": "Hindustan ",
  "7754": "that became ",
  "7755": "Mughal Empire",
  "7756": "mean",
  "7757": "Indian subcontinent",
  "7758": "present",
  "7759": "-day ",
  "7760": "India and Pakistan",
  "7761": ") or ",
  "7762": "Histor",
  "7763": "History\n",
  "7764": " and Y",
  "7765": "it is ",
  "7766": "earliest extant ",
  "7767": "anatom",
  "7768": "Hom",
  "7769": "Homo s",
  "7770": "Homo sap",
  "7771": "Homo sapi",
  "7772": "Homo sapien",
  "7773": "eli",
  "7774": "var",
  "7775": "ying ",
  "7776": "forms of ",
  "7777": "only ",
  "7778": "diversity. ",
  "7779": "South Asia ",
  "7780": "to about ",
  "7781": "vidence ",
  "7782": "Meh",
  "7783": "Mehr",
  "7784": "Mehrgar",
  "7785": "Mehrgarh ",
  "7786": "Pakistan, ",
  "7787": "dates ",
  "7788": "s (including ",
  "7789": "catt",
  "7790": "cattle",
  "7791": "occur",
  "7792": "occurred ",
  "7793": "ed during ",
  "7794": "2500",
  "7795": "Harapp",
  "7796": "Harappa, D",
  "7797": "Harappa, Dh",
  "7798": "Harappa, Dhol",
  "7799": "Harappa, Dholavir",
  "7800": "akhi",
  "7801": "hi, ",
  "7802": "characteristic ",
  "7803": "standar",
  "7804": "standardis",
  "7805": "standardised ",
  "7806": "styles, ",
  "7807": "terr",
  "7808": "human figu",
  "7809": "Net",
  "7810": "pastoral ",
  "7811": "Bet",
  "7812": "Between ",
  "7813": "found in the ",
  "7814": "a—",
  "7815": "associated ",
  "7816": "associated with ",
  "7817": "which was ",
  "7818": "composed by ",
  "7819": "speaking ",
  "7820": ". The settl",
  "7821": "Ganges river ",
  "7822": "plain ",
  "7823": "place ",
  "7824": "nex",
  "7825": "next ",
  "7826": "join",
  "7827": "implement",
  "7828": "may ",
  "7829": "es of India ",
  "7830": "north, ",
  "7831": "creat",
  "7832": "creating a ",
  "7833": "broad ",
  "7834": "Indo-Aryan ",
  "7835": "mainly ",
  "7836": "most of the ",
  "7837": "gram",
  "7838": "form ",
  "7839": "codi",
  "7840": "āy",
  "7841": "chap",
  "7842": ". The two ",
  "7843": "bh",
  "7844": "aṇ",
  "7845": "composed in ",
  "7846": "ory",
  "7847": "300 CE",
  "7848": "contemp",
  "7849": "contempor",
  "7850": "urbanisation ",
  "7851": "forti",
  "7852": "fortified ",
  "7853": "cities, ",
  "7854": "caste, ",
  "7855": "those of the ",
  "7856": "Bo",
  "7857": "religions ",
  "7858": "stres",
  "7859": "non-viol",
  "7860": "sacri",
  "7861": "conducted in ",
  "7862": "birth ",
  "7863": "xed ",
  "7864": "hereditary ",
  "7865": "living ",
  "7866": "Buddha ",
  "7867": "begin",
  "7868": "beginnings of ",
  "7869": "drop",
  "7870": "geograph",
  "7871": "Asia, the ",
  "7872": ". During the ",
  "7873": "er's ",
  "7874": "son, ",
  "7875": "brief",
  "7876": "briefly ",
  "7877": "ies of the ",
  "7878": "t in the ",
  "7879": "period was ",
  "7880": "notable ",
  "7881": "produced ",
  "7882": "s, but also ",
  "7883": "ollowing ",
  "7884": "Kal",
  "7885": "Ashoka ",
  "7886": "Buddhism, ",
  "7887": "subsequently ",
  "7888": "dham",
  "7889": "dhamma ",
  "7890": "and com",
  "7891": "mis",
  "7892": "mission",
  "7893": "numer",
  "7894": "rock and ",
  "7895": "edic",
  "7896": "edicts ",
  "7897": "out the ",
  "7898": "social wel",
  "7899": "social welf",
  "7900": "both the ",
  "7901": "forests, ",
  "7902": "en by ",
  "7903": "mental ",
  "7904": "complex ",
  "7905": "ation and ",
  "7906": "Pl",
  "7907": "Plain",
  "7908": "became a ",
  "7909": "model ",
  "7910": "er the ",
  "7911": "Gupt",
  "7912": "Guptas, ",
  "7913": "based on ",
  "7914": "than the ",
  "7915": "was re",
  "7916": "flect",
  "7917": "ature",
  "7918": "that, ",
  "7919": "that, between ",
  "7920": "ruled by the ",
  "7921": "and eastern ",
  "7922": "plains, ",
  "7923": "river val",
  "7924": "river valle",
  "7925": "six",
  "7926": "th century, the ",
  "7927": "Pallavas ",
  "7928": "power",
  "7929": ". Sim",
  "7930": ". Simultan",
  "7931": ". Simultane",
  "7932": ". Simultaneous",
  "7933": ", which had ",
  "7934": "tion to the ",
  "7935": "akti",
  "7936": "extensively ",
  "7937": "West and ",
  "7938": "from 6",
  "7939": "to 1200 ",
  "7940": "to 1200 CE",
  "7941": "able to ",
  "7942": "clear",
  "7943": "make ",
  "7944": "way for the ",
  "7945": "economy, ",
  "7946": "ruling ",
  "7947": "es.\nIn the ",
  "7948": "Tamil",
  "7949": ". They ",
  "7950": "led to ",
  "7951": " and the ",
  "7952": ". Indian ",
  "7953": "small",
  "7954": "temples ",
  "7955": "patron",
  "7956": "citiz",
  "7957": "citizen",
  "7958": "s to the ",
  "7959": "emple ",
  "7960": "various ",
  "7961": "siz",
  "7962": "appear ",
  "7963": "where ",
  "7964": "s were f",
  "7965": "Laos, ",
  "7966": "Laos, B",
  "7967": "Laos, Br",
  "7968": "Laos, Brun",
  "7969": "i, Cam",
  "7970": "Viet",
  "7971": "Vietnam",
  "7972": "Vietnam, ",
  "7973": "merch",
  "7974": "merchant",
  "7975": "ved in ",
  "7976": "took the ",
  "7977": "sem",
  "7978": "Buddhist and ",
  "7979": ".\nAfter ",
  "7980": "clan",
  "7981": "repeated",
  "7982": "repeatedly ",
  "7983": "a's ",
  "7984": "north-",
  "7985": "event",
  "7986": "eventu",
  "7987": "eventually ",
  "7988": "ment of the ",
  "7989": "120",
  "7990": "1206",
  "7991": "to control ",
  "7992": "North India and ",
  "7993": ". Although ",
  "7994": "largely ",
  "7995": "ject ",
  "7996": "to its ",
  "7997": "laws and ",
  "7998": "cust",
  "7999": "raid",
  "8000": "in the 13",
  "8001": "artis",
  "8002": "artisans ",
  "8003": "ing and ",
  "8004": "pav",
  "8005": "aiv",
  "8006": "build",
  "8007": "technology ",
  "8008": "e, the ",
  "8009": "a large ",
  "8010": "ward",
  "8011": "northern India, ",
  "8012": "then ",
  "8013": "again ",
  "8014": "superior ",
  "8015": "warri",
  "8016": "warrior",
  "8017": "did ",
  "8018": "paci",
  "8019": "diverse ",
  "8020": ", centr",
  "8021": "Akbar",
  "8022": "s un",
  "8023": "far-",
  "8024": "ung ",
  "8025": "real",
  "8026": "y—",
  "8027": "Persian",
  "8028": "to an ",
  "8029": "emperor ",
  "8030": "revenues from ",
  "8031": "agriculture and ",
  "8032": "to ent",
  "8033": "to enter ",
  "8034": "larger ",
  "8035": "market",
  "8036": "sion, ",
  "8037": "age of ",
  "8038": "literary ",
  "8039": "coher",
  "8040": "Marath",
  "8041": "Rajput",
  "8042": "military and ",
  "8043": "during Mughal ",
  "8044": "h, ",
  "8045": "labor",
  "8046": ". Ex",
  "8047": "and political ",
  "8048": "elites ",
  "8049": "acilit",
  "8050": "process of ",
  "8051": "enabl",
  "8052": "affair",
  "8053": "es—",
  "8054": "notably ",
  "8055": "coastal ",
  "8056": "resour",
  "8057": "advanc",
  "8058": "strength ",
  "8059": "attr",
  "8060": "in al",
  "8061": "company ",
  "8062": "1765",
  "8063": "rich",
  "8064": "1820",
  "8065": "ying the ",
  "8066": "material",
  "8067": "onse",
  "8068": "onset of ",
  "8069": "severely ",
  "8070": "effec",
  "8071": ", the East India Company ",
  "8072": "consci",
  "8073": "ously ",
  "8074": "aren",
  "8075": "social reform",
  "8076": "appoint",
  "8077": "1848 ",
  "8078": "Lord D",
  "8079": "Lord Dal",
  "8080": "Lord Dalhou",
  "8081": "Lord Dalhousi",
  "8082": "Lord Dalhousie ",
  "8083": "Gener",
  "8084": "General ",
  "8085": "essenti",
  "8086": "essential ",
  "8087": "demarc",
  "8088": "ve",
  "8089": "population, ",
  "8090": "railw",
  "8091": "railway",
  "8092": "railways, ",
  "8093": "graph",
  "8094": "this time and ",
  "8095": " the Indian ",
  "8096": "1857",
  "8097": "percep",
  "8098": "s, including ",
  "8099": "British-",
  "8100": "British-style ",
  "8101": "rebellion ",
  "8102": "ed many ",
  "8103": "Company ",
  "8104": "minister ",
  "8105": "India. ",
  "8106": "unitary ",
  "8107": "gradual ",
  "8108": "limited ",
  "8109": "parliamentary system, the ",
  "8110": "a feud",
  "8111": "a feudal ",
  "8112": "safe",
  "8113": "safeguard ",
  "8114": "again",
  "8115": "against ",
  "8116": "across ",
  "8117": "half",
  "8118": "was mark",
  "8119": "was marked by ",
  "8120": "set",
  "8121": "small ",
  "8122": "farmer",
  "8123": "dependent ",
  "8124": "s. There ",
  "8125": "s. There was ",
  "8126": "ines, ",
  "8127": "desp",
  "8128": "ris",
  "8129": "bor",
  "8130": "born",
  "8131": "borne ",
  "8132": "by Indian ",
  "8133": "generated ",
  "8134": "especially in the ",
  "8135": "food ",
  "8136": "consump",
  "8137": "tion. The ",
  "8138": "work ",
  "8139": "relief",
  "8140": "World W",
  "8141": "World War ",
  "8142": "1.3 ",
  "8143": "million Indians ",
  "8144": "began",
  "8145": "self-",
  "8146": "non-co-",
  "8147": "Mahat",
  "8148": "Mahatma ",
  "8149": "Mahatma Gandhi",
  "8150": "Indian National ",
  "8151": "Indian National Congress ",
  "8152": "particip",
  "8153": ", the Congres",
  "8154": "al pu",
  "8155": "ation, and ",
  "8156": "advent ",
  "8157": "temper",
  "8158": "secular, ",
  "8159": "liberalis",
  "8160": "liberalisation ",
  "8161": "transformed India ",
  "8162": "growing econom",
  "8163": "persist",
  "8164": "caste-",
  "8165": "Na",
  "8166": "insur",
  "8167": "insurgenci",
  "8168": "Jammu and ",
  "8169": "Jammu and Kashmir",
  "8170": "Northeast ",
  "8171": "India. India has ",
  "8172": "territorial ",
  "8173": "Geography\n",
  "8174": "accoun",
  "8175": "bulk ",
  "8176": "bulk of the Indian ",
  "8177": "tect",
  "8178": "onic ",
  "8179": "a part of the ",
  "8180": "Indo-A",
  "8181": "Indo-Au",
  "8182": "Indo-Australi",
  "8183": "Indo-Australian Plate",
  "8184": "geolog",
  "8185": "million years ag",
  "8186": "southern supercontin",
  "8187": "southern supercontinent ",
  "8188": "caused by ",
  "8189": "spread",
  "8190": "later, ",
  "8191": "ly, the ",
  "8192": "ean",
  "8193": "crust, ",
  "8194": "obstruc",
  "8195": "ed h",
  "8196": "ally",
  "8197": "layer ",
  "8198": "ad of the ",
  "8199": "y, or ",
  "8200": "middle and ",
  "8201": "stiff",
  "8202": "Tibet",
  "8203": "icken",
  "8204": ". Im",
  "8205": "plate ",
  "8206": "ast c",
  "8207": "trou",
  "8208": "apid",
  "8209": " and now ",
  "8210": "es the ",
  "8211": "Indo-Gangetic ",
  "8212": "its first ",
  "8213": "abo",
  "8214": "e, which ",
  "8215": "extend",
  "8216": "e in a ",
  "8217": "erly ",
  "8218": ". To ",
  "8219": ". To the ",
  "8220": "Thar Deser",
  "8221": "survives ",
  "8222": "Sat",
  "8223": "Satpur",
  "8224": "Vind",
  "8225": "Vindh",
  "8226": "Vindhya ",
  "8227": "ranges ",
  "8228": "chain",
  "8229": "Gujarat ",
  "8230": "Chot",
  "8231": "Chota ",
  "8232": "Chota N",
  "8233": "Chota Nag",
  "8234": "Chota Nagpur",
  "8235": "Chota Nagpur ",
  "8236": "Deccan Plateau",
  "8237": "flank",
  "8238": "ed on the ",
  "8239": "Eastern ",
  "8240": "country's ",
  "8241": "rock ",
  "8242": "fas",
  "8243": "fashi",
  "8244": "6°",
  "8245": "4′",
  "8246": "35°",
  "8247": " 30",
  "8248": "′ ",
  "8249": "68°",
  "8250": "97",
  "8251": "97°",
  "8252": " 25",
  "8253": "longitu",
  "8254": "Major ",
  "8255": "s that ",
  "8256": "subst",
  "8257": "substanti",
  "8258": "flow ",
  "8259": "Ganges and the ",
  "8260": "Ganges and the Brahmaputr",
  "8261": "both of which ",
  "8262": "drain into the Bay of ",
  "8263": "drain into the Bay of Bengal",
  "8264": "Yam",
  "8265": "Yamuna ",
  "8266": "extremely ",
  "8267": "gradi",
  "8268": "flood",
  "8269": "course ",
  "8270": "rivers, ",
  "8271": "prevent ",
  "8272": "God",
  "8273": "Godav",
  "8274": "Godavari",
  "8275": "Mahan",
  "8276": "Mahanadi",
  "8277": "Kri",
  "8278": "Krish",
  "8279": "Krishn",
  "8280": "Narm",
  "8281": "Narmada ",
  "8282": "Tap",
  "8283": "Tapti",
  "8284": "coastlin",
  "8285": "coastline ",
  "8286": "measu",
  "8287": "leng",
  "8288": "423 ",
  "8289": "belong to ",
  "8290": "94 ",
  "8291": "Laksh",
  "8292": "Lakshad",
  "8293": "Lakshadwe",
  "8294": "Lakshadweep ",
  "8295": "nav",
  "8296": "ic ch",
  "8297": "consists of the ",
  "8298": "y sh",
  "8299": "s; and ",
  "8300": "marsh",
  "8301": "ores. ",
  "8302": "Co",
  "8303": "Rann ",
  "8304": "of K",
  "8305": "of western ",
  "8306": "India and the ",
  "8307": "Sund",
  "8308": "Sundar",
  "8309": "Sundarb",
  "8310": "latter ",
  "8311": "archi",
  "8312": "agos: ",
  "8313": "coral ",
  "8314": "atol",
  "8315": "28 stat",
  "8316": "28 states and ",
  "8317": "28 states and 8 ",
  "8318": "28 states and 8 union territori",
  "8319": "28 states and 8 union territories",
  "8320": "strong",
  "8321": "win",
  "8322": "monso",
  "8323": "monsoon",
  "8324": "kat",
  "8325": "winds ",
  "8326": "eep",
  "8327": "similar ",
  "8328": "role ",
  "8329": "ure",
  "8330": "monsoon ",
  "8331": "fall",
  "8332": "climatic ",
  "8333": "wet",
  "8334": "subtropical ",
  "8335": "0.7",
  "8336": "between 19",
  "8337": "Himalayan ",
  "8338": "glaci",
  "8339": "including the ",
  "8340": "present ",
  "8341": "century",
  "8342": "Bio",
  "8343": "Biodiversit",
  "8344": "Biodiversity\n",
  "8345": "India is a ",
  "8346": "countri",
  "8347": "es that ",
  "8348": "ological ",
  "8349": "contain ",
  "8350": "habitat ",
  "8351": ".6% of ",
  "8352": "mammals, ",
  "8353": "tile ",
  "8354": "amphibi",
  "8355": "fis",
  "8356": "fish ",
  "8357": "plant ",
  "8358": "plant speci",
  "8359": "endemic",
  "8360": ". India also ",
  "8361": "aps ",
  "8362": "of the world's ",
  "8363": "dense ",
  "8364": "moist ",
  "8365": "forest ",
  "8366": "forest of the ",
  "8367": "land are",
  "8368": "Moder",
  "8369": "forest, ",
  "8370": "dens",
  "8371": "70",
  "8372": "decidu",
  "8373": "deciduous ",
  "8374": "forest of ",
  "8375": "thor",
  "8376": "thorn ",
  "8377": ", now ",
  "8378": "ble",
  "8379": "ali ",
  "8380": "ed from ",
  "8381": "canism",
  "8382": "caused the ",
  "8383": "zo",
  "8384": "zoog",
  "8385": "zooge",
  "8386": "s at ",
  "8387": "contrast",
  "8388": ".8% among ",
  "8389": "Among ",
  "8390": "threatened ",
  "8391": "India contain",
  "8392": "UC",
  "8393": "ger ",
  "8394": "tically ",
  "8395": "tically endangered ",
  "8396": "rum",
  "8397": ", which has ",
  "8398": "dicl",
  "8399": "diclof",
  "8400": "diclofen",
  "8401": "diclofenac",
  "8402": "used for ",
  "8403": "s with ",
  "8404": "open ",
  "8405": "black",
  "8406": "blackb",
  "8407": "blackbuc",
  "8408": "cheet",
  "8409": "ed in India, and the ",
  "8410": "recent decades ",
  "8411": "1935, ",
  "8412": "1972",
  "8413": "ed in 198",
  "8414": "amend",
  "8415": "amendments ",
  "8416": "amendments add",
  "8417": "phere ",
  "8418": "reserv",
  "8419": "Res",
  "8420": "Reser",
  "8421": "Reserv",
  "8422": "eight",
  "8423": "Rams",
  "8424": ".\n\nGovernment",
  "8425": "Poli",
  "8426": "Politics\n",
  "8427": "a multi",
  "8428": "recogn",
  "8429": "ally, \"",
  "8430": "Bharati",
  "8431": "Bharatiya ",
  "8432": "Bharatiya Janata Part",
  "8433": "Bharatiya Janata Party ",
  "8434": "Bharatiya Janata Party (",
  "8435": "Bharatiya Janata Party (BJP",
  "8436": ". \n",
  "8437": "Jawaharlal Nehru ",
  "8438": "prime minister of the ",
  "8439": "office ",
  "8440": "1951, ",
  "8441": "comfor",
  "8442": "comfort",
  "8443": "comfortable ",
  "8444": "s. After ",
  "8445": "died in ",
  "8446": "Bah",
  "8447": "ur ",
  "8448": "Shast",
  "8449": "Shastri ",
  "8450": "chosen by the ",
  "8451": "to be parliamentary ",
  "8452": "to be parliamentary lead",
  "8453": "soon after ",
  "8454": "sign",
  "8455": "Pe",
  "8456": ". She ",
  "8457": "election ",
  "8458": "gency, ",
  "8459": "spend",
  "8460": "civil ",
  "8461": "Emer",
  "8462": "was vot",
  "8463": "was voted ",
  "8464": "out of ",
  "8465": "government last",
  "8466": "government lasted ",
  "8467": "two year",
  "8468": "two years; ",
  "8469": "aran ",
  "8470": "Singh ",
  "8471": "served as prime minister",
  "8472": "return",
  "8473": "returned to ",
  "8474": "1980",
  "8475": "Sikh ",
  "8476": "ants ",
  "8477": "was ass",
  "8478": "was assass",
  "8479": "was assassin",
  "8480": "was assassinat",
  "8481": "was assassinated by ",
  "8482": "suc",
  "8483": "ceed",
  "8484": "tory ",
  "8485": "elections ",
  "8486": "1989",
  "8487": "Front ",
  "8488": "Janata D",
  "8489": "Janata Dal, ",
  "8490": ". Singh ",
  "8491": "Chand",
  "8492": "general election, ",
  "8493": "Congress lead",
  "8494": "Rajiv Gandhi ",
  "8495": "Sri Lankan ",
  "8496": "interven",
  "8497": "Congress emerged ",
  "8498": "Congress emerged as the ",
  "8499": "Congress emerged as the largest ",
  "8500": "Congress emerged as the largest single ",
  "8501": "Congress emerged as the largest single part",
  "8502": "P. ",
  "8503": "P. V. ",
  "8504": "P. V. Nar",
  "8505": "P. V. Narasi",
  "8506": "P. V. Narasim",
  "8507": "P. V. Narasimha ",
  "8508": "P. V. Narasimha R",
  "8509": "P. V. Narasimha Ra",
  "8510": "fiv",
  "8511": "five-",
  "8512": "five-y",
  "8513": "five-ye",
  "8514": "five-year ",
  "8515": "five-year term",
  "8516": ".\nIn ",
  "8517": ", H",
  "8518": "ral ",
  "8519": "serving ",
  "8520": "1998 ",
  "8521": "Vaj",
  "8522": "Vajpay",
  "8523": "Vajpaye",
  "8524": "government was ",
  "8525": "short",
  "8526": "due to the ",
  "8527": "lac",
  "8528": "of a ",
  "8529": "e. E",
  "8530": "ections ",
  "8531": "Alliance ",
  "8532": "Alliance (",
  "8533": "NDA",
  "8534": "formed a coalition ",
  "8535": "formed a coalition government ",
  "8536": "non-Congress ",
  "8537": "NDA ",
  "8538": "defeated",
  "8539": "UPA",
  "8540": "Manmo",
  "8541": "Manmohan ",
  "8542": "oni",
  "8543": "government, ",
  "8544": "external support",
  "8545": "2009 ",
  "8546": "numbers, ",
  "8547": "4 general election, the BJP ",
  "8548": "Narend",
  "8549": "Narendra ",
  "8550": "Narendra Modi ",
  "8551": "absol",
  "8552": "absolut",
  "8553": "won a ",
  "8554": "majority in the ",
  "8555": "2019 ",
  "8556": ". Dem",
  "8557": "ing was ",
  "8558": "Constitution of India ",
  "8559": "abs",
  "8560": "Government ",
  "8561": "Government of India ",
  "8562": "frame",
  "8563": "framework",
  "8564": "ed. The ",
  "8565": "with a ",
  "8566": "exerci",
  "8567": "head ",
  "8568": "head of ",
  "8569": "ing over the ",
  "8570": "ation of a ",
  "8571": "hous",
  "8572": "Lok Sabh",
  "8573": "a, whose ",
  "8574": "deleg",
  "8575": "es are directly ",
  "8576": "every ",
  "8577": "ated by the ",
  "8578": "es. Th",
  "8579": "ere are also ",
  "8580": "United States, ",
  "8581": "or, ",
  "8582": ". An ",
  "8583": "village ",
  "8584": "commit",
  "8585": "committe",
  "8586": "legal ",
  "8587": "(Ar",
  "8588": "(Artic",
  "8589": "(2",
  "8590": "). The ",
  "8591": "Commonweal",
  "8592": "president, the ",
  "8593": "seat",
  "8594": "ers—",
  "8595": "headed by the ",
  "8596": "ble to the ",
  "8597": "as perman",
  "8598": "judici",
  "8599": "compri",
  "8600": "supreme ",
  "8601": "Chi",
  "8602": "Chief",
  "8603": "high court",
  "8604": "jurisdiction ",
  "8605": "involving ",
  "8606": "has the ",
  "8607": "e d",
  "8608": "alid",
  "8609": "any ",
  "8610": "action ",
  "8611": "Ad",
  "8612": "s\nIndia ",
  "8613": "as wel",
  "8614": "as well ",
  "8615": "Cap",
  "8616": "Capital ",
  "8617": "Territ",
  "8618": "ory of ",
  "8619": "1956, ",
  "8620": "Foreign ",
  "8621": "Foreign rel",
  "8622": "Foreign relation",
  "8623": "th of ",
  "8624": "1950s, and ",
  "8625": "relations ",
  "8626": "went to ",
  "8627": "went to war ",
  "8628": "went to war in ",
  "8629": "puted ",
  "8630": "1965 ",
  "8631": "close ",
  "8632": "Soviet ",
  "8633": "Union",
  "8634": "1960",
  "8635": "59",
  "8636": "interv",
  "8637": "port of ",
  "8638": "India to ",
  "8639": "produce ",
  "8640": "s. India ",
  "8641": "nuclear weapons ",
  "8642": "est in ",
  "8643": "additional ",
  "8644": " t",
  "8645": "Nuclear Non-",
  "8646": "Nuclear Non-Prolifer",
  "8647": "Nuclear Non-Proliferation ",
  "8648": "Nuclear Non-Proliferation Treat",
  "8649": "Nuclear Non-Proliferation Treaty, ",
  "8650": "discriminator",
  "8651": "um ",
  "8652": "redi",
  "8653": ". In 2008",
  "8654": "civilian ",
  "8655": "civilian nuclear ",
  "8656": "agre",
  "8657": "time and ",
  "8658": "not a ",
  "8659": "rece",
  "8660": "Intern",
  "8661": "International ",
  "8662": "Agenc",
  "8663": "ements ",
  "8664": "Can",
  "8665": "Canad",
  "8666": "Economy\n",
  "8667": ". As of ",
  "8668": ". As of 202",
  "8669": ". As of 2026, ",
  "8670": "domestic ",
  "8671": "ed the nation ",
  "8672": "th largest ",
  "8673": "red by ",
  "8674": "(PP",
  "8675": "), India ",
  "8676": "average ",
  "8677": "annual ",
  "8678": "5% ",
  "8679": "historically ",
  "8680": "GDP per capita ",
  "8681": "majority of Indians ",
  "8682": "fall ",
  "8683": "group ",
  "8684": "protec",
  "8685": "s. W",
  "8686": "pread ",
  "8687": "side ",
  "8688": "oward",
  "8689": "emph",
  "8690": "emphasi",
  "8691": "invest",
  "8692": "Organization ",
  "8693": "52",
  "8694": "2-",
  "8695": "milli",
  "8696": "million-",
  "8697": "service ",
  "8698": ".1",
  "8699": "exchange ",
  "8700": "100 billion ",
  "8701": "highest ",
  "8702": ", were ",
  "8703": "contribut",
  "8704": "es. In ",
  "8705": "2006",
  "8706": "share of ",
  "8707": "1.6",
  "8708": "in 202",
  "8709": "nin",
  "8710": "porter",
  "8711": "2011, the ",
  "8712": "petro",
  "8713": "exports ",
  "8714": "after China ",
  "8715": "2013 ",
  "8716": "several ",
  "8717": "2007, ",
  "8718": ". Some ",
  "8719": "ly from ",
  "8720": "2,7",
  "8721": "expect",
  "8722": "grow ",
  "8723": "second-",
  "8724": "% during ",
  "8725": "T ",
  "8726": "employed ",
  "8727": "2.8 ",
  "8728": "2.8 million ",
  "8729": "se export",
  "8730": "includes ",
  "8731": "500 ",
  "8732": "manufactur",
  "8733": "India is the world's ",
  "8734": "50",
  "8735": "60",
  "8736": "% of global ",
  "8737": "vac",
  "8738": "up to US$",
  "8739": "42 ",
  "8740": ". India is ",
  "8741": "top",
  "8742": "biot",
  "8743": "biotec",
  "8744": "biotech ",
  "8745": "2012–",
  "8746": "4 billion (",
  "8747": ".2",
  "8748": "3.9",
  "8749": "gig",
  "8750": "gigaw",
  "8751": "al is a ",
  "8752": "cause of ",
  "8753": "green",
  "8754": "greenhouse ",
  "8755": "greenhouse gas ",
  "8756": "greenhouse gas em",
  "8757": "greenhouse gas emis",
  "8758": "greenhouse gas emission",
  "8759": "s, but ",
  "8760": "carb",
  "8761": ". Incre",
  "8762": "Demographic",
  "8763": "Demographics\n",
  "8764": "7,6",
  "8765": "63 ",
  "8766": "s in 2023",
  "8767": "3,42",
  "8768": "census ",
  "8769": "last 50 ",
  "8770": "brou",
  "8771": "brought ",
  "8772": "evolu",
  "8773": "decre",
  "8774": "compar",
  "8775": "peop",
  "8776": "people",
  "8777": "49",
  "8778": "ality ",
  "8779": "per 1,000 li",
  "8780": "per 1,000 live ",
  "8781": "per 1,000 live birth",
  "8782": "where",
  "8783": "whereas ",
  "8784": "2011 census, ",
  "8785": "94",
  "8786": "females ",
  "8787": "in India, ",
  "8788": "foeti",
  "8789": "foetici",
  "8790": "15 ",
  "8791": "4–",
  "8792": "stud",
  "8793": "want",
  "8794": "do not ",
  "8795": "ban ",
  "8796": "selec",
  "8797": ".\nM",
  "8798": "urban areas ",
  "8799": "has been an important ",
  "8800": "dy",
  "8801": "31.",
  "8802": "2001, ",
  "8803": "rural areas",
  "8804": "el of ",
  "8805": "ations in ",
  "8806": "Mumb",
  "8807": "Mumbai, ",
  "8808": "language famili",
  "8809": "break",
  "8810": "down",
  "8811": "ai–",
  "8812": "adai, ",
  "8813": "anes",
  "8814": "e of India's ",
  "8815": "deb",
  "8816": "Dev",
  "8817": "sole ",
  "8818": "e\" of ",
  "8819": "ii) ",
  "8820": "to be an ",
  "8821": "associate ",
  "8822": "during which ",
  "8823": "develo",
  "8824": "developed",
  "8825": "international ",
  "8826": "numeral",
  "8827": "compromise ",
  "8828": "artic",
  "8829": "India's constitution",
  "8830": "t on ",
  "8831": "Sch",
  "8832": "22 ",
  "8833": "but not ",
  "8834": "is ob",
  "8835": "called \"",
  "8836": "Ur",
  "8837": "Urdu",
  "8838": "ati, ",
  "8839": "Kann",
  "8840": "ayalam, ",
  "8841": "Manipur",
  "8842": "onkan",
  "8843": "aith",
  "8844": "ili, ",
  "8845": "ogri, ",
  "8846": "Sant",
  "8847": "history, ",
  "8848": "religion ",
  "8849": "largest population of ",
  "8850": "Ir",
  "8851": "á'",
  "8852": "to be a ",
  "8853": "om of ",
  "8854": "shi",
  "8855": "ship",
  "8856": "% of the population ",
  "8857": "% of the population of India ",
  "8858": "Sarn",
  "8859": "74",
  "8860": ".04%",
  "8861": "al-",
  "8862": "percent",
  "8863": "percentage ",
  "8864": "percentage point",
  "8865": "percentage points in ",
  "8866": "in the rural ",
  "8867": "urban areas",
  "8868": "literacy, ",
  "8869": "Bihar ",
  "8870": "3.8",
  "8871": "2%. In ",
  "8872": "1981 ",
  "8873": "29",
  "8874": "189",
  "8875": "y, in ",
  "8876": "villag",
  "8877": "atistic",
  "8878": "priv",
  "8879": "900 ",
  "8880": "univer",
  "8881": "siti",
  "8882": "colleg",
  "8883": "affirm",
  "8884": "s to its ",
  "8885": "Heal",
  "8886": "tuberculosi",
  "8887": "tuberculosis ",
  "8888": "2022 ",
  "8889": "dise",
  "8890": "ath ",
  "8891": "10 ",
  "8892": "140 ",
  "8893": "24 ",
  "8894": "ulture",
  "8895": "castes, or ",
  "8896": ", V",
  "8897": "ais",
  "8898": "bott",
  "8899": "bottom",
  "8900": "Out",
  "8901": "caste system",
  "8902": "therefor",
  "8903": "\" or \"",
  "8904": "ach ",
  "8905": "divid",
  "8906": "jati",
  "8907": "endog",
  "8908": "to become ",
  "8909": "related to ",
  "8910": "segre",
  "8911": "segreg",
  "8912": "marriages ",
  "8913": "less ",
  "8914": ", especially ",
  "8915": "their natal ",
  "8916": "has served ",
  "8917": "al art",
  "8918": "Buddhist ",
  "8919": "usu",
  "8920": "usually ",
  "8921": "carved ",
  "8922": "excav",
  "8923": "ated in ",
  "8924": "wn",
  "8925": "ancient Indian ",
  "8926": "sculptur",
  "8927": "sculpture in ",
  "8928": "probably ",
  "8929": "preci",
  "8930": "sculpture ",
  "8931": "plic",
  "8932": "figures ",
  "8933": "figure",
  "8934": "Shi",
  "8935": "either ",
  "8936": "cut ",
  "8937": "sites ",
  "8938": "Aj",
  "8939": "Ajant",
  "8940": "artistic ",
  "8941": "00 CE, ",
  "8942": "classical period ",
  "8943": "sa",
  "8944": "saw ",
  "8945": "dominance of ",
  "8946": "a C",
  "8947": "a Cav",
  "8948": "bronz",
  "8949": "sust",
  "8950": "achi",
  "8951": "Nat",
  "8952": "before the ",
  "8953": "developed ",
  "8954": "considerable ",
  "8955": "Kali",
  "8956": "everyday ",
  "8957": "folk ",
  "8958": "Calcu",
  "8959": "mathematics ",
  "8960": "Vedic ",
  "8961": ") (",
  "8962": ". 7",
  "8963": "agor",
  "8964": ".) ",
  "8965": "mathematical ",
  "8966": "manuscript ",
  "8967": "ocu",
  "8968": "th century CE",
  "8969": "yab",
  "8970": "arā",
  "8971": "mal ",
  "8972": "mathemati",
  "8973": "mathematicians ",
  "8974": "concep",
  "8975": "onome",
  "8976": "cosin",
  "8977": "ampl",
  "8978": "Indian classical ",
  "8979": "music has ",
  "8980": "Hindustan",
  "8981": "i and ",
  "8982": "Carn",
  "8983": "Carnatic ",
  "8984": "i is ",
  "8985": "improvi",
  "8986": "improvis",
  "8987": "ile ",
  "8988": "both styl",
  "8989": "Indian fil",
  "8990": "Indian film",
  "8991": "sun",
  "8992": "ers. ",
  "8993": "pop ",
  "8994": "classical, ",
  "8995": "dance is ",
  "8996": "Acad",
  "8997": "Academi",
  "8998": "s. Although ",
  "8999": "dances ",
  "9000": "criteri",
  "9001": "dances of ",
  "9002": "\", ",
  "9003": "dance-dramas Ch",
  "9004": "dance-dramas Chhau",
  "9005": "al, and ",
  "9006": "Odish",
  "9007": "akshag",
  "9008": "akshagan",
  "9009": "include ",
  "9010": "Utt",
  "9011": "Uttar ",
  "9012": "Uttar Prades",
  "9013": "Tamil N",
  "9014": "Tamil Nadu",
  "9015": "Bhangr",
  "9016": ", for ",
  "9017": ", for ex",
  "9018": ", for examp",
  "9019": ", for example",
  "9020": ", for example, ",
  "9021": "century ",
  "9022": "ables, ",
  "9023": "Pan",
  "9024": "cover",
  "9025": "asp",
  "9026": "Post",
  "9027": "Post-",
  "9028": ". For ",
  "9029": "sari",
  "9030": "shoul",
  "9031": "shoulder",
  "9032": "comb",
  "9033": "waist ",
  "9034": "commonly worn ",
  "9035": "-bod",
  "9036": "-body ",
  "9037": "-body gar",
  "9038": "-body garment",
  "9039": "cloth",
  "9040": "dho",
  "9041": "dhoti",
  "9042": "(c. ",
  "9043": "shal",
  "9044": "py",
  "9045": "pyj",
  "9046": "pyjam",
  "9047": "tun",
  "9048": "tunic",
  "9049": "kurta ",
  "9050": "yp",
  "9051": "narro",
  "9052": "waist",
  "9053": "Wh",
  "9054": "below the ",
  "9055": "wear",
  "9056": "remain ",
  "9057": "formal oc",
  "9058": "formal occ",
  "9059": "formal occasi",
  "9060": "war kameez ",
  "9061": "wear ",
  "9062": "sport",
  "9063": "sports ",
  "9064": "jack",
  "9065": "jacket",
  "9066": "gal",
  "9067": "groom",
  "9068": "isine",
  "9069": "cere",
  "9070": "cereal ",
  "9071": "savour",
  "9072": "savoury ",
  "9073": "savoury dish",
  "9074": "steam",
  "9075": "steamed ",
  "9076": "dos",
  "9077": "a g",
  "9078": "rid",
  "9079": "garl",
  "9080": "garlic, ",
  "9081": "on, ",
  "9082": "inst",
  "9083": "a featur",
  "9084": "meat is ",
  "9085": "cooking tech",
  "9086": "cooking techni",
  "9087": "ques ",
  "9088": "partially ",
  "9089": "din",
  "9090": "conce",
  "9091": "tandoori",
  "9092": "entre",
  "9093": "kab",
  "9094": "kabaddi",
  "9095": "kho ",
  "9096": "kho kh",
  "9097": "gilli",
  "9098": "gilli-d",
  "9099": "gilli-dand",
  "9100": "Chess ",
  "9101": "Cham",
  "9102": "Champi",
  "9103": ".\nC",
  "9104": "World C",
  "9105": "World Cup",
  "9106": "T20 ",
  "9107": "fiel",
  "9108": "medal",
  "9109": "mpic",
  "9110": "Refer",
  "9111": "Bib",
  "9112": "Bibli",
  "9113": "web",
  "9114": "Direc",
  "9115": "India Archived ",
  "9116": "World Factbook",
  "9117": ". Centr",
  "9118": "Gov",
  "9119": "GovP",
  "9120": "GovPub",
  "9121": "vers",
  "9122": "Libr",
  "9123": "Librari",
  "9124": "BB",
  "9125": "BBC",
  "9126": " Wikimedia At",
  "9127": "Open",
  "9128": "OpenS",
  "9129": "OpenStre",
  "9130": "OpenStreet",
  "9131": "OpenStreetM",
  "9132": "OpenStreetMap",
  "9133": "भारत",
  "9134": ": भारत गणराज्य",
  "9135": "़ी",
  "9136": "Republic of India",
  "9137": ", ल",
  "9138": " रिप",
  "9139": " इण्ड",
  "9140": " भारतीय उपमहाद्वीप",
  "9141": " का सबसे बड़ा देश है। भारत",
  "9142": "वाँ",
  "9143": "ोण",
  "9144": " के पश्चिम",
  "9145": " में पाकिस्तान",
  "9146": "�श्चिम में �",
  "9147": "गान",
  "9148": "ूर्व में �",
  "9149": " और भ",
  "9150": "ान, �",
  "9151": "ांग्ल",
  "9152": "ांग्लाद",
  "9153": "ांग्लादेश",
  "9154": "्यान",
  "9155": " स्थित हैं। �",
  "9156": "ालदीव, �",
  "9157": "�क्षिण में �",
  "9158": "�्रीलंक",
  "9159": "�्रीलंका और �",
  "9160": "�क्षिण-प",
  "9161": "�ंडोन",
  "9162": "�ंडोनेशिय",
  "9163": "�ारत की स",
  "9164": " सीमा �",
  "9165": "ती है। �",
  "9166": "�त्तर में हिमालय",
  "9167": " महासागर",
  "9168": "ाड़ी �",
  "9169": "र है।\n",
  "9170": "म्पूर्ण",
  "9171": " में फैल",
  "9172": " थी और �",
  "9173": "�िन्दू धर्म",
  "9174": " हो च",
  "9175": "ुकी �",
  "9176": "�ी। इस",
  "9177": "ी समय",
  "9178": "ैन धर्म",
  "9179": " हो रह",
  "9180": "�े।\n",
  "9181": " ने ग",
  "9182": " मौर्य",
  "9183": " और गुप्त साम्राज्य",
  "9184": " जन्म",
  "9185": "ा।\n�",
  "9186": "�ुआ थ",
  "9187": "\nप्रारम्भिक",
  "9188": "ुग",
  "9189": " काल में",
  "9190": ", ईस",
  "9191": ", इस्लाम",
  "9192": "हू",
  "9193": "हूद",
  "9194": "�श्चिमी �",
  "9195": "�ट",
  "9196": "�ध्य एशिय",
  "9197": " सेनाओं �",
  "9198": "�त्तरी �",
  "9199": "�ैदानों पर �",
  "9200": "�गातार",
  "9201": " अत्य",
  "9202": "ाचार",
  "9203": " किया, अन्ततः",
  "9204": " दिल्ली सल्तनत",
  "9205": " दिल्ली सल्तनत की स्थापना हुई",
  "9206": "�त्तर भारत को",
  "9207": "कालीन",
  "9208": " इस्लाम",
  "9209": " में मिल",
  "9210": " 15",
  "9211": " वीं शताब्दी में, �",
  "9212": "�िजय",
  "9213": "नगर",
  "9214": "नगर साम्राज्य",
  "9215": " ने दक्षिण भारत",
  "9216": " लंबे समय तक",
  "9217": " चलने �",
  "9218": " संस्कृति बन",
  "9219": "�ीरे-धीरे �",
  "9220": " ईस्ट",
  "9221": " ईस्ट इंड",
  "9222": " ईस्ट इंडिया",
  "9223": " ईस्ट इंडिया क",
  "9224": "निवेश",
  "9225": "�दल",
  "9226": "ता को",
  "9227": "वाद",
  "9228": " हुआ जिस",
  "9229": " विरोध",
  "9230": " के लिए जान",
  "9231": " में ब्रिटिश",
  "9232": "ों में विभाज",
  "9233": "ित किया गय",
  "9234": " अधिर",
  "9235": " अधिराज्य",
  "9236": " तथा पाकिस्तान",
  "9237": ", जिन्हें �",
  "9238": " के आधार पर �",
  "9239": " एक संघीय",
  "9240": " हो गई",
  "9241": "। प्र",
  "9242": "क्ति आय",
  "9243": "- 2",
  "9244": " में $",
  "9245": ", श",
  "9246": "की स",
  "9247": " 16",
  "9248": " पुरुषों के लिए",
  "9249": " 6",
  "9250": " महिल",
  "9251": "ेज़",
  "9252": "ेज़ी से �",
  "9253": "�ढ़ती हुई",
  "9254": "ा और स",
  "9255": "ूचना प्रौद्योगिकी स",
  "9256": "ूचना प्रौद्योगिकी सेव",
  "9257": " बन गया है। �",
  "9258": "�ल",
  "9259": "ेखन",
  "9260": "�द",
  "9261": "गति",
  "9262": " फ़",
  "9263": " और आ",
  "9264": " शिक्ष",
  "9265": "ैश",
  "9266": "ैश्व",
  "9267": " भूम",
  "9268": "़रीब",
  "9269": "ी द",
  "9270": "ा है। भारत",
  "9271": "�ाला �",
  "9272": "�ाला देश है। भारत",
  "9273": "-चीन",
  "9274": " क्षेत्र को",
  "9275": " लेकर भारत और �",
  "9276": " लेकर भारत और पाकिस्तान",
  "9277": "ी, भ",
  "9278": "ष्ट",
  "9279": "�्रद",
  "9280": "षण",
  "9281": " इत्य",
  "9282": " इत्याद",
  "9283": " इत्यादि",
  "9284": "ौत",
  "9285": "�रंपरागत",
  "9286": "गह",
  "9287": "रक्ष",
  "9288": " आव",
  "9289": "िवास कर",
  "9290": " कल",
  "9291": " तट",
  "9292": "�िस",
  "9293": "ित किए गए",
  "9294": "|\n\n",
  "9295": "नाम",
  "9296": "�ंग्रेज़ी �",
  "9297": "िया (",
  "9298": " सिंधु",
  "9299": "�र्णित",
  "9300": "देव",
  "9301": "�ेट",
  "9302": " सम्र",
  "9303": " सम्राट",
  "9304": " के अनुसार भारत",
  "9305": " (भ",
  "9306": " शब",
  "9307": " शब्द",
  "9308": " या �",
  "9309": "ी प्र",
  "9310": " की भूम",
  "9311": " हुआ।  ",
  "9312": "�क म",
  "9313": "बोल",
  "9314": "ने की �",
  "9315": "िड",
  "9316": "�ी प्र",
  "9317": " के अन्तर्ग",
  "9318": " के अन्तर्गत",
  "9319": "ता थ",
  "9320": "। भारत को",
  "9321": "�ारतवर्ष",
  "9322": ", आ",
  "9323": "ावर्त",
  "9324": "ूद",
  "9325": "ाचीन भारत",
  "9326": " और सम",
  "9327": "िंधु",
  "9328": "िंधु घ",
  "9329": "िंधु घाट",
  "9330": "िंधु घाटी सभ्य",
  "9331": "�ौर्य",
  "9332": "ंग्र",
  "9333": " तक अ",
  "9334": " महत्व",
  "9335": " महत्वपूर्ण",
  "9336": " शामिल",
  "9337": " पहले",
  "9338": " (प्र",
  "9339": " आधुनिक",
  "9340": " मानव",
  "9341": "�ारतीय उपमहाद्वीप",
  "9342": " का प्राचीनतम",
  "9343": " अवश",
  "9344": " अवशेष",
  "9345": "�ध्य प्रदेश",
  "9346": " में मान",
  "9347": " जीवन",
  "9348": " हैं ज",
  "9349": " स्थाई",
  "9350": " 9",
  "9351": "रुप",
  "9352": " लिय",
  "9353": "00 ईसा पूर्व तक",
  "9354": "�न",
  "9355": "वर",
  "9356": "ों का निर्माण",
  "9357": "�वश",
  "9358": "�वशेष",
  "9359": "ा था जो",
  "9360": "�ै। ",
  "9361": " एशिया",
  "9362": " की सबसे प्राचीन",
  "9363": " शहर",
  "9364": "�र",
  "9365": "�रम",
  "9366": "�रम पर �",
  "9367": "�रम पर थी। �",
  "9368": "जो",
  "9369": "ावीर",
  "9370": "ों के आसपास",
  "9371": "�िर्भ",
  "9372": "�िर्भर �",
  "9373": "�ी, �",
  "9374": " व्याप",
  "9375": "�सी �",
  "9376": "�सी युग",
  "9377": " हिन्दू धर्म",
  "9378": " से ज",
  "9379": " ग्र",
  "9380": " तथा प",
  "9381": " को व",
  "9382": " माना जाता है।",
  "9383": " से भारतीय",
  "9384": " हुआ थ",
  "9385": "ी अव",
  "9386": "।\nव",
  "9387": "ता में �",
  "9388": "�सा पूर्व",
  "9389": " में छोट",
  "9390": "े राज्य",
  "9391": " कुलीन",
  "9392": "म्मिल",
  "9393": "म्मिलित",
  "9394": "े मह",
  "9395": "ाजन",
  "9396": "�हरीकरण",
  "9397": "�दय",
  "9398": " के ज",
  "9399": " के जीवन",
  "9400": "ित्व",
  "9401": "ुद्ध",
  "9402": " की शिक्ष",
  "9403": "�धारित",
  "9404": " के अनु",
  "9405": "�ं",
  "9406": " को छोड़कर �",
  "9407": "�र्ग",
  "9408": " बढ़ती �",
  "9409": " आदर्श",
  "9410": "�ाली �",
  "9411": " की स्थापना",
  "9412": "�ीसरी �",
  "9413": "�ीसरी शताब्द",
  "9414": " मग",
  "9415": " मगध",
  "9416": " के कुछ",
  "9417": " हिस्स",
  "9418": "�पना �",
  "9419": "िपत्य",
  "9420": "िपत्य स्थापित",
  "9421": " कर ल",
  "9422": " कर लिया",
  "9423": " क्य",
  "9424": " क्यों",
  "9425": " क्योंकि",
  "9426": "म्म",
  "9427": "्रमण",
  "9428": ", जिनके �",
  "9429": " हुए। �",
  "9430": "�गे",
  "9431": " का समय",
  "9432": "ब भारत",
  "9433": " वंश",
  "9434": " का शासन थ",
  "9435": "ा, भारत",
  "9436": " कहल",
  "9437": " प्रायद",
  "9438": " प्रायद्वीप",
  "9439": "�े",
  "9440": "ांड्य",
  "9441": "�ड़े स",
  "9442": "ोम",
  "9443": " और दक्षिण",
  "9444": "�ौ",
  "9445": " के बीच ग",
  "9446": " ने व",
  "9447": "हद",
  "9448": "�िर्ध",
  "9449": " प्रणाली �",
  "9450": "चलन",
  "9451": " विज्ञान",
  "9452": ", कल",
  "9453": "ा, स",
  "9454": ", ख",
  "9455": " प्रौद्योगिक",
  "9456": "ी, धर्म",
  "9457": "\nम",
  "9458": "त्थान",
  "9459": "ौज",
  "9460": "०६",
  "9461": " से ६",
  "9462": "�ासन किय",
  "9463": "�ाज्य का विस्तार",
  "9464": " करने का प्रयास किय",
  "9465": "ा किन्तु",
  "9466": "क्क",
  "9467": "ालुक",
  "9468": "ालुक्य",
  "9469": "ालुक्यों ने �",
  "9470": "�से ह",
  "9471": "रा दिय",
  "9472": "�सके �",
  "9473": "�ाह",
  "9474": " बंगाल",
  "9475": " शासक",
  "9476": "ा। ज",
  "9477": "�िस्तार",
  "9478": "ित कर दिय",
  "9479": "ोलों द्वार",
  "9480": "�नका �",
  "9481": "�ास",
  "9482": "क एक",
  "9483": " बनाने �",
  "9484": " बनाने में स",
  "9485": "क्षम",
  "9486": "�ुस",
  "9487": " जारी �",
  "9488": " अव",
  "9489": "े गए",
  "9490": " सामान्य",
  "9491": " होने �",
  "9492": "6 और",
  "9493": " तमिल",
  "9494": "�नाय",
  "9495": "�नाया गया थ",
  "9496": "रु",
  "9497": " भाषाओं के व",
  "9498": " भाषाओं के विकास",
  "9499": "�ोगों को",
  "9500": "मार",
  "9501": "ैंड",
  "9502": "ीपी",
  "9503": ", मल",
  "9504": "�ेखा ज",
  "9505": "ा सकता है",
  "9506": "ता तथा �",
  "9507": " बड़ी स",
  "9508": "�ार",
  "9509": " अधिक",
  "9510": " नियंत्र",
  "9511": " करना थ",
  "9512": "�क",
  "9513": "�ड़े पैमान",
  "9514": "�ड़े पैमाने पर �",
  "9515": "िवाज",
  "9516": " १३",
  "9517": " विजय",
  "9518": "जबूत",
  "9519": " करते हुए",
  "9520": " पर शासन",
  "9521": " भारतीय समाज",
  "9522": " प्रभा�",
  "9523": " प्रभावित",
  "9524": " किया।\n",
  "9525": "१७",
  "9526": "वीं शताब्द",
  "9527": "वीं शताब्दी",
  "9528": " में पुर्तगाल",
  "9529": ", फ्रांस",
  "9530": " यूरोपीय",
  "9531": " भारत से �",
  "9532": "�्यापार",
  "9533": "�्यापार करने",
  "9534": " के इ",
  "9535": "ता का �",
  "9536": "�ायद",
  "9537": "�ायदा �",
  "9538": "�ठाय",
  "9539": "�ालां",
  "9540": "�ालांकि",
  "9541": " अंग्रेज",
  "9542": " में आ",
  "9543": " विद्रोह",
  "9544": "ि व",
  "9545": "ड़ाई",
  "9546": "ाकर �",
  "9547": "�समें �",
  "9548": " कामय",
  "9549": " कामयाब",
  "9550": " तक लगभग",
  "9551": " सम्प",
  "9552": "�हीं �",
  "9553": "ा दे",
  "9554": " अशांति",
  "9555": " इस प्रकार",
  "9556": "�हले �",
  "9557": "ं में स",
  "9558": "ा गया। �",
  "9559": " वाल",
  "9560": "ाता की �",
  "9561": "ाता की हत्य",
  "9562": "िर �",
  "9563": "ओं",
  "9564": "�ेखो",
  "9565": " आपके �",
  "9566": "�हे हैं",
  "9567": "े त",
  "9568": "्वतन",
  "9569": "्वतन्त्र",
  "9570": "�धिकां",
  "9571": "�धिकांश",
  "9572": "�ंग्रेजी �",
  "9573": "�ंग्रेजी शासन",
  "9574": "शासनिक",
  "9575": " के प्रारम्भ",
  "9576": "टल पर �",
  "9577": "ूत्र",
  "9578": "पात",
  "9579": " और राजनीतिक",
  "9580": "�नेक",
  "9581": "नों �",
  "9582": "८५",
  "9583": "िमान",
  "9584": " स्वरूप",
  "9585": " स्वतंत्रता प्राप्ति",
  "9586": "�िशाल",
  "9587": "�िशाल अ",
  "9588": "�िशाल अहिंस",
  "9589": "�िशाल अहिंसाव",
  "9590": "�िशाल अहिंसावाद",
  "9591": "ी संघर्ष चल",
  "9592": "ी संघर्ष चला, जिस",
  "9593": "ी संघर्ष चला, जिसक",
  "9594": "ी संघर्ष चला, जिसका न",
  "9595": "ेतृत्‍",
  "9596": "ेतृत्‍व",
  "9597": "�धुनिक भारत",
  "9598": "राष्ट्र",
  "9599": "ा'",
  "9600": " के रूप में स",
  "9601": " के रूप में संब",
  "9602": " के रूप में संबोध",
  "9603": " के रूप में संबोधित किय",
  "9604": " के रूप में संबोधित किये �",
  "9605": " के रूप में संबोधित किये जात",
  "9606": " के लिए भी �",
  "9607": " क्रांत",
  "9608": "िवाद",
  "9609": "ेब",
  "9610": " ‘",
  "9611": "र्मात",
  "9612": "ा’",
  "9613": " नि",
  "9614": " एवं",
  "9615": "�सके साथ",
  "9616": "र आ",
  "9617": "�ल",
  "9618": " के फ",
  "9619": " अगस्त",
  "9620": " २६",
  "9621": "जात",
  "9622": "ने के कारण",
  "9623": " समय-स",
  "9624": " समय-समय",
  "9625": " विद",
  "9626": "�िकार",
  "9627": "�िकार हो",
  "9628": "�िकार होना पड़",
  "9629": "निरपेक्ष",
  "9630": " १९७५",
  "9631": " तत",
  "9632": " तत्क",
  "9633": " तत्काल",
  "9634": " तत्कालीन",
  "9635": "�ंदिरा गांधी �",
  "9636": "�पात",
  "9637": "�पातकाल",
  "9638": "�पातकाल की घोषण",
  "9639": "�पातकाल की घोषणा कर �",
  "9640": "�पातकाल की घोषणा कर दी �",
  "9641": "क्षु",
  "9642": "क्षुण्�",
  "9643": "क्षुण्ण",
  "9644": "ामना",
  "9645": "ामना करना �",
  "9646": "ामना करना प",
  "9647": "�ीन के साथ",
  "9648": ", १९६",
  "9649": " १९९�",
  "9650": "ाइय",
  "9651": "ंयुक्त राष्ट्र",
  "9652": " देशों में से �",
  "9653": " परीक्षण",
  "9654": "�रीक्षण",
  "9655": " किये ग",
  "9656": "�० के दशक",
  "9657": "�र्थिक सुधार",
  "9658": "ौल",
  "9659": " गया है",
  "9660": " एवं �",
  "9661": "-आक",
  "9662": "-आकृत",
  "9663": "ें\nभारत",
  "9664": "ौर पर �",
  "9665": " गोंड",
  "9666": " का हिस्स",
  "9667": "ार्क",
  "9668": "ार्कट",
  "9669": "ार्कटिक",
  "9670": "ा के साथ",
  "9671": " सेम",
  "9672": " सेमी.",
  "9673": " की गति से �",
  "9674": " की गति से उत्तर",
  "9675": " की गति से उत्तर की ओर �",
  "9676": "ूरेशिय",
  "9677": "ूरेशियन",
  "9678": "ूरेशियन प्लेट",
  "9679": "�वसाद",
  "9680": "�पर �",
  "9681": "्ब",
  "9682": "िन्ध",
  "9683": "िन्धु",
  "9684": "िन्धु-",
  "9685": "िन्धु-ग",
  "9686": "िन्धु-गंगा �",
  "9687": "िन्धु-गंगा मैदान",
  "9688": " अभी भी �",
  "9689": "/वर्ष",
  "9690": "�तिशील",
  "9691": " है और हिमालय",
  "9692": "तमाल",
  "9693": "ों से बन",
  "9694": "श्रेण",
  "9695": " १",
  "9696": " मील तक",
  "9697": " संसार",
  "9698": " की सबसे ऊँच",
  "9699": ",००",
  "9700": ",०००",
  "9701": " फुट",
  "9702": " ऊँच",
  "9703": "ेस्ट",
  "9704": " है जिस",
  "9705": " २९",
  "9706": "ंगा तथा �",
  "9707": "्रह",
  "9708": "्रह्म",
  "9709": "्रह्मप",
  "9710": "्रह्मपु",
  "9711": "्रह्मपुत्र",
  "9712": "हायक",
  "9713": "हट",
  "9714": "हाँ नदियाँ",
  "9715": " करती हैं",
  "9716": ", एक",
  "9717": " कंक",
  "9718": " कंकड",
  "9719": "र म",
  "9720": "िश्रित",
  "9721": " पाया जाता है",
  "9722": " जिसमें �",
  "9723": "दियाँ",
  "9724": " हो जात",
  "9725": " हो जाती हैं। �",
  "9726": " ढ",
  "9727": "�ाब",
  "9728": "�ाबर",
  "9729": " के दक्षिण में �",
  "9730": "�र",
  "9731": "�राई",
  "9732": " है, जहाँ",
  "9733": " पुन",
  "9734": " दल",
  "9735": " के हैं",
  "9736": "�वीन",
  "9737": "�वीन ज",
  "9738": "�वीन जलोढ़",
  "9739": " कहते हैं। यह",
  "9740": " में पाया जाता है",
  "9741": " नदियों की �",
  "9742": " नदियों की ब",
  "9743": " नदियों की बा�",
  "9744": " नदियों की बाढ",
  "9745": " नदियों की बाढ़",
  "9746": "�हुँच",
  "9747": "में",
  "9748": " के मैदान",
  "9749": " पठार",
  "9750": " विश्व के स",
  "9751": "्थल",
  "9752": "ंड का �",
  "9753": " तीन",
  "9754": " ओर �",
  "9755": "ियों से �",
  "9756": "�ि",
  "9757": "�िंध",
  "9758": "�िंध्य",
  "9759": "�िंध्याचल",
  "9760": "तपुड़ा की �",
  "9761": "�हाड़",
  "9762": "�हाड़ियाँ",
  "9763": "र्मद",
  "9764": "ी ढ",
  "9765": " और पूर्व",
  "9766": "�था म",
  "9767": "ी किन",
  "9768": "ी किनार",
  "9769": "ी किनारे पर �",
  "9770": " जैसे �",
  "9771": "कोप",
  "9772": "कोपेन",
  "9773": "कोपेन के व",
  "9774": "कोपेन के वर्ग",
  "9775": "कोपेन के वर्गीकरण",
  "9776": "�ह प्रकार",
  "9777": " की जलवायु",
  "9778": " भू",
  "9779": " स्तर पर �",
  "9780": "्पाइन",
  "9781": "�ह प",
  "9782": "त्तर �",
  "9783": "त्तर भारत में �",
  "9784": " तो",
  "9785": "ी भाग",
  "9786": " में निम्न",
  "9787": ");\nउष्ण कटिबंधीय नम",
  "9788": " और श",
  "9789": "ुष्क – (",
  "9790": "�र्ध",
  "9791": "\nश",
  "9792": " मानी जात",
  "9793": "ी रह",
  "9794": "�ैं �",
  "9795": "�रन",
  "9796": "�रन्तु",
  "9797": " विभाग",
  "9798": " जिन्हें �",
  "9799": "ात्मक",
  "9800": "िसंब",
  "9801": " उत्तरी �",
  "9802": " उत्तरी भारत में �",
  "9803": "�स",
  "9804": "�सत",
  "9805": "�सत त",
  "9806": "�सत ताप",
  "9807": "�सत तापमान",
  "9808": " डिग",
  "9809": " डिग्र",
  "9810": " डिग्री स",
  "9811": " डिग्री सेल",
  "9812": " डिग्री सेल्स",
  "9813": " डिग्री सेल्सिय",
  "9814": " डिग्री सेल्सियस",
  "9815": " डिग्री सेल्सियस होता है",
  "9816": " डिग्री सेल्सियस होता है।\n",
  "9817": " महीन",
  "9818": " ४०",
  "9819": " (M",
  "9820": "र तक",
  "9821": "�ोती है",
  "9822": "स्तु",
  "9823": " होता है।",
  "9824": " क्रमश",
  "9825": " क्रमशः",
  "9826": "�िल्ल",
  "9827": "�क्टूब",
  "9828": "ाफ़",
  "9829": " हो ज",
  "9830": "नाडु",
  "9831": "ुम्ब",
  "9832": "ुम्बई",
  "9833": "राजनीति",
  "9834": "�ोकत",
  "9835": " लोकतांत्रिक",
  "9836": " लोकतांत्रिक गणराज्य",
  "9837": " केंद्र और राज्य",
  "9838": " केंद्र और राज्य सरकार",
  "9839": " केंद्र और राज्य सरकारों के बीच",
  "9840": " केंद्र और राज्य सरकारों के बीच शक्त",
  "9841": "ीय प्रणाली �",
  "9842": " संसदीय",
  "9843": " मान्य",
  "9844": "-प्र",
  "9845": " पार्टियां",
  "9846": ", और",
  "9847": "ा क्षेत्रीय",
  "9848": " जनता �",
  "9849": " जनता प",
  "9850": " जनता पार्ट",
  "9851": " के नेतृत्व में",
  "9852": " में सरकार",
  "9853": "ी नरे",
  "9854": "ी नरेंद्र",
  "9855": "ी नरेंद्र मो",
  "9856": "ी भारतीय",
  "9857": "ामपंथ",
  "9858": "ामपंथी और �",
  "9859": " २०१४",
  "9860": " में मन",
  "9861": " १९५०",
  "9862": " में ग",
  "9863": " कॉंग्रेस को",
  "9864": " के बाद से",
  "9865": " चुनावों",
  "9866": "वाहर",
  "9867": "वाहरल",
  "9868": "वाहरलाल",
  "9869": "वाहरलाल ने",
  "9870": "वाहरलाल नेहरू",
  "9871": " की म",
  "9872": "ृत्यु",
  "9873": " के लिये प्रधानमंत्री �",
  "9874": "�ने",
  "9875": "�्रधानमंत्री बन",
  "9876": "�्रधानमंत्री बनीं",
  "9877": " १९७७",
  "9878": " १९७७ के चुनावों में �",
  "9879": "ाज़",
  "9880": "गठित",
  "9881": " के सदस्य",
  "9882": " केब",
  "9883": " सरकार बन",
  "9884": " साल चल",
  "9885": " में हुए",
  "9886": "। १९८४",
  "9887": " गांध",
  "9888": "नव",
  "9889": " के बाहरी सम",
  "9890": " के बाहरी समर्थन",
  "9891": "रकार बनाई, जो",
  "9892": "। १९९१",
  "9893": " के चुनावों में",
  "9894": "ी पार्टी को बहुमत",
  "9895": "ी पार्टी को बहुमत नहीं �",
  "9896": "ी पार्टी को बहुमत नहीं मिल",
  "9897": "ी पार्टी को बहुमत नहीं मिला, �",
  "9898": "ी पार्टी को बहुमत नहीं मिला, पर",
  "9899": "ंतु",
  "9900": " कॉंग्रेस सबसे �",
  "9901": " कॉंग्रेस सबसे बड",
  "9902": " कॉंग्रेस सबसे बडी पार्ट",
  "9903": " कॉंग्रेस सबसे बडी पार्टी �",
  "9904": " कॉंग्रेस सबसे बडी पार्टी बन",
  "9905": "रस",
  "9906": "िंह",
  "9907": " के नेतृत्व में �",
  "9908": " कार्यकाल पूर",
  "9909": "१९९�",
  "9910": " के चुनावों",
  "9911": " के चुनावों के बाद",
  "9912": " साल तक",
  "9913": "थल",
  "9914": "�क्त",
  "9915": "ें आ",
  "9916": "ें आई",
  "9917": "ा ने",
  "9918": " की सरकार",
  "9919": "ी। य",
  "9920": " भाजप",
  "9921": "ा एक",
  "9922": " गठबंधन (",
  "9923": "ग, य",
  "9924": "ग, या �",
  "9925": "ीए)",
  "9926": " के इस",
  "9927": " पहली �",
  "9928": "ी सरकार बन",
  "9929": "�ूप",
  "9930": "�य",
  "9931": "ाया। इस",
  "9932": " २००९",
  "9933": " और अधिक",
  "9934": "िसके",
  "9935": "िसके कारण",
  "9936": " ऐ",
  "9937": "�हले प्र",
  "9938": "े दो",
  "9939": "ने का �",
  "9940": " किसी �",
  "9941": " हुआ, और �",
  "9942": "।\n\nस",
  "9943": " का संविधान",
  "9944": " घोषित",
  "9945": " करता है। भारत",
  "9946": "�ैल",
  "9947": "�्वारा स",
  "9948": "ालित",
  "9949": "चे",
  "9950": " सरकारें हैं",
  "9951": "ियों का �",
  "9952": "वार",
  "9953": "ा संविधान",
  "9954": "रेख",
  "9955": "�ोता है। �",
  "9956": " राज्य और",
  "9957": " राज्यों की तुल",
  "9958": "-फ़",
  "9959": "ेडे",
  "9960": "ेडेरल",
  "9961": "ेडेरल)",
  "9962": "ों के कारण",
  "9963": " (फ़",
  "9964": " न्यायपालिक",
  "9965": "ा संसद",
  "9966": " को कह",
  "9967": " को कहते हैं",
  "9968": " सदन",
  "9969": "सदन",
  "9970": " राज्यसभ",
  "9971": "ा, अ",
  "9972": "थव",
  "9973": "थवा �",
  "9974": " लोकसभ",
  "9975": "�ैं ज",
  "9976": " ५४",
  "9977": "�ाज्यसभ",
  "9978": "ों का चुनाव",
  "9979": ", अ",
  "9980": "त्यक्ष",
  "9981": "त्यक्ष वि�",
  "9982": "त्यक्ष विधि",
  "9983": "�र �",
  "9984": " सभ",
  "9985": " पद",
  "9986": "। लोक",
  "9987": " के माध्यम से",
  "9988": " किया जाता है",
  "9989": " उस",
  "9990": "�िय",
  "9991": "�ियु",
  "9992": "�ियुक्ति",
  "9993": "पति",
  "9994": " की जात",
  "9995": " बने रह",
  "9996": " वर्षों का �",
  "9997": " का प्राव",
  "9998": " का प्रावधान",
  "9999": " नहीं है",
  "10000": "�ोग्य",
  "10001": "िवार्य",
  "10002": " २४ उ",
  "10003": " २४ उच्च न्यायालय",
  "10004": "ारी न",
  "10005": "ारी नि�"
}