{
  "0": "\u0000",
  "1": "\u0001",
  "2": "\u0002",
  "3": "\u0003",
  "4": "\u0004",
  "5": "\u0005",
  "6": "\u0006",
  "7": "\u0007",
  "8": "\b",
  "9": "\t",
  "10": "\n",
  "11": "\u000b",
  "12": "\f",
  "13": "\r",
  "14": "\u000e",
  "15": "\u000f",
  "16": "\u0010",
  "17": "\u0011",
  "18": "\u0012",
  "19": "\u0013",
  "20": "\u0014",
  "21": "\u0015",
  "22": "\u0016",
  "23": "\u0017",
  "24": "\u0018",
  "25": "\u0019",
  "26": "\u001a",
  "27": "\u001b",
  "28": "\u001c",
  "29": "\u001d",
  "30": "\u001e",
  "31": "\u001f",
  "32": " ",
  "33": "!",
  "34": "\"",
  "35": "#",
  "36": "$",
  "37": "%",
  "38": "&",
  "39": "'",
  "40": "(",
  "41": ")",
  "42": "*",
  "43": "+",
  "44": ",",
  "45": "-",
  "46": ".",
  "47": "/",
  "48": "0",
  "49": "1",
  "50": "2",
  "51": "3",
  "52": "4",
  "53": "5",
  "54": "6",
  "55": "7",
  "56": "8",
  "57": "9",
  "58": ":",
  "59": ";",
  "60": "<",
  "61": "=",
  "62": ">",
  "63": "?",
  "64": "@",
  "65": "A",
  "66": "B",
  "67": "C",
  "68": "D",
  "69": "E",
  "70": "F",
  "71": "G",
  "72": "H",
  "73": "I",
  "74": "J",
  "75": "K",
  "76": "L",
  "77": "M",
  "78": "N",
  "79": "O",
  "80": "P",
  "81": "Q",
  "82": "R",
  "83": "S",
  "84": "T",
  "85": "U",
  "86": "V",
  "87": "W",
  "88": "X",
  "89": "Y",
  "90": "Z",
  "91": "[",
  "92": "\\",
  "93": "]",
  "94": "^",
  "95": "_",
  "96": "`",
  "97": "a",
  "98": "b",
  "99": "c",
  "100": "d",
  "101": "e",
  "102": "f",
  "103": "g",
  "104": "h",
  "105": "i",
  "106": "j",
  "107": "k",
  "108": "l",
  "109": "m",
  "110": "n",
  "111": "o",
  "112": "p",
  "113": "q",
  "114": "r",
  "115": "s",
  "116": "t",
  "117": "u",
  "118": "v",
  "119": "w",
  "120": "x",
  "121": "y",
  "122": "z",
  "123": "{",
  "124": "|",
  "125": "}",
  "126": "~",
  "127": "",
  "128": "�",
  "129": "�",
  "130": "�",
  "131": "�",
  "132": "�",
  "133": "�",
  "134": "�",
  "135": "�",
  "136": "�",
  "137": "�",
  "138": "�",
  "139": "�",
  "140": "�",
  "141": "�",
  "142": "�",
  "143": "�",
  "144": "�",
  "145": "�",
  "146": "�",
  "147": "�",
  "148": "�",
  "149": "�",
  "150": "�",
  "151": "�",
  "152": "�",
  "153": "�",
  "154": "�",
  "155": "�",
  "156": "�",
  "157": "�",
  "158": "�",
  "159": "�",
  "160": "�",
  "161": "�",
  "162": "�",
  "163": "�",
  "164": "�",
  "165": "�",
  "166": "�",
  "167": "�",
  "168": "�",
  "169": "�",
  "170": "�",
  "171": "�",
  "172": "�",
  "173": "�",
  "174": "�",
  "175": "�",
  "176": "�",
  "177": "�",
  "178": "�",
  "179": "�",
  "180": "�",
  "181": "�",
  "182": "�",
  "183": "�",
  "184": "�",
  "185": "�",
  "186": "�",
  "187": "�",
  "188": "�",
  "189": "�",
  "190": "�",
  "191": "�",
  "192": "�",
  "193": "�",
  "194": "�",
  "195": "�",
  "196": "�",
  "197": "�",
  "198": "�",
  "199": "�",
  "200": "�",
  "201": "�",
  "202": "�",
  "203": "�",
  "204": "�",
  "205": "�",
  "206": "�",
  "207": "�",
  "208": "�",
  "209": "�",
  "210": "�",
  "211": "�",
  "212": "�",
  "213": "�",
  "214": "�",
  "215": "�",
  "216": "�",
  "217": "�",
  "218": "�",
  "219": "�",
  "220": "�",
  "221": "�",
  "222": "�",
  "223": "�",
  "224": "�",
  "225": "�",
  "226": "�",
  "227": "�",
  "228": "�",
  "229": "�",
  "230": "�",
  "231": "�",
  "232": "�",
  "233": "�",
  "234": "�",
  "235": "�",
  "236": "�",
  "237": "�",
  "238": "�",
  "239": "�",
  "240": "�",
  "241": "�",
  "242": "�",
  "243": "�",
  "244": "�",
  "245": "�",
  "246": "�",
  "247": "�",
  "248": "�",
  "249": "�",
  "250": "�",
  "251": "�",
  "252": "�",
  "253": "�",
  "254": "�",
  "255": "�",
  "256": "�",
  "257": " �",
  "258": "�",
  "259": "ా",
  "260": "�",
  "261": "��",
  "262": "ా�",
  "263": "ి",
  "264": "्�",
  "265": "ం",
  "266": "े",
  "267": "ి�",
  "268": "en",
  "269": "an",
  "270": "de",
  "271": "ర",
  "272": "in",
  "273": " t",
  "274": " క",
  "275": "es",
  "276": "on",
  "277": "త",
  "278": " l",
  "279": "్�",
  "280": "er",
  "281": "ी",
  "282": " de",
  "283": "al",
  "284": "as",
  "285": " c",
  "286": "న",
  "287": "ar",
  "288": "di",
  "289": " p",
  "290": " s",
  "291": "he",
  "292": "os",
  "293": " స",
  "294": "or",
  "295": "ం�",
  "296": "ు",
  "297": "ార",
  "298": " ప",
  "299": "క",
  "300": " m",
  "301": " e",
  "302": "ti",
  "303": " మ",
  "304": " the",
  "305": " I",
  "306": "ो",
  "307": "ci",
  "308": "re",
  "309": "ల",
  "310": " a",
  "311": "ent",
  "312": " la",
  "313": " In",
  "314": " in",
  "315": " o",
  "316": " హ",
  "317": "is",
  "318": " Indi",
  "319": "స",
  "320": "्ర",
  "321": "మ",
  "322": "and",
  "323": " భ",
  "324": "om",
  "325": " f",
  "326": "ed",
  "327": " కे",
  "328": "it",
  "329": " b",
  "330": "ै",
  "331": "ద",
  "332": "ु",
  "333": "ad",
  "334": " el",
  "335": " of",
  "336": "un",
  "337": "ेం",
  "338": " India",
  "339": " w",
  "340": "ic",
  "341": "at",
  "342": " వ",
  "343": " అ",
  "344": "ారత",
  "345": " and",
  "346": "య",
  "347": " y",
  "348": "ాల",
  "349": "।",
  "350": "ur",
  "351": " మेం",
  "352": "ప",
  "353": " en",
  "354": " h",
  "355": "ó",
  "356": "వ",
  "357": "�",
  "358": "ిక",
  "359": "శ",
  "360": " హै",
  "361": " న",
  "362": "హ",
  "363": " ర",
  "364": " జ",
  "365": " n",
  "366": " ద",
  "367": "्య",
  "368": "am",
  "369": " భారత",
  "370": "ే",
  "371": "ో",
  "372": "్ర",
  "373": " బ",
  "374": "ing",
  "375": "ాన",
  "376": "ro",
  "377": " g",
  "378": " re",
  "379": "í",
  "380": "á",
  "381": "est",
  "382": " con",
  "383": "ియ",
  "384": "ra",
  "385": "tion",
  "386": "గ",
  "387": "ri",
  "388": "ర्�",
  "389": "ul",
  "390": "ol",
  "391": "డ",
  "392": "qu",
  "393": "us",
  "394": "ोం",
  "395": " se",
  "396": "il",
  "397": " un",
  "398": "ీ",
  "399": " C",
  "400": " త",
  "401": " ఔ",
  "402": " to",
  "403": "19",
  "404": " ఔర",
  "405": "ón",
  "406": "​",
  "407": "ू",
  "408": " A",
  "409": " ఉ",
  "410": "te",
  "411": "्త",
  "412": "le",
  "413": " d",
  "414": "భ",
  "415": " los",
  "416": "ధ",
  "417": "aci",
  "418": "ట",
  "419": "ig",
  "420": "ాజ",
  "421": " (",
  "422": "ిన",
  "423": ".\n",
  "424": " కी",
  "425": "th",
  "426": " T",
  "427": "20",
  "428": "ly",
  "429": "ాత",
  "430": "im",
  "431": " ఆ",
  "432": " E",
  "433": " గ",
  "434": " ప्ర",
  "435": " r",
  "436": "id",
  "437": " del",
  "438": "ంద",
  "439": " ఇ",
  "440": "ver",
  "441": "ist",
  "442": " com",
  "443": "que",
  "444": "్య",
  "445": " B",
  "446": "ec",
  "447": " par",
  "448": " ల",
  "449": " S",
  "450": "఼",
  "451": " సे",
  "452": "é",
  "453": " su",
  "454": " కా",
  "455": "ment",
  "456": "ణ",
  "457": " సం�",
  "458": " las",
  "459": "ాయ",
  "460": " చ",
  "461": " శ",
  "462": "్",
  "463": ".​",
  "464": "ve",
  "465": "బ",
  "466": "ीయ",
  "467": " P",
  "468": " పర",
  "469": "ab",
  "470": "ిత",
  "471": " al",
  "472": "ter",
  "473": " వి�",
  "474": "ु�",
  "475": " M",
  "476": "tic",
  "477": "ion",
  "478": "ch",
  "479": "ేశ",
  "480": " ar",
  "481": "ce",
  "482": " que",
  "483": "do",
  "484": " di",
  "485": "చ",
  "486": "ె",
  "487": "జ",
  "488": "्ష",
  "489": "ales",
  "490": "ás",
  "491": "ంగ",
  "492": " po",
  "493": "లు",
  "494": "res",
  "495": " v",
  "496": " por",
  "497": "ామ",
  "498": "ియా",
  "499": " ఏ",
  "500": "ాస",
  "501": "్న",
  "502": "ir",
  "503": " est",
  "504": " es",
  "505": " L",
  "506": "ation",
  "507": "ిస",
  "508": " ప్ర",
  "509": " is",
  "510": "ay",
  "511": "ాం",
  "512": "�ా",
  "513": "der",
  "514": "con",
  "515": "ూ",
  "516": " for",
  "517": " ex",
  "518": "ాలు",
  "519": " th",
  "520": "ాద",
  "521": " య",
  "522": "ాష",
  "523": "ై",
  "524": "ado",
  "525": " కो",
  "526": "et",
  "527": "्వ",
  "528": "lo",
  "529": "tu",
  "530": " హैం",
  "531": "st",
  "532": " by",
  "533": "00",
  "534": "du",
  "535": " రాజ",
  "536": " Indian",
  "537": "io",
  "538": " D",
  "539": " so",
  "540": "mp",
  "541": "ant",
  "542": " as",
  "543": "ación",
  "544": "ones",
  "545": " The",
  "546": "ut",
  "547": "ast",
  "548": " G",
  "549": " కర",
  "550": "�ో",
  "551": " más",
  "552": "ente",
  "553": " నे",
  "554": "ర్�",
  "555": " N",
  "556": "ú",
  "557": "bi",
  "558": " an",
  "559": "త्ర",
  "560": "ac",
  "561": "१",
  "562": "ith",
  "563": "న్న",
  "564": " or",
  "565": "ang",
  "566": " per",
  "567": " సమ",
  "568": "ిం�",
  "569": "si",
  "570": " pro",
  "571": "ada",
  "572": "।\n",
  "573": "'s",
  "574": "ेశ",
  "575": " అన",
  "576": "్త",
  "577": "ంది",
  "578": "ía",
  "579": "ill",
  "580": "తా",
  "581": "ag",
  "582": "pe",
  "583": " be",
  "584": " wh",
  "585": "భారత",
  "586": "్వ",
  "587": "ran",
  "588": "्ట",
  "589": "ate",
  "590": "డ఼",
  "591": "దేశ",
  "592": " with",
  "593": "rom",
  "594": "ere",
  "595": "ండ",
  "596": " una",
  "597": "ong",
  "598": " was",
  "599": "క्ష",
  "600": "నे",
  "601": "०",
  "602": "ern",
  "603": " H",
  "604": "ृ",
  "605": " co",
  "606": "ari",
  "607": "ain",
  "608": "por",
  "609": "lu",
  "610": "mb",
  "611": "्ద",
  "612": "ిల",
  "613": "mer",
  "614": " ఇస",
  "615": "ావ",
  "616": "ిర",
  "617": "్ట",
  "618": "mo",
  "619": "rit",
  "620": " indi",
  "621": " %",
  "622": "ష",
  "623": "li",
  "624": "నా",
  "625": "ica",
  "626": "to",
  "627": " inc",
  "628": "ిమ",
  "629": "ంలో",
  "630": "ñ",
  "631": "cial",
  "632": "tr",
  "633": "bl",
  "634": " it",
  "635": "201",
  "636": "९",
  "637": "ct",
  "638": " భారతीయ",
  "639": "థా",
  "640": "arg",
  "641": " no",
  "642": " lo",
  "643": "aj",
  "644": " des",
  "645": "ధిక",
  "646": " ఏక",
  "647": "ult",
  "648": "ug",
  "649": " తథా",
  "650": "్ల",
  "651": " R",
  "652": " సా�",
  "653": "తి",
  "654": " జాత",
  "655": "లో",
  "656": "ción",
  "657": "ak",
  "658": " econ",
  "659": " mo",
  "660": " హु�",
  "661": "२",
  "662": "ient",
  "663": " on",
  "664": "up",
  "665": "ich",
  "666": " భी",
  "667": "ఖ",
  "668": "ీయ",
  "669": " from",
  "670": " has",
  "671": " go",
  "672": ".\n\n",
  "673": " ha",
  "674": " హो",
  "675": "కార",
  "676": " tra",
  "677": " En",
  "678": " జన",
  "679": "ts",
  "680": "ma",
  "681": "\n\n",
  "682": "ించ",
  "683": " nor",
  "684": "200",
  "685": "ue",
  "686": "ాక",
  "687": "ాగ",
  "688": "క్�",
  "689": "án",
  "690": " como",
  "691": "ados",
  "692": " reg",
  "693": " im",
  "694": "),",
  "695": " cu",
  "696": "ిణ",
  "697": "्థ",
  "698": "సे",
  "699": "ాప",
  "700": "ొ",
  "701": "ులు",
  "702": "ud",
  "703": " rel",
  "704": " pl",
  "705": "el",
  "706": " which",
  "707": "ien",
  "708": " cont",
  "709": "inist",
  "710": " para",
  "711": "ally",
  "712": " mill",
  "713": " me",
  "714": "ర्వ",
  "715": "mente",
  "716": "acion",
  "717": "dia",
  "718": " sub",
  "719": "ugh",
  "720": "og",
  "721": "cia",
  "722": "har",
  "723": "des",
  "724": "iv",
  "725": " st",
  "726": " cent",
  "727": " U",
  "728": " La",
  "729": " pa",
  "730": "ంట",
  "731": "కు",
  "732": "ís",
  "733": "In",
  "734": " are",
  "735": "se",
  "736": " k",
  "737": " pri",
  "738": " W",
  "739": "ौ",
  "740": "ాణ",
  "741": " O",
  "742": " ag",
  "743": " le",
  "744": "ంగా",
  "745": "ంత",
  "746": " దేశ",
  "747": "ను",
  "748": "ta",
  "749": "ity",
  "750": "port",
  "751": "hi",
  "752": " cl",
  "753": "per",
  "754": " mar",
  "755": " ఉత",
  "756": " కియా",
  "757": " its",
  "758": "tiv",
  "759": " econom",
  "760": "–",
  "761": "ాఁ",
  "762": "ాఈ",
  "763": "రी",
  "764": " వర्�",
  "765": " అధిక",
  "766": "్థ",
  "767": "én",
  "768": "ld",
  "769": " cons",
  "770": "ces",
  "771": "ीన",
  "772": " ఈ",
  "773": " భాష",
  "774": "ాబ",
  "775": " బహ",
  "776": " సర",
  "777": "ambi",
  "778": "uer",
  "779": " Ch",
  "780": " res",
  "781": "titu",
  "782": "199",
  "783": "కे",
  "784": " తక",
  "785": " ధ",
  "786": "ింది",
  "787": "for",
  "788": "uc",
  "789": " ter",
  "790": "av",
  "791": "्మ",
  "792": " సామ",
  "793": " రహ",
  "794": "eng",
  "795": "man",
  "796": " were",
  "797": " J",
  "798": "ary",
  "799": " \"",
  "800": "ori",
  "801": " ent",
  "802": " j",
  "803": "యా",
  "804": " రాష",
  "805": "ఈ",
  "806": "ుత",
  "807": "uth",
  "808": " India's",
  "809": "ated",
  "810": " at",
  "811": " ad",
  "812": "ura",
  "813": "ores",
  "814": " El",
  "815": "ిప",
  "816": "ृత",
  "817": "కర",
  "818": "ంత्ర",
  "819": " నిర",
  "820": " రాజ्య",
  "821": "१९",
  "822": "ాయి",
  "823": " Asi",
  "824": " V",
  "825": " cre",
  "826": "195",
  "827": "ap",
  "828": " F",
  "829": " pr",
  "830": " inclu",
  "831": "iz",
  "832": " దेశ",
  "833": " సంస",
  "834": " యహ",
  "835": "ివ",
  "836": "५",
  "837": " సాథ",
  "838": "४",
  "839": "pul",
  "840": " form",
  "841": " ac",
  "842": " sig",
  "843": "196",
  "844": "ఫ",
  "845": " స्థ",
  "846": "తे",
  "847": " అప",
  "848": " కార",
  "849": "ఢ",
  "850": "ूప",
  "851": "రు",
  "852": "ambién",
  "853": " gran",
  "854": "me",
  "855": " region",
  "856": "ism",
  "857": " comp",
  "858": "sh",
  "859": "ical",
  "860": " larg",
  "861": " K",
  "862": " dur",
  "863": "ando",
  "864": "bre",
  "865": "्తర",
  "866": "క्షిణ",
  "867": " విశ",
  "868": "ोగ",
  "869": "ధాన",
  "870": "ద్�",
  "871": "ైన",
  "872": "ూడ",
  "873": " país",
  "874": "orld",
  "875": "end",
  "876": "vi",
  "877": "202",
  "878": "ener",
  "879": " దక्షిణ",
  "880": " పू",
  "881": "ిన्ద",
  "882": "ర्మ",
  "883": "्ధ",
  "884": " థా",
  "885": " పార",
  "886": "ीం",
  "887": " బన",
  "888": " శాస",
  "889": "వస",
  "890": "‌",
  "891": "्షे",
  "892": "ిగ",
  "893": " añ",
  "894": "India",
  "895": " pol",
  "896": "ame",
  "897": "vern",
  "898": "vers",
  "899": " tradi",
  "900": " man",
  "901": "und",
  "902": "so",
  "903": " may",
  "904": "्రे",
  "905": "्క",
  "906": "�ం",
  "907": " గయా",
  "908": "ిశ",
  "909": " జిస",
  "910": " క्షे",
  "911": " క्షेత्ర",
  "912": "ది",
  "913": "ॉ",
  "914": " సరకార",
  "915": " ఎ",
  "916": "ante",
  "917": "encia",
  "918": "acional",
  "919": "amente",
  "920": " popul",
  "921": "ear",
  "922": "tin",
  "923": " li",
  "924": "ni",
  "925": "duc",
  "926": "fter",
  "927": "ine",
  "928": "co",
  "929": " బాద",
  "930": ".​\n",
  "931": "ida",
  "932": "ún",
  "933": " son",
  "934": "ost",
  "935": "ded",
  "936": " Hin",
  "937": " rep",
  "938": "fer",
  "939": "ban",
  "940": " te",
  "941": " mu",
  "942": " sur",
  "943": "्ల",
  "944": " థ",
  "945": "క्త",
  "946": "గా",
  "947": " ఉన్న",
  "948": "క్ష",
  "949": "ము",
  "950": " భారతదేశ",
  "951": "ారు",
  "952": " también",
  "953": "ido",
  "954": " Asia",
  "955": "dus",
  "956": "age",
  "957": "ture",
  "958": "gan",
  "959": " relig",
  "960": "ament",
  "961": "vernment",
  "962": "adas",
  "963": "ాజ्య",
  "964": " సబ",
  "965": " సబసे",
  "966": "्చ",
  "967": " మహ",
  "968": " ఫ",
  "969": "ాచ",
  "970": "८",
  "971": "ुఖ",
  "972": "ఠ",
  "973": " mayor",
  "974": "iento",
  "975": "ty",
  "976": " bec",
  "977": "ral",
  "978": "ect",
  "979": "low",
  "980": "ass",
  "981": "we",
  "982": "od",
  "983": "les",
  "984": " emp",
  "985": "amil",
  "986": " హిన्ద",
  "987": "ुస",
  "988": "ాఓం",
  "989": "ఢ఼",
  "990": "ికా",
  "991": "ంధ",
  "992": "६",
  "993": "७",
  "994": "్చ",
  "995": "La",
  "996": "és",
  "997": " mun",
  "998": "ismo",
  "999": "aciones",
  "1000": "eron",
  "1001": "dern",
  "1002": "000",
  "1003": "ers",
  "1004": " into",
  "1005": "ans",
  "1006": " Com",
  "1007": " inf",
  "1008": "ance",
  "1009": "lear",
  "1010": "all",
  "1011": "—",
  "1012": "ore",
  "1013": "cip",
  "1014": "dem",
  "1015": "za",
  "1016": " minist",
  "1017": "्ట्ర",
  "1018": "ुన",
  "1019": "ని",
  "1020": "ha",
  "1021": "contin",
  "1022": "angu",
  "1023": "ury",
  "1024": "ies",
  "1025": "ire",
  "1026": " ch",
  "1027": "ome",
  "1028": " hab",
  "1029": "ons",
  "1030": " ur",
  "1031": "rol",
  "1032": " cr",
  "1033": "ాట",
  "1034": " బహु",
  "1035": " ఘ",
  "1036": "ాహ",
  "1037": "antes",
  "1038": "ciones",
  "1039": "ous",
  "1040": " north",
  "1041": "ural",
  "1042": "18",
  "1043": "ok",
  "1044": "ding",
  "1045": "uclear",
  "1046": "ates",
  "1047": " urban",
  "1048": "ress",
  "1049": "erv",
  "1050": " gener",
  "1051": "ber",
  "1052": "ios",
  "1053": "198",
  "1054": "ంగ्రे",
  "1055": " పాక",
  "1056": "्ప",
  "1057": "లी",
  "1058": "రे",
  "1059": "ुర",
  "1060": "ిఏ",
  "1061": " దो",
  "1062": " పహ",
  "1063": "ిధ",
  "1064": " pobl",
  "1065": "ras",
  "1066": " So",
  "1067": " oc",
  "1068": " pre",
  "1069": "omin",
  "1070": " ri",
  "1071": "pp",
  "1072": "ati",
  "1073": " fir",
  "1074": "ual",
  "1075": "reas",
  "1076": "ie",
  "1077": "op",
  "1078": "ric",
  "1079": "tions",
  "1080": "ali",
  "1081": " entre",
  "1082": " ఉప",
  "1083": " మధ",
  "1084": "ర्థ",
  "1085": "భారతదేశ",
  "1086": " కూడ",
  "1087": " tien",
  "1088": " años",
  "1089": "fi",
  "1090": " sin",
  "1091": "ence",
  "1092": "194",
  "1093": " subcontin",
  "1094": "fe",
  "1095": " langu",
  "1096": "ose",
  "1097": " parti",
  "1098": " fe",
  "1099": " mil",
  "1100": "tern",
  "1101": "ros",
  "1102": "vo",
  "1103": "min",
  "1104": " government",
  "1105": " territ",
  "1106": "197",
  "1107": " sus",
  "1108": " ధర्మ",
  "1109": "ద्ధ",
  "1110": "కా",
  "1111": "కी",
  "1112": " రूప",
  "1113": " వర्ష",
  "1114": "థ",
  "1115": " parte",
  "1116": "entes",
  "1117": " fuer",
  "1118": "biern",
  "1119": " world",
  "1120": " hu",
  "1121": "igh",
  "1122": " modern",
  "1123": "ste",
  "1124": " ne",
  "1125": " ext",
  "1126": "The",
  "1127": "imal",
  "1128": "rib",
  "1129": "tim",
  "1130": " prin",
  "1131": "gu",
  "1132": " elec",
  "1133": " mus",
  "1134": " విశ्వ",
  "1135": "తी",
  "1136": "्న",
  "1137": "రా",
  "1138": "ంబ",
  "1139": " రాష्ట्ర",
  "1140": " జो",
  "1141": "ియोం",
  "1142": "తర",
  "1143": "ంచ",
  "1144": "జాత",
  "1145": "ుల",
  "1146": "ట్ట",
  "1147": "ృ",
  "1148": " mundo",
  "1149": "ión",
  "1150": "ciales",
  "1151": "aron",
  "1152": "ico",
  "1153": "ia",
  "1154": " year",
  "1155": " cas",
  "1156": " Ma",
  "1157": " dec",
  "1158": " medi",
  "1159": " first",
  "1160": " sy",
  "1161": " dis",
  "1162": " hist",
  "1163": "peci",
  "1164": " పాకిస",
  "1165": " పूర्వ",
  "1166": "ాలయ",
  "1167": "నी",
  "1168": "ఏ",
  "1169": "।\n\n",
  "1170": " población",
  "1171": "tica",
  "1172": "icos",
  "1173": "bierno",
  "1174": "engal",
  "1175": " cult",
  "1176": " pe",
  "1177": "row",
  "1178": "olog",
  "1179": " milit",
  "1180": "ens",
  "1181": "oth",
  "1182": "able",
  "1183": "cul",
  "1184": "enta",
  "1185": "dial",
  "1186": " నామ",
  "1187": " బడ఼",
  "1188": "ोల",
  "1189": " హुఆ",
  "1190": " హुఈ",
  "1191": " శాసన",
  "1192": "ంద्ర",
  "1193": " దे",
  "1194": "రిక",
  "1195": " మాన",
  "1196": " డ",
  "1197": " ఒ",
  "1198": "ువ",
  "1199": "్క",
  "1200": "చ్చ",
  "1201": "ికి",
  "1202": "óm",
  "1203": "iste",
  "1204": "akist",
  "1205": "used",
  "1206": " became",
  "1207": " over",
  "1208": "ik",
  "1209": "titution",
  "1210": "wo",
  "1211": "ted",
  "1212": " syste",
  "1213": "form",
  "1214": " Th",
  "1215": " during",
  "1216": " ci",
  "1217": " Un",
  "1218": " Cong",
  "1219": "ana",
  "1220": " import",
  "1221": "ares",
  "1222": " –",
  "1223": " ఖ",
  "1224": "ैన",
  "1225": " కాల",
  "1226": "ిట",
  "1227": " స्వ",
  "1228": " ఆధ",
  "1229": " సంఘ",
  "1230": "ोడ఼",
  "1231": " జాతా",
  "1232": "ాఏ",
  "1233": "స्త",
  "1234": "�ంధ",
  "1235": "ానे",
  "1236": " మార",
  "1237": "�ిధ",
  "1238": " మొ",
  "1239": "్ట్ర",
  "1240": "క్క",
  "1241": "్రీ",
  "1242": "ళ",
  "1243": " రై",
  "1244": " hin",
  "1245": " princip",
  "1246": ",​",
  "1247": " nacional",
  "1248": " sobre",
  "1249": " tiene",
  "1250": " Los",
  "1251": "pu",
  "1252": " south",
  "1253": "estern",
  "1254": " had",
  "1255": "ages",
  "1256": " but",
  "1257": "anges",
  "1258": "ide",
  "1259": "ational",
  "1260": "ajor",
  "1261": " been",
  "1262": " system",
  "1263": " fo",
  "1264": "fic",
  "1265": " have",
  "1266": "ya",
  "1267": " also",
  "1268": "ive",
  "1269": " pres",
  "1270": "cu",
  "1271": " dos",
  "1272": "కి",
  "1273": " ఉత्తర",
  "1274": "ంక",
  "1275": " దియా",
  "1276": "కాల",
  "1277": "ంప",
  "1278": " ప्రమ",
  "1279": " ప्రద",
  "1280": "మेం",
  "1281": "ुల",
  "1282": "ారी",
  "1283": "ింద",
  "1284": "ద్ద",
  "1285": "్మ",
  "1286": "్ప",
  "1287": " millones",
  "1288": "idad",
  "1289": " indios",
  "1290": " Pakist",
  "1291": "ina",
  "1292": " long",
  "1293": "merg",
  "1294": " gr",
  "1295": " Indo",
  "1296": " Hindu",
  "1297": " Bud",
  "1298": "dh",
  "1299": " art",
  "1300": " col",
  "1301": " influ",
  "1302": "ions",
  "1303": "cal",
  "1304": " lit",
  "1305": " nuclear",
  "1306": " ab",
  "1307": "wer",
  "1308": "26",
  "1309": " nu",
  "1310": " more",
  "1311": "pecies",
  "1312": "्తాన",
  "1313": "ాడ",
  "1314": " సమయ",
  "1315": "ాలी",
  "1316": " బఢ఼",
  "1317": " వ्య",
  "1318": " సంగ",
  "1319": " కల",
  "1320": " ఉన",
  "1321": "ిహ",
  "1322": " సభ",
  "1323": " యु",
  "1324": "३",
  "1325": "న्ద",
  "1326": "ాఖ",
  "1327": " అమ",
  "1328": " వ్య",
  "1329": "మైన",
  "1330": "ిస్త",
  "1331": "్గ",
  "1332": "ౌ",
  "1333": "ంత్ర",
  "1334": " పే",
  "1335": " comer",
  "1336": " otr",
  "1337": " primer",
  "1338": "cion",
  "1339": "try",
  "1340": " South",
  "1341": " most",
  "1342": " inde",
  "1343": " Bengal",
  "1344": "la",
  "1345": "mar",
  "1346": " years",
  "1347": "ins",
  "1348": "CE",
  "1349": "wn",
  "1350": "ite",
  "1351": " exp",
  "1352": " after",
  "1353": "til",
  "1354": " million",
  "1355": " increas",
  "1356": " class",
  "1357": " that",
  "1358": " century",
  "1359": "ho",
  "1360": " divers",
  "1361": " such",
  "1362": "jo",
  "1363": "reat",
  "1364": "tive",
  "1365": " ra",
  "1366": "17",
  "1367": "ru",
  "1368": "tal",
  "1369": " end",
  "1370": "mon",
  "1371": "्రी",
  "1372": " థी",
  "1373": "తిక",
  "1374": "త्య",
  "1375": " లిఏ",
  "1376": "ాప्త",
  "1377": " ప्రమुఖ",
  "1378": " కेంద्ర",
  "1379": " సహ",
  "1380": " అన्య",
  "1381": " అనुస",
  "1382": "లे",
  "1383": "ఁ",
  "1384": " ఛ",
  "1385": " రాజ्యोం",
  "1386": "००",
  "1387": "ాధ",
  "1388": "ారా",
  "1389": " కారణ",
  "1390": " ట",
  "1391": " అధికార",
  "1392": "స్త",
  "1393": " este",
  "1394": "demás",
  "1395": " india",
  "1396": "almente",
  "1397": "gún",
  "1398": " cada",
  "1399": " Re",
  "1400": " indep",
  "1401": " An",
  "1402": " emerg",
  "1403": " bas",
  "1404": " social",
  "1405": "tical",
  "1406": "ures",
  "1407": " two",
  "1408": " rul",
  "1409": " liter",
  "1410": "mong",
  "1411": "dos",
  "1412": " both",
  "1413": " Cons",
  "1414": " vari",
  "1415": " orig",
  "1416": " z",
  "1417": "als",
  "1418": "ph",
  "1419": " not",
  "1420": " ca",
  "1421": "minist",
  "1422": " much",
  "1423": "ario",
  "1424": "amb",
  "1425": "ven",
  "1426": " Go",
  "1427": " Congress",
  "1428": " car",
  "1429": " prime",
  "1430": " prop",
  "1431": "udi",
  "1432": " ve",
  "1433": "ीప",
  "1434": " పశ",
  "1435": "పాల",
  "1436": " భू",
  "1437": "ాంగ",
  "1438": " ఈస",
  "1439": " మిల",
  "1440": " చुన",
  "1441": " హిన्దी",
  "1442": "ेట",
  "1443": " మత",
  "1444": " అభ",
  "1445": " అల",
  "1446": " ద्వ",
  "1447": "హीం",
  "1448": "ధానమ",
  "1449": " దశ",
  "1450": " స్థ",
  "1451": " ము",
  "1452": " ఉంది",
  "1453": " ఉన్నాయి",
  "1454": " లో",
  "1455": " fue",
  "1456": "ier",
  "1457": " dé",
  "1458": "yen",
  "1459": " human",
  "1460": " BCE",
  "1461": "uro",
  "1462": "ff",
  "1463": "cor",
  "1464": " Emp",
  "1465": "era",
  "1466": "ultan",
  "1467": " cos",
  "1468": "riti",
  "1469": " Comp",
  "1470": "ign",
  "1471": " large",
  "1472": "rough",
  "1473": " major",
  "1474": "ough",
  "1475": "put",
  "1476": " ho",
  "1477": "etwe",
  "1478": "etween",
  "1479": "no",
  "1480": "ron",
  "1481": " control",
  "1482": " administ",
  "1483": " pen",
  "1484": " under",
  "1485": " Al",
  "1486": " mat",
  "1487": "leg",
  "1488": "vas",
  "1489": " fol",
  "1490": "mber",
  "1491": " territori",
  "1492": " Himal",
  "1493": " Himalay",
  "1494": "21",
  "1495": "ఆ",
  "1496": " గణ",
  "1497": "्చిమ",
  "1498": " ఇండ",
  "1499": "మ्�",
  "1500": " విస",
  "1501": "ैద",
  "1502": "దల",
  "1503": " కరనे",
  "1504": " రహా",
  "1505": " సిం�",
  "1506": " మన",
  "1507": " విద",
  "1508": "ीస",
  "1509": "ोక",
  "1510": " సంబంధ",
  "1511": " దेశोం",
  "1512": "ియे",
  "1513": " భాగ",
  "1514": "ాంత",
  "1515": " న्య",
  "1516": "ిజ",
  "1517": " హింద",
  "1518": "వస్థ",
  "1519": " రాష్ట్ర",
  "1520": " ఒక",
  "1521": "ుక",
  "1522": "ుకు",
  "1523": "ర్",
  "1524": " ఎన్న",
  "1525": ".​​",
  "1526": "este",
  "1527": " indio",
  "1528": "anos",
  "1529": " déc",
  "1530": "blic",
  "1531": " coun",
  "1532": " Ne",
  "1533": "ved",
  "1534": "ath",
  "1535": "isation",
  "1536": "urope",
  "1537": " language",
  "1538": " caste",
  "1539": " this",
  "1540": "ish",
  "1541": "lam",
  "1542": "hed",
  "1543": " Empire",
  "1544": "ulture",
  "1545": " leg",
  "1546": " Briti",
  "1547": " British",
  "1548": "any",
  "1549": " population",
  "1550": "cio",
  "1551": "gl",
  "1552": "rat",
  "1553": " men",
  "1554": "ry",
  "1555": "enc",
  "1556": "ory",
  "1557": " perio",
  "1558": " Mo",
  "1559": "ten",
  "1560": " agric",
  "1561": " famil",
  "1562": "roc",
  "1563": " grow",
  "1564": "rans",
  "1565": " their",
  "1566": " part",
  "1567": "dic",
  "1568": " he",
  "1569": "cent",
  "1570": " serv",
  "1571": " ob",
  "1572": " mon",
  "1573": "40",
  "1574": " minister",
  "1575": " general",
  "1576": " De",
  "1577": "da",
  "1578": "రాజ्య",
  "1579": " అంగ्రे",
  "1580": " అంగ्రेజ",
  "1581": " ఏశ",
  "1582": "సం�",
  "1583": " పాకిస्తాన",
  "1584": "ीవ",
  "1585": " సంస्క",
  "1586": " హुఏ",
  "1587": "ప्ర",
  "1588": " శత",
  "1589": " శతాబ",
  "1590": " స्వత",
  "1591": " జిన",
  "1592": "्హ",
  "1593": "ద्య",
  "1594": "మాన",
  "1595": "ిష",
  "1596": " అనुసార",
  "1597": "ాచीన",
  "1598": " యా",
  "1599": "ాభ",
  "1600": " కఈ",
  "1601": " నిర्మ",
  "1602": " విక",
  "1603": " హोతా",
  "1604": "ीచ",
  "1605": "ాయా",
  "1606": " నహीం",
  "1607": " ఓ",
  "1608": " చुనావ",
  "1609": "్యం",
  "1610": "తో",
  "1611": "ద్ధ",
  "1612": "ిన్న",
  "1613": "్రమ",
  "1614": " వచ్చ",
  "1615": "ానికి",
  "1616": "ెండ",
  "1617": " మార్గ",
  "1618": " desde",
  "1619": "rá",
  "1620": " siste",
  "1621": " económ",
  "1622": "ías",
  "1623": " Mun",
  "1624": " Mundial",
  "1625": " Est",
  "1626": ".​\n\n",
  "1627": " polí",
  "1628": " poder",
  "1629": "moc",
  "1630": " Se",
  "1631": "um",
  "1632": " ear",
  "1633": "ations",
  "1634": "uch",
  "1635": " Cent",
  "1636": " Del",
  "1637": " Mugh",
  "1638": " economic",
  "1639": " began",
  "1640": "ther",
  "1641": "act",
  "1642": " many",
  "1643": " origin",
  "1644": "dust",
  "1645": " between",
  "1646": "50",
  "1647": "ene",
  "1648": "ting",
  "1649": " some",
  "1650": "ure",
  "1651": "ack",
  "1652": "lowing",
  "1653": "vir",
  "1654": " trans",
  "1655": "ds",
  "1656": "ular",
  "1657": " ap",
  "1658": "10",
  "1659": "idi",
  "1660": " dire",
  "1661": " repres",
  "1662": "uras",
  "1663": "una",
  "1664": "ble",
  "1665": "tre",
  "1666": " Par",
  "1667": "JP",
  "1668": "cim",
  "1669": " dance",
  "1670": " u",
  "1671": "఼ी",
  "1672": " ఇసకे",
  "1673": " లగ",
  "1674": " అర",
  "1675": " ఏవ",
  "1676": " సామ्ర",
  "1677": " సామ्రాజ्య",
  "1678": " మధ्య",
  "1679": "సी",
  "1680": "ంజ",
  "1681": " విభ",
  "1682": " కరोడ఼",
  "1683": "ीత",
  "1684": "ియాఁ",
  "1685": " దेఖ",
  "1686": "ర्జ",
  "1687": "ఇ",
  "1688": "ర्ష",
  "1689": "ర्త",
  "1690": " అవ",
  "1691": " ఊ",
  "1692": " సాం",
  "1693": " హी",
  "1694": " సద",
  "1695": "�ిధాన",
  "1696": "వల",
  "1697": "ంత्రी",
  "1698": " దశక",
  "1699": " లोక",
  "1700": " న्యాయ",
  "1701": "టి",
  "1702": " స్వ",
  "1703": " కూడా",
  "1704": "icas",
  "1705": "tos",
  "1706": "cuent",
  "1707": "rí",
  "1708": "ización",
  "1709": "ticas",
  "1710": "ración",
  "1711": "ajo",
  "1712": " It",
  "1713": " world's",
  "1714": " Pakistan",
  "1715": "rica",
  "1716": " later",
  "1717": " ma",
  "1718": "ivil",
  "1719": " northern",
  "1720": "ef",
  "1721": " arm",
  "1722": " Delhi",
  "1723": "unj",
  "1724": "unjab",
  "1725": " Mughal",
  "1726": " economy",
  "1727": " prom",
  "1728": " tec",
  "1729": "tro",
  "1730": "deral",
  "1731": " tim",
  "1732": "ats",
  "1733": "ree",
  "1734": "ata",
  "1735": "30",
  "1736": "ese",
  "1737": "ties",
  "1738": " Ganges",
  "1739": " sp",
  "1740": " CE",
  "1741": " central",
  "1742": " emb",
  "1743": " def",
  "1744": "ited",
  "1745": " up",
  "1746": "ior",
  "1747": "amp",
  "1748": "ades",
  "1749": " Gand",
  "1750": " Gandhi",
  "1751": " contin",
  "1752": "lan",
  "1753": "15",
  "1754": "ecu",
  "1755": "oc",
  "1756": "ip",
  "1757": "odo",
  "1758": "्",
  "1759": " ఏశియా",
  "1760": "ृష",
  "1761": "्యా",
  "1762": " పశ्చిమ",
  "1763": "ర्ణ",
  "1764": "ुప",
  "1765": " మैద",
  "1766": " మैదాన",
  "1767": "వస्�",
  "1768": "వస्థా",
  "1769": " స्వతంత्ర",
  "1770": " భूమ",
  "1771": " కమ",
  "1772": "ोష",
  "1773": " ప्రాచीన",
  "1774": " ప्రదेశ",
  "1775": " బीచ",
  "1776": "ुక्త",
  "1777": "ूన",
  "1778": "శాస",
  "1779": " ద्వారా",
  "1780": " భాషాఓం",
  "1781": " నेత",
  "1782": " సక",
  "1783": "క्షా",
  "1784": " సैన",
  "1785": "దాయ",
  "1786": "అ",
  "1787": " జల",
  "1788": " సిన",
  "1789": " సంవిధాన",
  "1790": " పార्ట",
  "1791": " చुనావोం",
  "1792": " కో",
  "1793": "పంచ",
  "1794": " ప్రాంత",
  "1795": " దేశాల",
  "1796": " దక్ష",
  "1797": " భారతదేశం",
  "1798": "ిత్ర",
  "1799": "ాన్",
  "1800": "ిల్ల",
  "1801": "ప్ర",
  "1802": "ున్న",
  "1803": " చె",
  "1804": "పు",
  "1805": "్స",
  "1806": "్లో",
  "1807": "ంలోని",
  "1808": "ెల",
  "1809": " ofi",
  "1810": "úbl",
  "1811": " norte",
  "1812": " subcontinente",
  "1813": " durante",
  "1814": " convir",
  "1815": " convirti",
  "1816": "lament",
  "1817": "En",
  "1818": " han",
  "1819": "cimiento",
  "1820": " encuent",
  "1821": " estado",
  "1822": " mayoría",
  "1823": " vida",
  "1824": "úl",
  "1825": " incluyen",
  "1826": " since",
  "1827": " land",
  "1828": " China",
  "1829": " subcontinent",
  "1830": " western",
  "1831": "vol",
  "1832": " Buddh",
  "1833": " poli",
  "1834": " there",
  "1835": "cri",
  "1836": "ork",
  "1837": " Punjab",
  "1838": " us",
  "1839": "ered",
  "1840": "nolog",
  "1841": " non",
  "1842": " federal",
  "1843": " bill",
  "1844": " cap",
  "1845": " increased",
  "1846": " rate",
  "1847": "16",
  "1848": "endi",
  "1849": " tradition",
  "1850": " peop",
  "1851": "ā",
  "1852": "-d",
  "1853": " classical",
  "1854": "duct",
  "1855": "raph",
  "1856": " As",
  "1857": " histori",
  "1858": " penins",
  "1859": " resp",
  "1860": "velo",
  "1861": "velop",
  "1862": " super",
  "1863": " local",
  "1864": "pecial",
  "1865": " can",
  "1866": " pers",
  "1867": "ental",
  "1868": " Des",
  "1869": "12",
  "1870": " Pro",
  "1871": " BJP",
  "1872": "ణ्�",
  "1873": " స्థిత",
  "1874": "�्యా",
  "1875": " సమాజ",
  "1876": " విస्త",
  "1877": "ीల",
  "1878": "గర",
  "1879": "ధी",
  "1880": " బ्ర",
  "1881": " శुర",
  "1882": "ద्యोగ",
  "1883": " ని�",
  "1884": " పరమ",
  "1885": " అస",
  "1886": " ఇన",
  "1887": "ాశ",
  "1888": "ेక",
  "1889": " బహुత",
  "1890": " నిర्మాణ",
  "1891": "హర",
  "1892": "्స",
  "1893": "చ्చ",
  "1894": " క्ర",
  "1895": " తమ",
  "1896": " నेతृత",
  "1897": " హాల",
  "1898": " రాష्ట्రीయ",
  "1899": "దార",
  "1900": " ఆర्థ",
  "1901": " ఆర्థిక",
  "1902": "పర",
  "1903": " మुఖ",
  "1904": "ॉంగ्రे",
  "1905": "ॉంగ्రेస",
  "1906": "యोగ",
  "1907": "ిద",
  "1908": " జనజాత",
  "1909": " అత",
  "1910": " ప్రపంచ",
  "1911": " కే",
  "1912": " వ్యవస్థ",
  "1913": "ిలో",
  "1914": " దక్షిణ",
  "1915": " రాజ్య",
  "1916": " చే",
  "1917": " మధ్య",
  "1918": "్డ",
  "1919": "బడ",
  "1920": " భారతీయ",
  "1921": " పార్ట",
  "1922": " పార్టీ",
  "1923": " రైలు",
  "1924": "జాతీయ",
  "1925": " Además",
  "1926": " está",
  "1927": " ciud",
  "1928": "omb",
  "1929": "ientras",
  "1930": "añ",
  "1931": "ritán",
  "1932": " estados",
  "1933": " sistema",
  "1934": "aria",
  "1935": " economía",
  "1936": " nue",
  "1937": "dad",
  "1938": " nacion",
  "1939": " nacionales",
  "1940": "crit",
  "1941": " pero",
  "1942": " otros",
  "1943": "ument",
  "1944": "ticos",
  "1945": "ato",
  "1946": "onas",
  "1947": " úl",
  "1948": "tivo",
  "1949": " mie",
  "1950": " miemb",
  "1951": "-l",
  "1952": "rac",
  "1953": "dam",
  "1954": " than",
  "1955": "55",
  "1956": " occ",
  "1957": " high",
  "1958": " life",
  "1959": "enni",
  "1960": " Sans",
  "1961": "lim",
  "1962": " Central",
  "1963": "ains",
  "1964": "ublic",
  "1965": " parli",
  "1966": " parliament",
  "1967": " mid",
  "1968": " state",
  "1969": "ash",
  "1970": " sup",
  "1971": "ell",
  "1972": "cient",
  "1973": " people",
  "1974": " popular",
  "1975": "13",
  "1976": " period",
  "1977": "ala",
  "1978": " new",
  "1979": " set",
  "1980": "ange",
  "1981": "eog",
  "1982": " power",
  "1983": " tex",
  "1984": " Pl",
  "1985": " agricult",
  "1986": " all",
  "1987": " develop",
  "1988": " mer",
  "1989": " sultan",
  "1990": "ites",
  "1991": "ust",
  "1992": " sol",
  "1993": "war",
  "1994": " war",
  "1995": "anc",
  "1996": " especial",
  "1997": " consi",
  "1998": " direct",
  "1999": " number",
  "2000": " World",
  "2001": " legis",
  "2002": " rural",
  "2003": " Himalayas",
  "2004": "°",
  "2005": " cour",
  "2006": " cor",
  "2007": " species",
  "2008": " among",
  "2009": " Jan",
  "2010": " largest",
  "2011": ").",
  "2012": " qu",
  "2013": " sect",
  "2014": "ances",
  "2015": "24",
  "2016": "14",
  "2017": "asa",
  "2018": "ారిక",
  "2019": " గణరాజ्య",
  "2020": "పू",
  "2021": "ిమాలయ",
  "2022": " పర्వ",
  "2023": " బంగ",
  "2024": " భాషా",
  "2025": "జన",
  "2026": " ఇండియా",
  "2027": "ेష",
  "2028": " పరమాణ",
  "2029": " పరమాణु",
  "2030": " నద",
  "2031": "రణ",
  "2032": "మన",
  "2033": " స्థాన",
  "2034": " ఆక",
  "2035": "నोం",
  "2036": " సेనా",
  "2037": "ాండ",
  "2038": " పడ఼",
  "2039": " సैన्య",
  "2040": " జాతी",
  "2041": " మాత",
  "2042": " ప्రాప्త",
  "2043": " గాం",
  "2044": "భాష",
  "2045": " ప्రధానమ",
  "2046": "ాఇ",
  "2047": "చी",
  "2048": " మुఖ्య",
  "2049": "పా",
  "2050": " కॉంగ्రेస",
  "2051": " కార्య",
  "2052": " ప्రత",
  "2053": " జనజాతి",
  "2054": " ప్రజ",
  "2055": "క్కువ",
  "2056": "ఖ్య",
  "2057": " హిందూ",
  "2058": "్రం",
  "2059": "ీన",
  "2060": "త్వ",
  "2061": "ర్వ",
  "2062": "ించింది",
  "2063": " అయ",
  "2064": " పేరు",
  "2065": " కు",
  "2066": "భుత",
  "2067": "భుత్వ",
  "2068": " ఇతర",
  "2069": "్కృ",
  "2070": " క్రీ",
  "2071": "ించిన",
  "2072": "భారతీయ",
  "2073": "ública",
  "2074": " hindu",
  "2075": " mientras",
  "2076": "iones",
  "2077": " siglo",
  "2078": "II",
  "2079": "imiento",
  "2080": "ér",
  "2081": "argo",
  "2082": "jer",
  "2083": "edad",
  "2084": "idos",
  "2085": "aca",
  "2086": "igual",
  "2087": "fica",
  "2088": " é",
  "2089": "El",
  "2090": " nú",
  "2091": " númer",
  "2092": " número",
  "2093": "arrol",
  "2094": " perí",
  "2095": " período",
  "2096": "cid",
  "2097": "los",
  "2098": " musul",
  "2099": " gobierno",
  "2100": " gan",
  "2101": " aument",
  "2102": "opa",
  "2103": "anza",
  "2104": " comun",
  "2105": "ficial",
  "2106": " country",
  "2107": " democ",
  "2108": "ank",
  "2109": "ves",
  "2110": " Andam",
  "2111": " Is",
  "2112": "ually",
  "2113": "ennium",
  "2114": " Sansk",
  "2115": " Sanskrit",
  "2116": " languages",
  "2117": "ise",
  "2118": " Dur",
  "2119": "ised",
  "2120": " rule",
  "2121": " educ",
  "2122": "vement",
  "2123": " through",
  "2124": " mul",
  "2125": "36",
  "2126": " US",
  "2127": " though",
  "2128": " military",
  "2129": "bo",
  "2130": "ga",
  "2131": "ately",
  "2132": " including",
  "2133": " imp",
  "2134": "par",
  "2135": " them",
  "2136": " produc",
  "2137": " caused",
  "2138": "ai",
  "2139": " si",
  "2140": "tics",
  "2141": " peninsular",
  "2142": "ket",
  "2143": " Raj",
  "2144": " imper",
  "2145": "orn",
  "2146": " constitution",
  "2147": " liber",
  "2148": " mant",
  "2149": "28",
  "2150": " amp",
  "2151": "100",
  "2152": " ing",
  "2153": " coali",
  "2154": " Sab",
  "2155": " Sabha",
  "2156": " ten",
  "2157": " sector",
  "2158": " contrib",
  "2159": "col",
  "2160": "cho",
  "2161": " anti",
  "2162": " Ar",
  "2163": "hema",
  "2164": " music",
  "2165": "las",
  "2166": "ణ्డ",
  "2167": "्వीప",
  "2168": "మా",
  "2169": " హిమాలయ",
  "2170": " అరబ",
  "2171": " అన्త",
  "2172": "ః",
  "2173": " స्థాప",
  "2174": " శతాబ्ద",
  "2175": " శతాబ्దी",
  "2176": " చల",
  "2177": "ृతి",
  "2178": " బ्రిట",
  "2179": " ప्రభ",
  "2180": " జాన",
  "2181": " గఈ",
  "2182": "క्తి",
  "2183": "ुష",
  "2184": " సింధ",
  "2185": " పహలे",
  "2186": " జిసమेం",
  "2187": " కి",
  "2188": "्తु",
  "2189": " క्షेత्రीయ",
  "2190": "्యोం",
  "2191": " ఓర",
  "2192": " వికాస",
  "2193": " నेతृత्వ",
  "2194": "తం",
  "2195": " లియे",
  "2196": "న्ద्ర",
  "2197": " ప्రధానమంత्రी",
  "2198": " యुద्ధ",
  "2199": "१९९",
  "2200": " -",
  "2201": " సంసద",
  "2202": " బహुమ",
  "2203": " ఐ",
  "2204": "సభ",
  "2205": " వర्షोం",
  "2206": " నాగ",
  "2207": "ిచ",
  "2208": "ాణా",
  "2209": "భారతదేశం",
  "2210": " స్థాన",
  "2211": "ెద్ద",
  "2212": " దేశం",
  "2213": "ిగా",
  "2214": "ండి",
  "2215": "ర్ప",
  "2216": "నే",
  "2217": " పు",
  "2218": "ుకో",
  "2219": " వచ్చింది",
  "2220": "త్త",
  "2221": "గు",
  "2222": " ప్రభుత్వ",
  "2223": "ెస",
  "2224": " cual",
  "2225": " lug",
  "2226": " lugar",
  "2227": "ín",
  "2228": " grande",
  "2229": " Las",
  "2230": "adores",
  "2231": " principales",
  "2232": "arios",
  "2233": " desarrol",
  "2234": "quet",
  "2235": "ientos",
  "2236": "zas",
  "2237": " sociales",
  "2238": " vez",
  "2239": " comen",
  "2240": " comenz",
  "2241": " musulman",
  "2242": "asta",
  "2243": " década",
  "2244": " britán",
  "2245": " últim",
  "2246": " Copa",
  "2247": "-larg",
  "2248": "-largest",
  "2249": " independ",
  "2250": "heast",
  "2251": "bar",
  "2252": " Indus",
  "2253": " river",
  "2254": "ving",
  "2255": "alle",
  "2256": "ird",
  "2257": " millennium",
  "2258": " By",
  "2259": " decl",
  "2260": "crip",
  "2261": "ious",
  "2262": " estab",
  "2263": "uslim",
  "2264": " inter",
  "2265": " result",
  "2266": "rew",
  "2267": "val",
  "2268": "ara",
  "2269": " Sik",
  "2270": " centur",
  "2271": " centuries",
  "2272": "ft",
  "2273": "ned",
  "2274": "ial",
  "2275": " rig",
  "2276": " No",
  "2277": " domin",
  "2278": " soci",
  "2279": " billion",
  "2280": "%.",
  "2281": " prote",
  "2282": "cording",
  "2283": ");",
  "2284": "red",
  "2285": " Bhar",
  "2286": " app",
  "2287": "ically",
  "2288": "ke",
  "2289": "wever",
  "2290": " sty",
  "2291": "tes",
  "2292": " tod",
  "2293": " trib",
  "2294": "ments",
  "2295": " main",
  "2296": "ach",
  "2297": "ca",
  "2298": " forest",
  "2299": " comple",
  "2300": " led",
  "2301": " temp",
  "2302": " pat",
  "2303": "very",
  "2304": "ors",
  "2305": " who",
  "2306": " After",
  "2307": "dustri",
  "2308": " served",
  "2309": "193",
  "2310": " cris",
  "2311": " fin",
  "2312": " Plate",
  "2313": "read",
  "2314": "uj",
  "2315": " one",
  "2316": " Constitu",
  "2317": " equ",
  "2318": "osi",
  "2319": " extre",
  "2320": " dist",
  "2321": " sh",
  "2322": "pel",
  "2323": " tro",
  "2324": "pical",
  "2325": "%,",
  "2326": "rig",
  "2327": " her",
  "2328": " election",
  "2329": " presid",
  "2330": "ice",
  "2331": " do",
  "2332": " rest",
  "2333": "22",
  "2334": "tici",
  "2335": " deb",
  "2336": "mi",
  "2337": "oci",
  "2338": " represent",
  "2339": "va",
  "2340": "mbol",
  "2341": " mathema",
  "2342": " �",
  "2343": "ias",
  "2344": " cin",
  "2345": "ధికారిక",
  "2346": " జబ",
  "2347": " జనసం�",
  "2348": " జనసంఖ्యా",
  "2349": " ఋ",
  "2350": " ఏవం",
  "2351": " థे",
  "2352": "మ्భ",
  "2353": "కరణ",
  "2354": " మौ",
  "2355": " బ्రిటిశ",
  "2356": "వ्య",
  "2357": "्హेం",
  "2358": " ఆధార",
  "2359": " ఆయ",
  "2360": " పुర",
  "2361": " భूమికా",
  "2362": " నిభ",
  "2363": "రूప",
  "2364": " స्వతంత्రతా",
  "2365": "భగ",
  "2366": "తమ",
  "2367": " పాల",
  "2368": " ఆగ",
  "2369": " కु�",
  "2370": " కुఛ",
  "2371": " కुల",
  "2372": " లोగ",
  "2373": "దా",
  "2374": " దोనोం",
  "2375": " కిన",
  "2376": "ेర",
  "2377": "ूర",
  "2378": " నియ",
  "2379": " రక्షా",
  "2380": "ोప",
  "2381": "ैల",
  "2382": " ,",
  "2383": " కాంగ",
  "2384": " సంయ",
  "2385": " సదస",
  "2386": "ాయु",
  "2387": "२००",
  "2388": " చార",
  "2389": " సార",
  "2390": "ాజపా",
  "2391": " గఠ",
  "2392": " గఠబ",
  "2393": "ంధన",
  "2394": " సాల",
  "2395": " సర्వ",
  "2396": "హార",
  "2397": " తన",
  "2398": "ॉల",
  "2399": " సాధ",
  "2400": " కేంద",
  "2401": "డు",
  "2402": " ద్వ",
  "2403": " జర",
  "2404": " జరిగ",
  "2405": " ఆర్�",
  "2406": "ప్ప",
  "2407": " ఉంట",
  "2408": "రువ",
  "2409": "రువాత",
  "2410": " అయిన",
  "2411": " రెండ",
  "2412": " భారతదేశంలో",
  "2413": " పట్ట",
  "2414": "వి",
  "2415": "ుంది",
  "2416": "ిళ",
  "2417": "వాణా",
  "2418": " మార్గాలు",
  "2419": "ano",
  "2420": " año",
  "2421": " países",
  "2422": " Bengala",
  "2423": " cultura",
  "2424": " X",
  "2425": " crecimiento",
  "2426": " embargo",
  "2427": "idiom",
  "2428": "Los",
  "2429": "ista",
  "2430": "pués",
  "2431": " fueron",
  "2432": "acia",
  "2433": "inos",
  "2434": "engu",
  "2435": " gob",
  "2436": " gobern",
  "2437": " clás",
  "2438": " tradicion",
  "2439": "ró",
  "2440": " trav",
  "2441": " través",
  "2442": " reci",
  "2443": " Gobierno",
  "2444": " hamb",
  "2445": "ús",
  "2446": "úsica",
  "2447": " ministro",
  "2448": " miembros",
  "2449": "vent",
  "2450": "west",
  "2451": "ders",
  "2452": "land",
  "2453": "frica",
  "2454": " made",
  "2455": "verse",
  "2456": " emerged",
  "2457": " third",
  "2458": " arch",
  "2459": " Hinduism",
  "2460": "ex",
  "2461": "ked",
  "2462": " political",
  "2463": "atus",
  "2464": " wom",
  "2465": " women",
  "2466": "dle",
  "2467": " religious",
  "2468": " coast",
  "2469": " Muslim",
  "2470": "mit",
  "2471": "tent",
  "2472": " culture",
  "2473": " Sikh",
  "2474": " ins",
  "2475": "ative",
  "2476": "ace",
  "2477": "acy",
  "2478": " East",
  "2479": " Company",
  "2480": " colon",
  "2481": " Indians",
  "2482": " tech",
  "2483": "com",
  "2484": "ani",
  "2485": " time",
  "2486": " nomin",
  "2487": " habit",
  "2488": "astern",
  "2489": " Sin",
  "2490": " used",
  "2491": "ency",
  "2492": " wide",
  "2493": "ond",
  "2494": " ini",
  "2495": "ants",
  "2496": " animal",
  "2497": " we",
  "2498": "ann",
  "2499": " out",
  "2500": " Mah",
  "2501": " \n",
  "2502": "arn",
  "2503": "23",
  "2504": " roc",
  "2505": "str",
  "2506": " great",
  "2507": "yas",
  "2508": " far",
  "2509": " regional",
  "2510": " defin",
  "2511": " signi",
  "2512": " arti",
  "2513": "gen",
  "2514": " str",
  "2515": " real",
  "2516": " sever",
  "2517": " reform",
  "2518": " following",
  "2519": " dep",
  "2520": " industri",
  "2521": " legisl",
  "2522": "oper",
  "2523": " vi",
  "2524": "xim",
  "2525": "ib",
  "2526": " Dec",
  "2527": " Gh",
  "2528": " Ghats",
  "2529": "′",
  "2530": "25",
  "2531": " include",
  "2532": "ents",
  "2533": "46",
  "2534": "eta",
  "2535": " areas",
  "2536": " Con",
  "2537": " Neh",
  "2538": " Nehru",
  "2539": " civil",
  "2540": " fund",
  "2541": " Nuclear",
  "2542": " growth",
  "2543": " Or",
  "2544": " total",
  "2545": "ports",
  "2546": " cal",
  "2547": " cook",
  "2548": "ensus",
  "2549": " Ori",
  "2550": "ora",
  "2551": " ser",
  "2552": "ram",
  "2553": "ez",
  "2554": "ques",
  "2555": "atura",
  "2556": "mas",
  "2557": " Uni",
  "2558": " Wik",
  "2559": "మహ",
  "2560": " బడ఼ా",
  "2561": " ఈసా",
  "2562": " ఇసी",
  "2563": " ఉత्ప",
  "2564": " రహे",
  "2565": "ారమ्భ",
  "2566": " గంగా",
  "2567": " లియా",
  "2568": " విజ",
  "2569": " సంస्కृతి",
  "2570": " ధी",
  "2571": " అపనी",
  "2572": " ప्రభావ",
  "2573": "ोలన",
  "2574": " $",
  "2575": " దర",
  "2576": " సेవ",
  "2577": " వివ",
  "2578": "्ణ",
  "2579": "ोహ",
  "2580": "ोత",
  "2581": "ంశ",
  "2582": "రత",
  "2583": "ुనిక",
  "2584": "ాఏఁ",
  "2585": " కరనా",
  "2586": " అపనे",
  "2587": " ప्రకార",
  "2588": " వ्యాప",
  "2589": " వర्గ",
  "2590": " కహ",
  "2591": "२०",
  "2592": "ूల",
  "2593": "ావా",
  "2594": " పै",
  "2595": " పత",
  "2596": " యूర",
  "2597": " కామ",
  "2598": "ాయక",
  "2599": " జాతे",
  "2600": "-స",
  "2601": "ాఁకి",
  "2602": " ఘोష",
  "2603": " సంయुక्త",
  "2604": " ప्ల",
  "2605": " ప्లेట",
  "2606": "ియన",
  "2607": " ఢ",
  "2608": " అప्ర",
  "2609": " పార्టी",
  "2610": " గఠబంధన",
  "2611": " బనे",
  "2612": " విధ",
  "2613": "ूస",
  "2614": "పతి",
  "2615": " న्యాయాలయ",
  "2616": " నగర",
  "2617": " నిభాఈ",
  "2618": "ोవ",
  "2619": " హథ",
  "2620": " హథియ",
  "2621": " హథియార",
  "2622": " వార",
  "2623": " విదेశ",
  "2624": " జనాభ",
  "2625": "ర్ణ",
  "2626": " పెద్ద",
  "2627": " కేంద్ర",
  "2628": " ఎక్కువ",
  "2629": " ముఖ్య",
  "2630": "ాన్న",
  "2631": "ాన్ని",
  "2632": " అనే",
  "2633": "్తర",
  "2634": "్ద",
  "2635": "స్తుత",
  "2636": " కొ",
  "2637": "ర్త",
  "2638": "దు",
  "2639": " ను",
  "2640": " బ్ర",
  "2641": "ాలను",
  "2642": " చెంద",
  "2643": " ప్రధాన",
  "2644": " వంట",
  "2645": "ాలలో",
  "2646": "రో",
  "2647": " ఏర్ప",
  "2648": " ఎన్నో",
  "2649": "కీయ",
  "2650": " ప్రత",
  "2651": " కాంగ్ర",
  "2652": " కాంగ్రెస",
  "2653": "ెలు",
  "2654": " క్రీడ",
  "2655": " —",
  "2656": " oficial",
  "2657": ";​",
  "2658": " grandes",
  "2659": " budi",
  "2660": "entales",
  "2661": "ino",
  "2662": " independi",
  "2663": " PI",
  "2664": " PIB",
  "2665": "terior",
  "2666": " según",
  "2667": " él",
  "2668": " idiom",
  "2669": " territor",
  "2670": " territorio",
  "2671": " antigu",
  "2672": "ían",
  "2673": "ímbol",
  "2674": " especies",
  "2675": "eci",
  "2676": " urbana",
  "2677": " comercio",
  "2678": " llan",
  "2679": " hacia",
  "2680": "erio",
  "2681": " ej",
  "2682": "entemente",
  "2683": "lamento",
  "2684": " Nacional",
  "2685": " pes",
  "2686": " música",
  "2687": " placa",
  "2688": " tasa",
  "2689": " %),",
  "2690": " shar",
  "2691": " east",
  "2692": " Its",
  "2693": " ago",
  "2694": " occup",
  "2695": "led",
  "2696": " grad",
  "2697": "120",
  "2698": "uropean",
  "2699": " early",
  "2700": "vidi",
  "2701": " supp",
  "2702": " regions",
  "2703": " Jain",
  "2704": "dom",
  "2705": " export",
  "2706": "work",
  "2707": "eign",
  "2708": "185",
  "2709": " righ",
  "2710": " intro",
  "2711": "duced",
  "2712": " movement",
  "2713": " fact",
  "2714": " parliamentary",
  "2715": " multi",
  "2716": " grew",
  "2717": " capit",
  "2718": "64",
  "2719": " literacy",
  "2720": " inform",
  "2721": " disput",
  "2722": "urs",
  "2723": "ild",
  "2724": " mal",
  "2725": " support",
  "2726": " Engl",
  "2727": " English",
  "2728": " deri",
  "2729": "men",
  "2730": " Constitution",
  "2731": " Y",
  "2732": "80",
  "2733": " secon",
  "2734": " second",
  "2735": " diversity",
  "2736": "out",
  "2737": "hen",
  "2738": " feat",
  "2739": "raf",
  "2740": " fig",
  "2741": " found",
  "2742": "-A",
  "2743": "ating",
  "2744": "fied",
  "2745": "ics",
  "2746": " dif",
  "2747": "enti",
  "2748": " religions",
  "2749": " bir",
  "2750": "sive",
  "2751": "cep",
  "2752": "iss",
  "2753": "ax",
  "2754": " mode",
  "2755": " Tamil",
  "2756": "edi",
  "2757": " cultural",
  "2758": "tra",
  "2759": " sho",
  "2760": " they",
  "2761": "emp",
  "2762": "ines",
  "2763": " especially",
  "2764": " pain",
  "2765": " painting",
  "2766": " gro",
  "2767": "cess",
  "2768": " cru",
  "2769": " consider",
  "2770": "ord",
  "2771": " sa",
  "2772": "back",
  "2773": " states",
  "2774": " viol",
  "2775": "roxim",
  "2776": " ancient",
  "2777": " rem",
  "2778": " remain",
  "2779": "can",
  "2780": " Imp",
  "2781": " kil",
  "2782": " Ac",
  "2783": "11",
  "2784": " clim",
  "2785": " majority",
  "2786": " endem",
  "2787": " sal",
  "2788": "uri",
  "2789": " religios",
  "2790": "fore",
  "2791": " Act",
  "2792": "ess",
  "2793": " Sh",
  "2794": " party",
  "2795": " United",
  "2796": "PA",
  "2797": " exc",
  "2798": " dere",
  "2799": " div",
  "2800": " pos",
  "2801": " rates",
  "2802": " estim",
  "2803": "500",
  "2804": " dio",
  "2805": " census",
  "2806": " Hindi",
  "2807": "bic",
  "2808": "..",
  "2809": " cast",
  "2810": "tt",
  "2811": " marri",
  "2812": " scul",
  "2813": " sculp",
  "2814": "aja",
  "2815": " alg",
  "2816": "tico",
  "2817": "get",
  "2818": " pas",
  "2819": " ఑",
  "2820": "ాద्వीప",
  "2821": "ृష्ట",
  "2822": " అఫ",
  "2823": " చीన",
  "2824": " సంస्కृత",
  "2825": " సమ्ప",
  "2826": "ैలी",
  "2827": " రాజనी",
  "2828": "ర्య",
  "2829": "ఉ",
  "2830": " విస्తृత",
  "2831": " సల",
  "2832": "ిఖ",
  "2833": " ధीరे",
  "2834": " అర्థ",
  "2835": " శुరू",
  "2836": "ాదी",
  "2837": "ेజ",
  "2838": " రఖ",
  "2839": " వాల",
  "2840": " వివాద",
  "2841": "ीర",
  "2842": " పరంప",
  "2843": "లोం",
  "2844": " నివ",
  "2845": " గఏ",
  "2846": " ఆధికారిక",
  "2847": " బడ఼े",
  "2848": " తीస",
  "2849": " మु",
  "2850": "తిహ",
  "2851": "తిహాస",
  "2852": "ृద्ధ",
  "2853": "्యతా",
  "2854": " లగభగ",
  "2855": " ఆస",
  "2856": " యुగ",
  "2857": " వे",
  "2858": "ोట",
  "2859": " కిన्తु",
  "2860": " అలగ",
  "2861": "्త्ర",
  "2862": " సాంస",
  "2863": "्థాన",
  "2864": " ఉస",
  "2865": "ాధిక",
  "2866": " జా",
  "2867": " వ्యవస्థా",
  "2868": " తమిల",
  "2869": " స्తర",
  "2870": " బడ఼ी",
  "2871": " బార",
  "2872": "టన",
  "2873": "శాసిత",
  "2874": "ोర",
  "2875": " జనతా",
  "2876": "ాంతి",
  "2877": " అంగ्రेజी",
  "2878": " సామాజ",
  "2879": " సామాజిక",
  "2880": "మ्బ",
  "2881": "‍�",
  "2882": " గాంధी",
  "2883": "రాష",
  "2884": " �",
  "2885": "ాతా",
  "2886": " జనవ",
  "2887": " హాలాఁకి",
  "2888": "१९७",
  "2889": " జిసకे",
  "2890": " ఊఁ",
  "2891": " పహాడ",
  "2892": " సంక",
  "2893": " తర",
  "2894": " వివిధ",
  "2895": " ఋత",
  "2896": " హोతी",
  "2897": "ాబాద",
  "2898": "१९८",
  "2899": " బహुమత",
  "2900": " భాజపా",
  "2901": " సహయोగ",
  "2902": "పాలికా",
  "2903": "సభా",
  "2904": " నాగరిక",
  "2905": " కेన्ద्ర",
  "2906": "ेలी",
  "2907": "సेనా",
  "2908": " డॉల",
  "2909": " డॉలర",
  "2910": " విదेశी",
  "2911": "ాఏం",
  "2912": " అతి",
  "2913": "రి",
  "2914": " కర्జ",
  "2915": ")\n",
  "2916": "ట్ల",
  "2917": "ాలో",
  "2918": " వే",
  "2919": "ర్ల",
  "2920": " ఉత్తర",
  "2921": "ున",
  "2922": " సరిహ",
  "2923": " సరిహద్ద",
  "2924": "ుకుంట",
  "2925": " గల",
  "2926": " ఇది",
  "2927": " కాలంలో",
  "2928": " ప్రస్తుత",
  "2929": " చిన్న",
  "2930": "టిక",
  "2931": "లలో",
  "2932": "ిస్తారు",
  "2933": "ండు",
  "2934": " తరువాత",
  "2935": "ూప",
  "2936": "డ్డ",
  "2937": " శాస్త",
  "2938": "ిల్లీ",
  "2939": "ల్",
  "2940": " భారత్",
  "2941": "�ిక",
  "2942": " రాజకీయ",
  "2943": "్యధిక",
  "2944": "ర్ట",
  "2945": " జాతీయ",
  "2946": " సినిమ",
  "2947": "ంగాల",
  "2948": "టు",
  "2949": " రవాణా",
  "2950": " సంగీ",
  "2951": " región",
  "2952": " otras",
  "2953": " lleg",
  "2954": "añía",
  "2955": " convirtió",
  "2956": "uvo",
  "2957": " territorios",
  "2958": " Unión",
  "2959": " nive",
  "2960": " pobre",
  "2961": " mujer",
  "2962": " mujeres",
  "2963": "idades",
  "2964": " encuentra",
  "2965": " idiomas",
  "2966": " tamil",
  "2967": "eg",
  "2968": " habl",
  "2969": "tili",
  "2970": " símbol",
  "2971": " cuenta",
  "2972": "rado",
  "2973": " á",
  "2974": "bol",
  "2975": ".,",
  "2976": "tivos",
  "2977": " agrí",
  "2978": " agrícol",
  "2979": " ciudades",
  "2980": " muchas",
  "2981": " llanura",
  "2982": " guer",
  "2983": "óg",
  "2984": "ganización",
  "2985": " política",
  "2986": "ños",
  "2987": " importantes",
  "2988": " segu",
  "2989": " estable",
  "2990": "esti",
  "2991": " ampli",
  "2992": " tie",
  "2993": " tiemp",
  "2994": " tiempo",
  "2995": " desarrollo",
  "2996": "isión",
  "2997": "stas",
  "2998": "ador",
  "2999": " aumento",
  "3000": "tivamente",
  "3001": " poco",
  "3002": " hambr",
  "3003": "unas",
  "3004": " emple",
  "3005": " propi",
  "3006": " zonas",
  "3007": " elecciones",
  "3008": "quier",
  "3009": " presidente",
  "3010": " cinco",
  "3011": " cá",
  "3012": "NC",
  "3013": " partidos",
  "3014": "istas",
  "3015": "osas",
  "3016": "tiene",
  "3017": " Entre",
  "3018": " bos",
  "3019": " official",
  "3020": "oun",
  "3021": " Ara",
  "3022": "utheast",
  "3023": " Bang",
  "3024": "desh",
  "3025": " Sri",
  "3026": " Lank",
  "3027": " Mal",
  "3028": " Andaman",
  "3029": "alley",
  "3030": "400",
  "3031": " Buddhism",
  "3032": " consol",
  "3033": " consolid",
  "3034": " Maury",
  "3035": " Gup",
  "3036": " During",
  "3037": "abil",
  "3038": " king",
  "3039": "oast",
  "3040": "ished",
  "3041": " southern",
  "3042": " created",
  "3043": " tur",
  "3044": " technolog",
  "3045": " ide",
  "3046": " education",
  "3047": " ro",
  "3048": " national",
  "3049": " other",
  "3050": "-s",
  "3051": "ration",
  "3052": " republic",
  "3053": "istic",
  "3054": "ety",
  "3055": " become",
  "3056": "onom",
  "3057": " air",
  "3058": "divers",
  "3059": "cted",
  "3060": "urther",
  "3061": "cha",
  "3062": "ian",
  "3063": " Per",
  "3064": " Persi",
  "3065": " eastern",
  "3066": " well",
  "3067": " ren",
  "3068": "urr",
  "3069": " widely",
  "3070": " earli",
  "3071": " forms",
  "3072": "-p",
  "3073": "inc",
  "3074": " These",
  "3075": " cities",
  "3076": "aro",
  "3077": "acter",
  "3078": " styles",
  "3079": "oral",
  "3080": "osed",
  "3081": " fi",
  "3082": " invol",
  "3083": "uld",
  "3084": "�",
  "3085": "ll",
  "3086": "alled",
  "3087": " based",
  "3088": "dha",
  "3089": " sac",
  "3090": " Bra",
  "3091": " Brah",
  "3092": "ning",
  "3093": "eograph",
  "3094": "sequ",
  "3095": "sequent",
  "3096": "struc",
  "3097": "ert",
  "3098": " respec",
  "3099": "tional",
  "3100": " West",
  "3101": " whose",
  "3102": "ficant",
  "3103": "ars",
  "3104": " Buddhist",
  "3105": " vast",
  "3106": " lead",
  "3107": " sultanate",
  "3108": "though",
  "3109": "ws",
  "3110": " uni",
  "3111": " mand",
  "3112": " sil",
  "3113": " market",
  "3114": "tiles",
  "3115": " commer",
  "3116": " aut",
  "3117": "our",
  "3118": "line",
  "3119": " longer",
  "3120": " National",
  "3121": " There",
  "3122": " intern",
  "3123": " won",
  "3124": " vic",
  "3125": " vict",
  "3126": " elections",
  "3127": " separ",
  "3128": "amm",
  "3129": "70",
  "3130": " lower",
  "3131": " continu",
  "3132": " caus",
  "3133": " Thar",
  "3134": " Western",
  "3135": "35",
  "3136": " dra",
  "3137": " Nar",
  "3138": " union",
  "3139": "ee",
  "3140": " sim",
  "3141": " tropical",
  "3142": " often",
  "3143": "ected",
  "3144": " den",
  "3145": " deci",
  "3146": "bal",
  "3147": " expan",
  "3148": "Go",
  "3149": " Janata",
  "3150": "ody",
  "3151": "31",
  "3152": " av",
  "3153": " fundament",
  "3154": "tates",
  "3155": " execu",
  "3156": " perman",
  "3157": " ling",
  "3158": "ived",
  "3159": "erg",
  "3160": "DP",
  "3161": "mog",
  "3162": " contribu",
  "3163": " pet",
  "3164": "72",
  "3165": "dera",
  "3166": ":\n\n",
  "3167": " camp",
  "3168": "ase",
  "3169": " common",
  "3170": "ayback",
  "3171": "divas",
  "3172": "getari",
  "3173": " propor",
  "3174": " Arch",
  "3175": " అంగ्రेజ఼ी",
  "3176": "ఫ఼",
  "3177": " దृష्ట",
  "3178": " జబకి",
  "3179": " శ्రी",
  "3180": " సी",
  "3181": " హిన्దू",
  "3182": "న्న",
  "3183": " హोతे",
  "3184": " రాజనीతిక",
  "3185": "ुప्త",
  "3186": "దी",
  "3187": "తః",
  "3188": " దిల",
  "3189": "నత",
  "3190": " స्థాపనా",
  "3191": " మిలా",
  "3192": " పంజ",
  "3193": " పంజాబ",
  "3194": " కంప",
  "3195": " అర्థవ्య",
  "3196": " బదల",
  "3197": "१८",
  "3198": " అహ",
  "3199": " విర",
  "3200": " జానా",
  "3201": " సమాప्త",
  "3202": " అధ",
  "3203": " ఇసకी",
  "3204": " సू",
  "3205": "ద्యोగిక",
  "3206": " శిక",
  "3207": "బी",
  "3208": " లे",
  "3209": " ఆవ",
  "3210": "త्త",
  "3211": " వర्ణ",
  "3212": "ిడ",
  "3213": " ఆది",
  "3214": " ఆధुనిక",
  "3215": " అఫ्రी",
  "3216": " అఫ्రीకా",
  "3217": " అభी",
  "3218": " చర",
  "3219": " జै",
  "3220": "ిన्న",
  "3221": " ఉత्పాద",
  "3222": " మానా",
  "3223": " జాతి",
  "3224": "స्త्ర",
  "3225": "స्వ",
  "3226": "ాఁచ",
  "3227": " ప्రయ",
  "3228": " ప्రయాస",
  "3229": " సु",
  "3230": " బనానे",
  "3231": " కृష",
  "3232": " రాజధాన",
  "3233": "ందిర",
  "3234": "వीం",
  "3235": " పु",
  "3236": "ాంస",
  "3237": " యूరोప",
  "3238": " యूరोపीయ",
  "3239": " ఆప",
  "3240": "ఫల",
  "3241": " ఆన्ద",
  "3242": " సింహ",
  "3243": " అగ",
  "3244": "१९५",
  "3245": " బనా",
  "3246": "పे",
  "3247": "ణా",
  "3248": " పడ఼ो",
  "3249": " పడ఼ोసी",
  "3250": "१९६",
  "3251": "వాయु",
  "3252": "మी",
  "3253": "ణी",
  "3254": "గంగా",
  "3255": " బనी",
  "3256": "ुట",
  "3257": "పु",
  "3258": " జలो",
  "3259": " జలोఢ఼",
  "3260": "డ఼ా",
  "3261": " కరతా",
  "3262": " అప्రैల",
  "3263": " ప्రత्య",
  "3264": " మो",
  "3265": "డी",
  "3266": " సమర्థ",
  "3267": " సమర्థన",
  "3268": " పద",
  "3269": "्యమ",
  "3270": " సర्వो",
  "3271": " సర्వोచ्చ",
  "3272": "्ఠ",
  "3273": " అబ",
  "3274": "ియాన",
  "3275": " బै",
  "3276": " లాఖ",
  "3277": " ప्రతిశ",
  "3278": " ప्రతిశత",
  "3279": "భారతीయ",
  "3280": " ఉద्యोగ",
  "3281": " అమరी",
  "3282": "ఖండ",
  "3283": "దటి",
  "3284": "ంతో",
  "3285": "్వామ",
  "3286": " ప్రాంతాలు",
  "3287": "ుద",
  "3288": "లను",
  "3289": "ాళ",
  "3290": "ల్ల",
  "3291": "ీప",
  "3292": " బహు",
  "3293": "ించి",
  "3294": " బ్రిట",
  "3295": "ుకోవ",
  "3296": "ోర",
  "3297": "తంత్ర",
  "3298": "ెట",
  "3299": "ప్పటిక",
  "3300": "ేన",
  "3301": " పట్టణ",
  "3302": " సంస్కృ",
  "3303": " ప్రము",
  "3304": " ప్రముఖ",
  "3305": " మొదల",
  "3306": "ాత్ర",
  "3307": "గలు",
  "3308": "్యాయ",
  "3309": " అత్యధిక",
  "3310": "ెబ",
  "3311": "కాలు",
  "3312": "న్ని",
  "3313": "న్",
  "3314": " మూడ",
  "3315": " దేశంలోని",
  "3316": " సౌ",
  "3317": " సౌకర",
  "3318": " సౌకర్య",
  "3319": " నడ",
  "3320": " నడిప",
  "3321": "దారులు",
  "3322": " hindi",
  "3323": " ubic",
  "3324": " oeste",
  "3325": " Pakistán",
  "3326": " comerciales",
  "3327": " hinduismo",
  "3328": "smo",
  "3329": " jain",
  "3330": " diversas",
  "3331": " Compañía",
  "3332": " independiente",
  "3333": " mov",
  "3334": "uest",
  "3335": " tér",
  "3336": " términ",
  "3337": " términos",
  "3338": " ingres",
  "3339": "ü",
  "3340": " actu",
  "3341": " �",
  "3342": " «",
  "3343": "»",
  "3344": " muy",
  "3345": " sigu",
  "3346": " sán",
  "3347": " sáns",
  "3348": " sánscrit",
  "3349": "ectos",
  "3350": " varios",
  "3351": " mit",
  "3352": " utili",
  "3353": " varias",
  "3354": " propios",
  "3355": " fuerza",
  "3356": "oeste",
  "3357": " castas",
  "3358": "ológ",
  "3359": " exist",
  "3360": " tradiciones",
  "3361": "ancia",
  "3362": "cido",
  "3363": " Imperio",
  "3364": " imperio",
  "3365": "anto",
  "3366": " lengu",
  "3367": " occid",
  "3368": " af",
  "3369": "lev",
  "3370": " siglos",
  "3371": "iores",
  "3372": " comenzó",
  "3373": " log",
  "3374": " tier",
  "3375": " sido",
  "3376": "iá",
  "3377": "eces",
  "3378": " esta",
  "3379": "tiva",
  "3380": " indias",
  "3381": "onces",
  "3382": " merc",
  "3383": " manten",
  "3384": "upos",
  "3385": " militares",
  "3386": " product",
  "3387": " productos",
  "3388": " Parlamento",
  "3389": " décadas",
  "3390": " pesar",
  "3391": " crí",
  "3392": "porte",
  "3393": " trab",
  "3394": "adamente",
  "3395": "mara",
  "3396": " baja",
  "3397": " hasta",
  "3398": " últimos",
  "3399": " tres",
  "3400": " INC",
  "3401": " ganó",
  "3402": "atro",
  "3403": " fuerzas",
  "3404": " extrem",
  "3405": " encuentran",
  "3406": " endé",
  "3407": " endém",
  "3408": " west",
  "3409": " Bh",
  "3410": "yan",
  "3411": " Nico",
  "3412": " Nicobar",
  "3413": "lands",
  "3414": " Ind",
  "3415": " Indones",
  "3416": " Indonesia",
  "3417": "-g",
  "3418": "ather",
  "3419": " Civil",
  "3420": " recor",
  "3421": "anted",
  "3422": " Jainism",
  "3423": " here",
  "3424": " rise",
  "3425": " Maurya",
  "3426": " era",
  "3427": " organ",
  "3428": "lief",
  "3429": " kingdom",
  "3430": " kingdoms",
  "3431": " Southeast",
  "3432": " Islam",
  "3433": "oroast",
  "3434": " establ",
  "3435": " medie",
  "3436": " Vi",
  "3437": " left",
  "3438": "itect",
  "3439": " changes",
  "3440": " public",
  "3441": "viol",
  "3442": "mary",
  "3443": " mig",
  "3444": " democra",
  "3445": " nominal",
  "3446": " ann",
  "3447": "60",
  "3448": "74",
  "3449": " technology",
  "3450": " middle",
  "3451": " cost",
  "3452": " increasing",
  "3453": " Kash",
  "3454": " Among",
  "3455": " gen",
  "3456": "ising",
  "3457": " four",
  "3458": " bio",
  "3459": "po",
  "3460": "medi",
  "3461": " Persian",
  "3462": " prov",
  "3463": " term",
  "3464": " Bharat",
  "3465": "sha",
  "3466": " Nor",
  "3467": " thought",
  "3468": " earliest",
  "3469": "nown",
  "3470": "omes",
  "3471": " bar",
  "3472": "tle",
  "3473": " aro",
  "3474": " around",
  "3475": " Mohen",
  "3476": " Mohenjo",
  "3477": "pa",
  "3478": " char",
  "3479": "dis",
  "3480": " ste",
  "3481": " pot",
  "3482": " figures",
  "3483": " vill",
  "3484": " ol",
  "3485": "soci",
  "3486": "ross",
  "3487": " plain",
  "3488": " times",
  "3489": " emplo",
  "3490": " employ",
  "3491": "ight",
  "3492": " however",
  "3493": "300",
  "3494": " differ",
  "3495": "arna",
  "3496": " eth",
  "3497": " Buddha",
  "3498": " conduct",
  "3499": " birth",
  "3500": " empire",
  "3501": "bs",
  "3502": " subsequent",
  "3503": " rock",
  "3504": "diment",
  "3505": " tax",
  "3506": " devo",
  "3507": " ass",
  "3508": "ature",
  "3509": "eras",
  "3510": " along",
  "3511": " Pand",
  "3512": " mak",
  "3513": "ences",
  "3514": " significant",
  "3515": "mbers",
  "3516": " every",
  "3517": "aries",
  "3518": " leading",
  "3519": " dev",
  "3520": " prac",
  "3521": " practic",
  "3522": "lus",
  "3523": "ues",
  "3524": "reg",
  "3525": "tain",
  "3526": " group",
  "3527": " rec",
  "3528": " aff",
  "3529": "ength",
  "3530": " crucial",
  "3531": " further",
  "3532": " Dal",
  "3533": " off",
  "3534": "alth",
  "3535": " reb",
  "3536": " unit",
  "3537": " lim",
  "3538": "ped",
  "3539": " indus",
  "3540": " industry",
  "3541": " victori",
  "3542": " secul",
  "3543": " secular",
  "3544": " liberal",
  "3545": " ge",
  "3546": " spread",
  "3547": " This",
  "3548": "au",
  "3549": "-b",
  "3550": " now",
  "3551": "kh",
  "3552": "itu",
  "3553": " low",
  "3554": " mi",
  "3555": " According",
  "3556": " territories",
  "3557": " influenc",
  "3558": " influenced",
  "3559": " win",
  "3560": "39",
  "3561": " medic",
  "3562": " desc",
  "3563": " extin",
  "3564": " lea",
  "3565": "key",
  "3566": " endang",
  "3567": " endangered",
  "3568": "pen",
  "3569": " For",
  "3570": " five",
  "3571": "oli",
  "3572": "aw",
  "3573": " held",
  "3574": " until",
  "3575": " Janu",
  "3576": " January",
  "3577": "ah",
  "3578": " declar",
  "3579": " Sing",
  "3580": " Singh",
  "3581": " Am",
  "3582": " coalition",
  "3583": " sing",
  "3584": " formed",
  "3585": " min",
  "3586": " extern",
  "3587": "lec",
  "3588": "resid",
  "3589": "ele",
  "3590": "De",
  "3591": " Lok",
  "3592": " Rajya",
  "3593": " fundamental",
  "3594": " States",
  "3595": " executive",
  "3596": "cil",
  "3597": " cab",
  "3598": " three",
  "3599": " courts",
  "3600": " contra",
  "3601": " GDP",
  "3602": " glo",
  "3603": "42",
  "3604": "harma",
  "3605": " dest",
  "3606": " last",
  "3607": "med",
  "3608": " families",
  "3609": " bre",
  "3610": " developed",
  "3611": "ched",
  "3612": "lugu",
  "3613": "Rel",
  "3614": " Pre",
  "3615": " Ker",
  "3616": " Kerala",
  "3617": "29",
  "3618": "chool",
  "3619": " traditional",
  "3620": "ables",
  "3621": " seg",
  "3622": " sculpture",
  "3623": "lic",
  "3624": " traditions",
  "3625": " ",
  "3626": " don",
  "3627": "ero",
  "3628": " inst",
  "3629": "ici",
  "3630": " dances",
  "3631": " worn",
  "3632": " sari",
  "3633": " gar",
  "3634": " Wayback",
  "3635": " Mach",
  "3636": " Machine",
  "3637": "edia",
  "3638": " ఉపమహ",
  "3639": " ఉపమహాద्వीప",
  "3640": " దृష्టి",
  "3641": " మహాస",
  "3642": "లంక",
  "3643": " పర्వత",
  "3644": " చु",
  "3645": " రచ",
  "3646": " బौ",
  "3647": " బौద्ధ",
  "3648": " గुప्త",
  "3649": " తట",
  "3650": " మुస",
  "3651": "्లిమ",
  "3652": " దిల्ల",
  "3653": " దిల्లी",
  "3654": " సల्త",
  "3655": " సల्తనత",
  "3656": " వीం",
  "3657": "ంబे",
  "3658": " బనాఈ",
  "3659": " విస्తార",
  "3660": " అర्థవ्యవస्థా",
  "3661": "ింస",
  "3662": "ोధ",
  "3663": " బఢ఼కర",
  "3664": " శुరु�",
  "3665": " శुరुఆ",
  "3666": "्షర",
  "3667": " ప्రौ",
  "3668": " ప्రौద्యोగిక",
  "3669": " ప्రौద्యोగికी",
  "3670": " అన्తర",
  "3671": " సంగीత",
  "3672": "्యాత",
  "3673": "ాఫ",
  "3674": " పరంపర",
  "3675": " దेఖా",
  "3676": " జిసకా",
  "3677": " ప्రచ",
  "3678": " ప्రచల",
  "3679": " వర्త",
  "3680": " వర्తమాన",
  "3681": "వర्ష",
  "3682": " ఇతిహాస",
  "3683": " ఘాట",
  "3684": "పूర्ణ",
  "3685": " పహु�",
  "3686": " పహुఁ",
  "3687": "्ఞ",
  "3688": " గु�",
  "3689": " జीవ",
  "3690": " ఆజ",
  "3691": " వికస",
  "3692": " వికసిత",
  "3693": " విభిన्న",
  "3694": "ంథ",
  "3695": "-ప",
  "3696": " ప्రారమ्భ",
  "3697": "ोటे",
  "3698": " ఛोడ఼",
  "3699": " లोగोం",
  "3700": "ర्శ",
  "3701": " ఉభ",
  "3702": " హిస",
  "3703": " హిస्స",
  "3704": " ఉచ्చ",
  "3705": " అశ",
  "3706": "శాసన",
  "3707": "ृతిక",
  "3708": " చాల",
  "3709": " ఉసకे",
  "3710": " తो",
  "3711": " కोఈ",
  "3712": " మूల",
  "3713": "ఘ",
  "3714": " రాజధానी",
  "3715": "ియత",
  "3716": " మల",
  "3717": " కియे",
  "3718": " పुర्త",
  "3719": " పुర्తగ",
  "3720": " ఫ्ర",
  "3721": " వ्యాపార",
  "3722": " లడ఼",
  "3723": "ాస्త",
  "3724": " బాహ",
  "3725": " హర",
  "3726": " ప्రస",
  "3727": " ఆన्దोలన",
  "3728": " గత",
  "3729": " సంఘర्ష",
  "3730": "ితా",
  "3731": "१५",
  "3732": " జనవరी",
  "3733": "పेక्ష",
  "3734": "తాం",
  "3735": "తాంత्ర",
  "3736": "తాంత्రిక",
  "3737": " కेవల",
  "3738": " ఇందిర",
  "3739": " ఇందిరా",
  "3740": " రహी",
  "3741": "ఝ",
  "3742": " జలవాయु",
  "3743": "ौర",
  "3744": "२४",
  "3745": " జహ",
  "3746": " జహాఁ",
  "3747": " నదియాఁ",
  "3748": " కహతे",
  "3749": " కిస",
  "3750": " నవ",
  "3751": "ेల",
  "3752": " పूర्వी",
  "3753": "ిబంధ",
  "3754": " నిమ",
  "3755": ");\n",
  "3756": " మర",
  "3757": "సమ",
  "3758": " జूన",
  "3759": " మానస",
  "3760": " మానసूన",
  "3761": "రాజ",
  "3762": "ియాం",
  "3763": "्యాద",
  "3764": "२०१",
  "3765": " రాజన",
  "3766": " రాజనै",
  "3767": " రాజనैతిక",
  "3768": "గణ",
  "3769": " జीత",
  "3770": "జी",
  "3771": " సరకారेం",
  "3772": " జी",
  "3773": "రాత",
  "3774": " మాధ",
  "3775": " మాధ्యమ",
  "3776": " మంత्ర",
  "3777": "విక",
  "3778": " దాద",
  "3779": " అలావా",
  "3780": " అభియాన",
  "3781": "దారी",
  "3782": " అమेర",
  "3783": " అమेరికా",
  "3784": "ిష्ఠ",
  "3785": " విమ",
  "3786": " విమాన",
  "3787": "�ి",
  "3788": " శాఖ",
  "3789": " సంప",
  "3790": "చిత",
  "3791": " డాల",
  "3792": " పర्య",
  "3793": "ాగా",
  "3794": "భాషా",
  "3795": "దర",
  "3796": " వహ",
  "3797": "75",
  "3798": " మిలియన",
  "3799": "ీర్ణ",
  "3800": " కలిగ",
  "3801": "ీట",
  "3802": " అనేక",
  "3803": " నే",
  "3804": " భూ",
  "3805": "సింది",
  "3806": " ప్రాంతాల",
  "3807": "ాటు",
  "3808": " శతాబ్ద",
  "3809": " శతాబ్దం",
  "3810": " నుండి",
  "3811": " స్వాత",
  "3812": " స్వాతంత్ర",
  "3813": " జరిగిన",
  "3814": "�ిక",
  "3815": "క్షర",
  "3816": "్లను",
  "3817": "ుప",
  "3818": "రాలు",
  "3819": " మొత్త",
  "3820": " మొత్తం",
  "3821": "్ణ",
  "3822": " పండు",
  "3823": " ఎక్కువగా",
  "3824": " ఉంటాయి",
  "3825": "నుక",
  "3826": "ినది",
  "3827": "దేశం",
  "3828": " పూ",
  "3829": " రెండు",
  "3830": " ప్రాచ",
  "3831": "ర్గ",
  "3832": "లతో",
  "3833": "రం",
  "3834": "ష్ట",
  "3835": "ిద్�",
  "3836": " సర్వ",
  "3837": "ధానమంత్ర",
  "3838": " నిర్వ",
  "3839": " నిర్వహ",
  "3840": " ఆర్ధిక",
  "3841": "కారం",
  "3842": "రాష్ట్ర",
  "3843": " పద్ధ",
  "3844": "క్",
  "3845": "�్య",
  "3846": " చేయ",
  "3847": " కోర్ట",
  "3848": "స్",
  "3849": " కాంగ్రెసు",
  "3850": " ప్రతిప",
  "3851": " వాత",
  "3852": " వాతావ",
  "3853": " వాతావరణ",
  "3854": " వాతావరణం",
  "3855": " జనాభా",
  "3856": " జాబ",
  "3857": " ప్రస్తుతం",
  "3858": " పరిశ",
  "3859": "‌స",
  "3860": "ించే",
  "3861": " తమిళ",
  "3862": " రైల",
  "3863": " రైల్వ",
  "3864": "ుగా",
  "3865": " రహదారులు",
  "3866": " బె",
  "3867": " బెంగాల",
  "3868": " వెబ",
  "3869": "),​",
  "3870": " ingl",
  "3871": " inglés",
  "3872": " habitantes",
  "3873": " Su",
  "3874": " plan",
  "3875": " largo",
  "3876": " ciudad",
  "3877": " Indias",
  "3878": " Orientales",
  "3879": " estuvo",
  "3880": " república",
  "3881": " terc",
  "3882": " tercera",
  "3883": " rá",
  "3884": " ráp",
  "3885": " alber",
  "3886": " fl",
  "3887": " uno",
  "3888": "miti",
  "3889": " desigual",
  "3890": " gana",
  "3891": " renta",
  "3892": " solo",
  "3893": "forme",
  "3894": " oficiales",
  "3895": " him",
  "3896": " sánscrito",
  "3897": " rí",
  "3898": " Constitución",
  "3899": " recon",
  "3900": " símbolos",
  "3901": "puest",
  "3902": " mismo",
  "3903": " estatus",
  "3904": " humanos",
  "3905": " conoci",
  "3906": " habían",
  "3907": " hace",
  "3908": "ueb",
  "3909": " alim",
  "3910": "amiento",
  "3911": "istán",
  "3912": "dose",
  "3913": " artes",
  "3914": " regiones",
  "3915": "édic",
  "3916": " indo",
  "3917": "eros",
  "3918": "ió",
  "3919": " modelo",
  "3920": " había",
  "3921": " redu",
  "3922": " tanto",
  "3923": " militar",
  "3924": "ensa",
  "3925": " literatura",
  "3926": "onal",
  "3927": " dent",
  "3928": " dentro",
  "3929": " familia",
  "3930": " administración",
  "3931": " clásica",
  "3932": " regionales",
  "3933": "ética",
  "3934": " agrícola",
  "3935": " nuevas",
  "3936": " tradicionales",
  "3937": "cias",
  "3938": " económicos",
  "3939": " cuando",
  "3940": " ya",
  "3941": " musulmanes",
  "3942": " condu",
  "3943": " sultanato",
  "3944": " realiz",
  "3945": "unque",
  "3946": " homb",
  "3947": " hombres",
  "3948": " después",
  "3949": " entonces",
  "3950": " bajo",
  "3951": "sión",
  "3952": " empres",
  "3953": " europe",
  "3954": " costa",
  "3955": " posterior",
  "3956": "zo",
  "3957": " británico",
  "3958": " cambi",
  "3959": " cambios",
  "3960": "idas",
  "3961": "gos",
  "3962": "entos",
  "3963": " ay",
  "3964": " Según",
  "3965": "iendo",
  "3966": " trabajo",
  "3967": "tuvo",
  "3968": " llam",
  "3969": " Estados",
  "3970": " papel",
  "3971": " importante",
  "3972": " mundial",
  "3973": "endencia",
  "3974": ".​​\n",
  "3975": "ecutivo",
  "3976": " partido",
  "3977": " cámara",
  "3978": " consiste",
  "3979": "endo",
  "3980": ").​",
  "3981": " coalición",
  "3982": " cuatro",
  "3983": " concent",
  "3984": " grupos",
  "3985": " tienen",
  "3986": " cordi",
  "3987": " Pa",
  "3988": "ráfica",
  "3989": " además",
  "3990": " personas",
  "3991": " dó",
  "3992": " dól",
  "3993": " dólares",
  "3994": " ni",
  "3995": " Crí",
  "3996": " Críquet",
  "3997": " Repu",
  "3998": " Republic",
  "3999": "bian",
  "4000": " Sea",
  "4001": " Myan",
  "4002": " Myanmar",
  "4003": " near",
  "4004": " Lanka",
  "4005": " Africa",
  "4006": " Their",
  "4007": " pred",
  "4008": " predomin",
  "4009": " diverse",
  "4010": " marg",
  "4011": " Valley",
  "4012": " recorded",
  "4013": " Dra",
  "4014": " Dravidi",
  "4015": " Dravidian",
  "4016": " within",
  "4017": " heredi",
  "4018": "ave",
  "4019": " Gupta",
  "4020": " flo",
  "4021": " writ",
  "4022": "ined",
  "4023": "touch",
  "4024": "ability",
  "4025": " scrip",
  "4026": "tian",
  "4027": " established",
  "4028": " resulting",
  "4029": "etwork",
  "4030": " medieval",
  "4031": "jay",
  "4032": "anag",
  "4033": "ject",
  "4034": " rich",
  "4035": " colonial",
  "4036": " rights",
  "4037": " took",
  "4038": " influence",
  "4039": " factor",
  "4040": " partition",
  "4041": "-m",
  "4042": " fast",
  "4043": " reduced",
  "4044": "ality",
  "4045": " Kashm",
  "4046": " Kashmir",
  "4047": "ls",
  "4048": "diversity",
  "4049": " wild",
  "4050": "life",
  "4051": " traditionally",
  "4052": " refer",
  "4053": " histor",
  "4054": " Gree",
  "4055": " Greek",
  "4056": " '",
  "4057": "lied",
  "4058": " curr",
  "4059": "sta",
  "4060": " Hindust",
  "4061": "ring",
  "4062": " extant",
  "4063": "iens",
  "4064": " Ho",
  "4065": " However",
  "4066": " known",
  "4067": " about",
  "4068": "vid",
  "4069": "700",
  "4070": "omestic",
  "4071": " gra",
  "4072": " cat",
  "4073": "190",
  "4074": "-daro",
  "4075": "avi",
  "4076": "avira",
  "4077": " features",
  "4078": " work",
  "4079": " olde",
  "4080": " oldest",
  "4081": " composed",
  "4082": "peak",
  "4083": "han",
  "4084": "ling",
  "4085": " place",
  "4086": " when",
  "4087": "ining",
  "4088": " agriculture",
  "4089": " ref",
  "4090": " wo",
  "4091": " regist",
  "4092": " called",
  "4093": " conte",
  "4094": "ured",
  "4095": " conducted",
  "4096": " lay",
  "4097": " history",
  "4098": " his",
  "4099": "dop",
  "4100": "miss",
  "4101": " numer",
  "4102": "ade",
  "4103": " greater",
  "4104": "tas",
  "4105": " rene",
  "4106": " renew",
  "4107": " flow",
  "4108": "ering",
  "4109": " Chol",
  "4110": " Pall",
  "4111": " Pallav",
  "4112": "ously",
  "4113": " fav",
  "4114": " consist",
  "4115": " growing",
  "4116": " agricultural",
  "4117": " show",
  "4118": "urg",
  "4119": " development",
  "4120": " sm",
  "4121": " small",
  "4122": "tiz",
  "4123": " numbers",
  "4124": "emple",
  "4125": "nam",
  "4126": "ili",
  "4127": " Asian",
  "4128": " nom",
  "4129": " repe",
  "4130": "ays",
  "4131": " Although",
  "4132": " elites",
  "4133": " vis",
  "4134": " artis",
  "4135": " indigen",
  "4136": " indigenous",
  "4137": " bu",
  "4138": "wards",
  "4139": " again",
  "4140": " superior",
  "4141": " bal",
  "4142": " id",
  "4143": " Ak",
  "4144": " emper",
  "4145": "cies",
  "4146": " am",
  "4147": " Ex",
  "4148": " commercial",
  "4149": "lit",
  "4150": " process",
  "4151": "pr",
  "4152": " European",
  "4153": "ably",
  "4154": "ods",
  "4155": " mater",
  "4156": "urta",
  "4157": "oin",
  "4158": "hous",
  "4159": "ech",
  "4160": " invas",
  "4161": " sum",
  "4162": " directly",
  "4163": " gradual",
  "4164": "ard",
  "4165": " decades",
  "4166": "pay",
  "4167": " consu",
  "4168": " provi",
  "4169": " War",
  "4170": " sel",
  "4171": "operation",
  "4172": " enac",
  "4173": " enacted",
  "4174": " All",
  "4175": "India's",
  "4176": "conom",
  "4177": " transform",
  "4178": "atis",
  "4179": " plate",
  "4180": " approxim",
  "4181": " approximately",
  "4182": " Gond",
  "4183": " Gondw",
  "4184": " Gondwana",
  "4185": " continental",
  "4186": " upper",
  "4187": "ets",
  "4188": " continued",
  "4189": " Plateau",
  "4190": " constitu",
  "4191": " original",
  "4192": "ction",
  "4193": " To",
  "4194": " che",
  "4195": " surv",
  "4196": " Guj",
  "4197": "arat",
  "4198": "harkh",
  "4199": "harkhand",
  "4200": "44",
  "4201": " latitu",
  "4202": "aksh",
  "4203": " vol",
  "4204": "aba",
  "4205": "soon",
  "4206": " Oc",
  "4207": " clima",
  "4208": " ret",
  "4209": " disp",
  "4210": " nat",
  "4211": " exch",
  "4212": " contr",
  "4213": " tig",
  "4214": " enc",
  "4215": " reserv",
  "4216": " Ram",
  "4217": "vention",
  "4218": "Government",
  "4219": " leader",
  "4220": " Indira",
  "4221": "den",
  "4222": " body",
  "4223": " Fron",
  "4224": "liance",
  "4225": " just",
  "4226": " member",
  "4227": " single",
  "4228": " external",
  "4229": " Democ",
  "4230": "DA",
  "4231": "gres",
  "4232": " Man",
  "4233": " Modi",
  "4234": " abs",
  "4235": "ute",
  "4236": " foreign",
  "4237": " hous",
  "4238": "tives",
  "4239": " defini",
  "4240": " pan",
  "4241": " promul",
  "4242": " promulg",
  "4243": " Union",
  "4244": " Minist",
  "4245": "ordin",
  "4246": " court",
  "4247": " jur",
  "4248": " juris",
  "4249": " jurisdic",
  "4250": "ital",
  "4251": " relations",
  "4252": "eas",
  "4253": "lifer",
  "4254": " Intern",
  "4255": " At",
  "4256": "ergy",
  "4257": " Sup",
  "4258": " global",
  "4259": " crisis",
  "4260": "vest",
  "4261": " contribut",
  "4262": "porter",
  "4263": " exports",
  "4264": " before",
  "4265": " estimated",
  "4266": " pharma",
  "4267": " pharmace",
  "4268": " pharmaceu",
  "4269": " pharmaceutical",
  "4270": "reasing",
  "4271": " cooking",
  "4272": " resid",
  "4273": "volu",
  "4274": " compar",
  "4275": "ortal",
  "4276": " sex",
  "4277": "ale",
  "4278": " ban",
  "4279": " important",
  "4280": " comprom",
  "4281": "chedul",
  "4282": "\".",
  "4283": " Ass",
  "4284": " Assam",
  "4285": "04",
  "4286": " impro",
  "4287": " school",
  "4288": "900",
  "4289": " gu",
  "4290": " below",
  "4291": " entr",
  "4292": " divor",
  "4293": "iva",
  "4294": " inno",
  "4295": " innov",
  "4296": " mathematics",
  "4297": "\",",
  "4298": "uk",
  "4299": "das",
  "4300": "-dram",
  "4301": "-dramas",
  "4302": "adu",
  "4303": " fes",
  "4304": " Tod",
  "4305": "olly",
  "4306": "ollywo",
  "4307": "ollywood",
  "4308": "loth",
  "4309": " wa",
  "4310": " waist",
  "4311": " commonly",
  "4312": " kame",
  "4313": " kameez",
  "4314": " wear",
  "4315": " cooked",
  "4316": " meat",
  "4317": " vegetari",
  "4318": " tando",
  "4319": "Se",
  "4320": " kho",
  "4321": " gol",
  "4322": " Fact",
  "4323": " Factbo",
  "4324": " Factbook",
  "4325": " Wikim",
  "4326": " Wikimedia",
  "4327": "ey",
  "4328": "పूర्వ",
  "4329": " మాల",
  "4330": " శ्రीలంక",
  "4331": " శ्రीలంకా",
  "4332": "ूర्ణ",
  "4333": " ఫैలी",
  "4334": "ीకరణ",
  "4335": " మौర्య",
  "4336": "శीల",
  "4337": " ఇస्ల",
  "4338": " ఇస्లామ",
  "4339": " పశ्చిమी",
  "4340": " జమా",
  "4341": " మुస्లిమ",
  "4342": " విజయ",
  "4343": " లంబे",
  "4344": " వాలी",
  "4345": "ूత",
  "4346": "శాలी",
  "4347": " అహింస",
  "4348": " విభాజ",
  "4349": " జిన्హेం",
  "4350": " సంఘीయ",
  "4351": " పुరुష",
  "4352": " బఢ఼తी",
  "4353": " శిక्ష",
  "4354": " విశेష",
  "4355": " కశ",
  "4356": " కశ्మ",
  "4357": " కశ्మीర",
  "4358": " లेకర",
  "4359": " వన",
  "4360": "ాగత",
  "4361": " నివాస",
  "4362": " కరతे",
  "4363": " మహాత",
  "4364": " కిఏ",
  "4365": " సింధु",
  "4366": "्భ",
  "4367": " వంశ",
  "4368": " రత",
  "4369": " ప्రక",
  "4370": "రాన",
  "4371": "  ",
  "4372": "ర्గ",
  "4373": " జంబ",
  "4374": " సమृద्ధ",
  "4375": " సభ्యతా",
  "4376": " అనेక",
  "4377": " మానవ",
  "4378": " పహुఁచ",
  "4379": " అవశ",
  "4380": " అవశेష",
  "4381": " జीవన",
  "4382": " శహ",
  "4383": " శహరी",
  "4384": "ोహన",
  "4385": " జैసे",
  "4386": " శహర",
  "4387": " యహాఁ",
  "4388": " ఆగమన",
  "4389": " మैదానी",
  "4390": "-ఆ",
  "4391": " ఛोటे",
  "4392": " ఉనకे",
  "4393": " పूరे",
  "4394": " అపనా",
  "4395": " పరిణ",
  "4396": " పరిణామ",
  "4397": " పరిణామస्వ",
  "4398": " పరిణామస्వరूప",
  "4399": " శక",
  "4400": " రాజవ",
  "4401": " రాజవంశ",
  "4402": " సాహ",
  "4403": " సాహిత",
  "4404": " ప्రశాసన",
  "4405": "ారణ",
  "4406": " ప्రణ",
  "4407": " ప्రణాలी",
  "4408": "्ఞాన",
  "4409": "्కृతిక",
  "4410": " ఉసे",
  "4411": " ఉన्హेం",
  "4412": " తुల",
  "4413": " క्రమ",
  "4414": "యे",
  "4415": " కृషి",
  "4416": " ఉనకी",
  "4417": "ीపी",
  "4418": "१०",
  "4419": " ఫ्రాంస",
  "4420": "ेన",
  "4421": "చ्�",
  "4422": "చ्ఛ",
  "4423": " ఇసమेం",
  "4424": " సఫల",
  "4425": " వాస्త",
  "4426": "ంత्రణ",
  "4427": "ిమాన",
  "4428": " ‘",
  "4429": "’",
  "4430": "ాథ",
  "4431": "ధార",
  "4432": "దాయిక",
  "4433": " హोనా",
  "4434": " ఘोషణా",
  "4435": " దी",
  "4436": " ఇసे",
  "4437": " సదస्య",
  "4438": " పరी",
  "4439": " పరीక्ష",
  "4440": " పరीక्షణ",
  "4441": "భू",
  "4442": " అంట",
  "4443": " గతి",
  "4444": " అవస",
  "4445": " ఊఁచी",
  "4446": " సహాయక",
  "4447": " తల",
  "4448": " కరతी",
  "4449": " మిశ",
  "4450": " పాయా",
  "4451": " విల",
  "4452": " పूరా",
  "4453": "ాంతర",
  "4454": " తीన",
  "4455": " సత",
  "4456": "ష्ణ",
  "4457": "టిబంధ",
  "4458": "టిబంధीయ",
  "4459": "ాఇన",
  "4460": " నమ",
  "4461": "ुష्క",
  "4462": " నిమ्న",
  "4463": " ఋతु",
  "4464": "ంబర",
  "4465": "క्ట",
  "4466": "ूబ",
  "4467": "నాడ",
  "4468": " శక्త",
  "4469": " జ఼",
  "4470": " మనమ",
  "4471": " శुరुఆత",
  "4472": " నेహర",
  "4473": "ृత्య",
  "4474": " ఆమ",
  "4475": "నవ",
  "4476": "ర्చ",
  "4477": " బాహరी",
  "4478": " కిసी",
  "4479": " పी",
  "4480": " కార्యకాల",
  "4481": " ఏన",
  "4482": " గुజ",
  "4483": " గुజరాత",
  "4484": " సశ",
  "4485": "ेడ",
  "4486": "విధ",
  "4487": " రాజ्యసభా",
  "4488": " సదస्యोం",
  "4489": " జినమेం",
  "4490": " మంత्రిమ",
  "4491": " మంత्రిమణ्డ",
  "4492": " మంత्రిమణ्డల",
  "4493": " ఇసకా",
  "4494": " ప्రత्యेక",
  "4495": "ాధికార",
  "4496": " మామ",
  "4497": "టా",
  "4498": "విద",
  "4499": "ौహార",
  "4500": " హస्త",
  "4501": " తనావ",
  "4502": " సोవ",
  "4503": " సोవియత",
  "4504": " సంబంధोం",
  "4505": " సామరిక",
  "4506": " శాంతి",
  "4507": " ప्రదాన",
  "4508": " సక्ర",
  "4509": " సక्రియ",
  "4510": " భాగी",
  "4511": " శక्తి",
  "4512": " నौ",
  "4513": " నौసेనా",
  "4514": " రूస",
  "4515": " తరహ",
  "4516": " సమఝ",
  "4517": " వాణ",
  "4518": " వాణిజ",
  "4519": " బజ",
  "4520": " బజట",
  "4521": "83",
  "4522": "%)",
  "4523": "PI",
  "4524": " ఆయాత",
  "4525": " అంత",
  "4526": " తిర",
  "4527": " చी",
  "4528": " స्ట",
  "4529": " అమరीకी",
  "4530": " డాలర",
  "4531": " పర्యటన",
  "4532": " భాషాఏఁ",
  "4533": "२२",
  "4534": " భीల",
  "4535": " ఝ",
  "4536": " ఉపయोగ",
  "4537": " భాషాఏం",
  "4538": "హిన्ద",
  "4539": "హిన्దी",
  "4540": "ेమ",
  "4541": "వార",
  "4542": " దివ",
  "4543": " లोకప्ర",
  "4544": " లोకప्రియ",
  "4545": " కథ",
  "4546": "ాటక",
  "4547": " హॉ",
  "4548": " హॉకी",
  "4549": " టेలी",
  "4550": " టेలीవ",
  "4551": " టेలीవిజ",
  "4552": " పై",
  "4553": " పైగా",
  "4554": " వై",
  "4555": "ాస్వామ",
  "4556": "ాస్వామ్య",
  "4557": " రాష్ట్రాలు",
  "4558": " కేంద్రపాల",
  "4559": " కేంద్రపాలిత",
  "4560": " కలిగి",
  "4561": "రీ",
  "4562": " దేశాలలో",
  "4563": " ఒకట",
  "4564": "ములో",
  "4565": "ిత్రక",
  "4566": " దక్షిణాన",
  "4567": " పశ్చ",
  "4568": " పాకిస్త",
  "4569": "ాదేశ",
  "4570": " ఆఫ",
  "4571": " ద్వీప",
  "4572": " పుట్ట",
  "4573": "ౌర",
  "4574": " సామ్ర",
  "4575": " సామ్రాజ",
  "4576": " రాజ్యాలు",
  "4577": " బ్రిటిష",
  "4578": "ెన",
  "4579": "ుకోవడ",
  "4580": "ీష",
  "4581": " ఆర్థిక",
  "4582": " అభివ",
  "4583": " అభివృ",
  "4584": " అభివృద్ధ",
  "4585": " అభివృద్ధి",
  "4586": "ుతున్న",
  "4587": "క్షరాస",
  "4588": "క్షరాస్య",
  "4589": "క్షరాస్యత",
  "4590": " పో",
  "4591": " వంటి",
  "4592": "ర్క",
  "4593": "ర్కొ",
  "4594": "ర్లు",
  "4595": "ట్లు",
  "4596": " భారతదేశానికి",
  "4597": "ప్పటికీ",
  "4598": " ప్రార",
  "4599": "యో",
  "4600": "ష్ణ",
  "4601": " గో",
  "4602": " దేశంలో",
  "4603": "ర్ష",
  "4604": "ుతో",
  "4605": " రూప",
  "4606": "ంగ్ల",
  "4607": " వల",
  "4608": " పొ",
  "4609": "్వత",
  "4610": " సంవ",
  "4611": " సంవత",
  "4612": " సంవత్స",
  "4613": "పూ",
  "4614": "ెహ",
  "4615": " వారస",
  "4616": " వారసత్వ",
  "4617": " యు",
  "4618": "్యులు",
  "4619": "ోళ",
  "4620": " శాస్త్రం",
  "4621": "రుష",
  "4622": "న్నాయి",
  "4623": "డి",
  "4624": "ితి",
  "4625": " ఆక్రమ",
  "4626": "ాలతో",
  "4627": " కూడిన",
  "4628": " లక్ష",
  "4629": " ప్రధానమంత్ర",
  "4630": "ర్జ",
  "4631": " ప్రకారం",
  "4632": " రాష్ట్రపతి",
  "4633": "మైనది",
  "4634": " కార్య",
  "4635": " లోక్",
  "4636": " సంఖ్య",
  "4637": "ిని",
  "4638": " అని",
  "4639": "ూచ",
  "4640": " చరిత్ర",
  "4641": " మాత్రం",
  "4642": "ంచి",
  "4643": " సంప్ర",
  "4644": " సంప్రదాయ",
  "4645": " పాకిస్థ",
  "4646": "మ్మ",
  "4647": " ప్రజల",
  "4648": "ాదన",
  "4649": " జాబితా",
  "4650": " పాత్ర",
  "4651": " పరిశ్రమ",
  "4652": "వే",
  "4653": " మూడు",
  "4654": "ాబాద్",
  "4655": " ఉన్నారు",
  "4656": "%),",
  "4657": " కుటు",
  "4658": " కుటుంబ",
  "4659": "ాలకు",
  "4660": " భాషలు",
  "4661": " అధికారిక",
  "4662": " రకాల",
  "4663": "్లామ",
  "4664": " సర్వీ",
  "4665": " సర్వీస",
  "4666": " రైళ",
  "4667": " పాక్",
  "4668": " నడిపించ",
  "4669": "టం",
  "4670": "ిస్తున్న",
  "4671": " రో",
  "4672": "ిక్",
  "4673": " సాంప్ర",
  "4674": " సంగీతం",
  "4675": " చెందిన",
  "4676": " సినిమా",
  "4677": " బెంగాలీ",
  "4678": " సాధించ",
  "4679": " క్య",
  "4680": "ినాలు",
  "4681": " వెబ్",
  "4682": " Rep",
  "4683": " República",
  "4684": " sober",
  "4685": "ita",
  "4686": " Í",
  "4687": " Ín",
  "4688": " Índi",
  "4689": " kilóm",
  "4690": " kilómet",
  "4691": " kilómetros",
  "4692": "lad",
  "4693": " cer",
  "4694": " sij",
  "4695": " religiones",
  "4696": " XV",
  "4697": "III",
  "4698": " independencia",
  "4699": " marc",
  "4700": " movimiento",
  "4701": " parlament",
  "4702": " reformas",
  "4703": " rápido",
  "4704": " const",
  "4705": "chos",
  "4706": " pose",
  "4707": " sociedad",
  "4708": " alberga",
  "4709": " difer",
  "4710": "áb",
  "4711": " proteg",
  "4712": "ratado",
  "4713": " permiti",
  "4714": "ría",
  "4715": " élite",
  "4716": " todo",
  "4717": " bengal",
  "4718": " bengalí",
  "4719": ".[",
  "4720": "cita",
  "4721": " requ",
  "4722": " requer",
  "4723": " requerida",
  "4724": " denomin",
  "4725": " Estado",
  "4726": " anim",
  "4727": " animales",
  "4728": " unión",
  "4729": " común",
  "4730": " Á",
  "4731": " África",
  "4732": " donde",
  "4733": "ruct",
  "4734": " primera",
  "4735": "ció",
  "4736": " formas",
  "4737": " escrit",
  "4738": " historiadores",
  "4739": "izado",
  "4740": " noroeste",
  "4741": "arqu",
  "4742": " campes",
  "4743": "yó",
  "4744": " ocup",
  "4745": " mes",
  "4746": " meseta",
  "4747": " Decán",
  "4748": " así",
  "4749": " tan",
  "4750": " peque",
  "4751": "édicos",
  "4752": " cuales",
  "4753": "ñan",
  "4754": " todas",
  "4755": "cios",
  "4756": " amb",
  "4757": " áreas",
  "4758": "yes",
  "4759": "estión",
  "4760": " llev",
  "4761": " reinos",
  "4762": "teriores",
  "4763": " esc",
  "4764": " arqu",
  "4765": " arquitect",
  "4766": " arquitectura",
  "4767": " También",
  "4768": " intent",
  "4769": " aún",
  "4770": " controlar",
  "4771": " mucho",
  "4772": " igual",
  "4773": "encias",
  "4774": " lenguas",
  "4775": "jeron",
  "4776": " ef",
  "4777": " políticos",
  "4778": " er",
  "4779": " veces",
  "4780": " ejér",
  "4781": " ejérci",
  "4782": " budistas",
  "4783": "Des",
  "4784": " utiliz",
  "4785": "ám",
  "4786": " élites",
  "4787": " fuerte",
  "4788": " tecnolog",
  "4789": " tecnología",
  "4790": " principalmente",
  "4791": "ambio",
  "4792": " prá",
  "4793": " prác",
  "4794": " casi",
  "4795": " económica",
  "4796": "arias",
  "4797": " recono",
  "4798": " estas",
  "4799": "car",
  "4800": " europeas",
  "4801": " hac",
  "4802": "oment",
  "4803": " conver",
  "4804": " converti",
  "4805": " manera",
  "4806": " educación",
  "4807": "ológicos",
  "4808": " fer",
  "4809": " centro",
  "4810": " Congres",
  "4811": " Congreso",
  "4812": " Indio",
  "4813": " agricultores",
  "4814": " proporcion",
  "4815": " hambruna",
  "4816": " ayud",
  "4817": " industria",
  "4818": " propiedad",
  "4819": " cuar",
  "4820": " ning",
  "4821": " seguido",
  "4822": "arse",
  "4823": "operación",
  "4824": " obtuvo",
  "4825": " esp",
  "4826": " relacion",
  "4827": " noreste",
  "4828": " naciones",
  "4829": " recientes",
  "4830": " eleg",
  "4831": " mandato",
  "4832": " ejecutivo",
  "4833": "sejo",
  "4834": " incluyendo",
  "4835": "quierda",
  "4836": " formó",
  "4837": " comunic",
  "4838": " comunicación",
  "4839": " medios",
  "4840": "ím",
  "4841": " nivel",
  "4842": " están",
  "4843": " relaciones",
  "4844": " guerra",
  "4845": " dismin",
  "4846": " disminu",
  "4847": " Paqu",
  "4848": " Paquistán",
  "4849": " Organización",
  "4850": " equip",
  "4851": " lingü",
  "4852": " lingüís",
  "4853": "rafía",
  "4854": " cordill",
  "4855": "erto",
  "4856": " contiene",
  "4857": " Andamán",
  "4858": " todos",
  "4859": "ífer",
  "4860": " existen",
  "4861": " endémicas",
  "4862": " bosques",
  "4863": " rur",
  "4864": " rurales",
  "4865": " %,",
  "4866": " últimas",
  "4867": " té",
  "4868": "edio",
  "4869": " días",
  "4870": " musulmana",
  "4871": " menu",
  "4872": " menudo",
  "4873": "rimon",
  "4874": " populares",
  "4875": " cele",
  "4876": " celeb",
  "4877": "ticias",
  "4878": " danza",
  "4879": " obras",
  "4880": " críquet",
  "4881": " area",
  "4882": " populous",
  "4883": " independence",
  "4884": "racy",
  "4885": "cean",
  "4886": " Arabian",
  "4887": " Bay",
  "4888": " bor",
  "4889": " Nep",
  "4890": " Bangla",
  "4891": " Bangladesh",
  "4892": " Islands",
  "4893": " share",
  "4894": " isol",
  "4895": " margins",
  "4896": " basin",
  "4897": " gradually",
  "4898": " Civilisation",
  "4899": "aic",
  "4900": "-E",
  "4901": "-European",
  "4902": " northwest",
  "4903": " hy",
  "4904": "mn",
  "4905": "ings",
  "4906": "isen",
  "4907": "arly",
  "4908": " gave",
  "4909": " loose",
  "4910": "-k",
  "4911": "tivity",
  "4912": " archit",
  "4913": " architec",
  "4914": " architecture",
  "4915": " status",
  "4916": "touchability",
  "4917": " belief",
  "4918": " Mid",
  "4919": " Middle",
  "4920": " cultures",
  "4921": "uda",
  "4922": " Z",
  "4923": "oroastri",
  "4924": " armies",
  "4925": " plains",
  "4926": " Sultan",
  "4927": " Vijay",
  "4928": " Vijayanag",
  "4929": " Vijayanagara",
  "4930": " Sikhism",
  "4931": " institution",
  "4932": " religion",
  "4933": " expans",
  "4934": "rad",
  "4935": "anding",
  "4936": " sover",
  "4937": " sovereign",
  "4938": " sovereignty",
  "4939": " slow",
  "4940": " introduced",
  "4941": "192",
  "4942": " primary",
  "4943": " loss",
  "4944": "ced",
  "4945": "comp",
  "4946": " plural",
  "4947": "-e",
  "4948": " society",
  "4949": "361",
  "4950": " capita",
  "4951": " pover",
  "4952": " poverty",
  "4953": " ine",
  "4954": " inequ",
  "4955": " inequality",
  "4956": " disputes",
  "4957": "aces",
  "4958": " maln",
  "4959": " malnut",
  "4960": " malnutri",
  "4961": " leve",
  "4962": " mega",
  "4963": " wildlife",
  "4964": " supported",
  "4965": " protected",
  "4966": "tym",
  "4967": "mediately",
  "4968": "ν",
  "4969": "ν�",
  "4970": "νδ",
  "4971": " extens",
  "4972": "the",
  "4973": "ārat",
  "4974": "ˈ",
  "4975": "ː",
  "4976": " ep",
  "4977": " name",
  "4978": " originally",
  "4979": " North",
  "4980": " gain",
  "4981": " currency",
  "4982": "assing",
  "4983": "Hist",
  "4984": "An",
  "4985": "omo",
  "4986": " sap",
  "4987": " reac",
  "4988": " reached",
  "4989": " like",
  "4990": " initi",
  "4991": " Bal",
  "4992": "inclu",
  "4993": " animals",
  "4994": "eb",
  "4995": "urred",
  "4996": " Har",
  "4997": " character",
  "4998": " stand",
  "4999": " seals",
  "5000": " written",
  "5001": " arts",
  "5002": " town",
  "5003": " today",
  "5004": " Ved",
  "5005": " associ",
  "5006": "—w",
  "5007": "-Ary",
  "5008": "-Aryan",
  "5009": " across",
  "5010": " setting",
  "5011": " ir",
  "5012": " prepar",
  "5013": " dri",
  "5014": " bro",
  "5015": " broad",
  "5016": " being",
  "5017": " parts",
  "5018": "amma",
  "5019": " would",
  "5020": "ters",
  "5021": "ṇ",
  "5022": "bh",
  "5023": " range",
  "5024": " urbanisation",
  "5025": " tak",
  "5026": " those",
  "5027": "ressed",
  "5028": " heredit",
  "5029": "iving",
  "5030": " could",
  "5031": " these",
  "5032": " back",
  "5033": " exten",
  "5034": " extensive",
  "5035": " Ash",
  "5036": " Ashok",
  "5037": " Ashoka",
  "5038": " bri",
  "5039": " excep",
  "5040": "ep",
  "5041": " notable",
  "5042": " texts",
  "5043": " speak",
  "5044": " Kal",
  "5045": " adop",
  "5046": " polic",
  "5047": "elf",
  "5048": "are",
  "5049": " forests",
  "5050": "By",
  "5051": " administration",
  "5052": " rather",
  "5053": " assert",
  "5054": " refle",
  "5055": " Sang",
  "5056": " Sangam",
  "5057": " Cholas",
  "5058": " Ka",
  "5059": " Kaver",
  "5060": " Kaveri",
  "5061": " Pandyas",
  "5062": " Va",
  "5063": " six",
  "5064": " Pallavas",
  "5065": " conserv",
  "5066": "aced",
  "5067": " partic",
  "5068": " particular",
  "5069": " age",
  "5070": "600",
  "5071": " lands",
  "5072": "ditional",
  "5073": " classes",
  "5074": " resurg",
  "5075": "yal",
  "5076": " capital",
  "5077": " appe",
  "5078": " appear",
  "5079": " anoth",
  "5080": " another",
  "5081": " eff",
  "5082": "une",
  "5083": " merch",
  "5084": " sometim",
  "5085": " sometimes",
  "5086": "After",
  "5087": "-w",
  "5088": " event",
  "5089": "rup",
  "5090": " laws",
  "5091": " sav",
  "5092": " devast",
  "5093": "ening",
  "5094": " strong",
  "5095": " came",
  "5096": " then",
  "5097": "anced",
  "5098": " administra",
  "5099": " practices",
  "5100": " inclus",
  "5101": " Es",
  "5102": " tribal",
  "5103": " identi",
  "5104": " Akbar",
  "5105": "ung",
  "5106": "ms",
  "5107": " policies",
  "5108": " reven",
  "5109": " revenues",
  "5110": " enter",
  "5111": " textiles",
  "5112": "her",
  "5113": "puts",
  "5114": " coll",
  "5115": "abor",
  "5116": " recog",
  "5117": " late",
  "5118": " increasingly",
  "5119": " bl",
  "5120": " compan",
  "5121": " companies",
  "5122": " adv",
  "5123": " strength",
  "5124": " manu",
  "5125": " manuf",
  "5126": " goods",
  "5127": " Many",
  "5128": " severe",
  "5129": " having",
  "5130": "184",
  "5131": " Lord",
  "5132": " rail",
  "5133": " railw",
  "5134": " Europe",
  "5135": "ellion",
  "5136": " safe",
  "5137": "guard",
  "5138": "188",
  "5139": "ush",
  "5140": "alf",
  "5141": " marked",
  "5142": "mers",
  "5143": " fam",
  "5144": "ks",
  "5145": " industrial",
  "5146": " provided",
  "5147": "rid",
  "5148": "-operation",
  "5149": " decade",
  "5150": " particip",
  "5151": " Jamm",
  "5152": " Jammu",
  "5153": "theast",
  "5154": " territorial",
  "5155": "ustr",
  "5156": "ustrali",
  "5157": " supercontin",
  "5158": " crust",
  "5159": " Euras",
  "5160": "one",
  "5161": " sti",
  "5162": "ibet",
  "5163": "idly",
  "5164": " sediment",
  "5165": "-G",
  "5166": " makes",
  "5167": " Desert",
  "5168": " remaining",
  "5169": "ives",
  "5170": "pur",
  "5171": " Jharkhand",
  "5172": " Deccan",
  "5173": " flan",
  "5174": " contains",
  "5175": " Himalayan",
  "5176": " rivers",
  "5177": "anti",
  "5178": " Brahma",
  "5179": " Brahmaput",
  "5180": " Brahmaputra",
  "5181": " drain",
  "5182": "ort",
  "5183": " Kosi",
  "5184": " kilom",
  "5185": " kilomet",
  "5186": " kilometres",
  "5187": " bel",
  "5188": " belong",
  "5189": " consists",
  "5190": "43",
  "5191": " lat",
  "5192": " latter",
  "5193": "agos",
  "5194": "ivo",
  "5195": " summer",
  "5196": " simil",
  "5197": " moist",
  "5198": "aden",
  "5199": " cause",
  "5200": " present",
  "5201": " employed",
  "5202": "tri",
  "5203": " contain",
  "5204": " endemic",
  "5205": " mamm",
  "5206": " mammals",
  "5207": " plant",
  "5208": " displ",
  "5209": "ayed",
  "5210": "ught",
  "5211": " exchange",
  "5212": "till",
  "5213": "king",
  "5214": "45",
  "5215": " reptiles",
  "5216": "hibi",
  "5217": " threat",
  "5218": "ened",
  "5219": "tically",
  "5220": " recent",
  "5221": " respon",
  "5222": " added",
  "5223": " Bios",
  "5224": "sar",
  "5225": " Party",
  "5226": " right",
  "5227": " Jaw",
  "5228": " Jawa",
  "5229": " Jawahar",
  "5230": " Jawaharl",
  "5231": " Jawaharlal",
  "5232": " offic",
  "5233": " office",
  "5234": " chos",
  "5235": " chosen",
  "5236": " She",
  "5237": " defe",
  "5238": "content",
  "5239": " vo",
  "5240": " opp",
  "5241": "ji",
  "5242": " ministers",
  "5243": " retur",
  "5244": " oper",
  "5245": " Rajiv",
  "5246": " Front",
  "5247": " Chand",
  "5248": " minor",
  "5249": " governments",
  "5250": " follow",
  "5251": " Bi",
  "5252": "-C",
  "5253": "resident",
  "5254": " UPA",
  "5255": " Constituent",
  "5256": " Asse",
  "5257": " Assemb",
  "5258": " Assembly",
  "5259": " describ",
  "5260": "erci",
  "5261": " constitutional",
  "5262": " head",
  "5263": " elected",
  "5264": " representa",
  "5265": " village",
  "5266": "Ar",
  "5267": "fol",
  "5268": "folio",
  "5269": " subordin",
  "5270": " judi",
  "5271": " supre",
  "5272": " tri",
  "5273": " Ter",
  "5274": " Westmin",
  "5275": " Westmins",
  "5276": " Westminster",
  "5277": " bo",
  "5278": " becom",
  "5279": " becoming",
  "5280": " Non",
  "5281": " went",
  "5282": " Sovi",
  "5283": " test",
  "5284": " weap",
  "5285": " weapons",
  "5286": "round",
  "5287": " signed",
  "5288": "ither",
  "5289": " Treat",
  "5290": " Treaty",
  "5291": "-P",
  "5292": "crimin",
  "5293": " use",
  "5294": "redi",
  "5295": "Sin",
  "5296": " Col",
  "5297": " restric",
  "5298": " energy",
  "5299": "Econom",
  "5300": " domestic",
  "5301": " nation",
  "5302": "chas",
  "5303": " aver",
  "5304": " average",
  "5305": "mograph",
  "5306": "mographics",
  "5307": " fall",
  "5308": "ail",
  "5309": " regul",
  "5310": " trade",
  "5311": " calend",
  "5312": "uring",
  "5313": "�",
  "5314": "₹",
  "5315": ").\n",
  "5316": "reen",
  "5317": " gas",
  "5318": "62",
  "5319": "63",
  "5320": " residents",
  "5321": " report",
  "5322": "54",
  "5323": " where",
  "5324": " rati",
  "5325": " fem",
  "5326": " Fe",
  "5327": "ticide",
  "5328": " stu",
  "5329": "pped",
  "5330": "53",
  "5331": "abad",
  "5332": "anguages",
  "5333": " compromise",
  "5334": "ii",
  "5335": " formal",
  "5336": "cheduled",
  "5337": " oth",
  "5338": " others",
  "5339": " val",
  "5340": "annada",
  "5341": "ayal",
  "5342": "ayalam",
  "5343": "ipuri",
  "5344": "Relig",
  "5345": "after",
  "5346": " fre",
  "5347": "...",
  "5348": " express",
  "5349": " fa",
  "5350": " Ni",
  "5351": "82",
  "5352": "93",
  "5353": " schools",
  "5354": " Pri",
  "5355": "uber",
  "5356": "ubercul",
  "5357": "uberculos",
  "5358": "uberculosis",
  "5359": "HO",
  "5360": "140",
  "5361": " lab",
  "5362": " patri",
  "5363": " very",
  "5364": " marriages",
  "5365": "anged",
  "5366": " natal",
  "5367": " band",
  "5368": " influences",
  "5369": " style",
  "5370": "rana",
  "5371": "ple",
  "5372": " different",
  "5373": " sites",
  "5374": "anta",
  "5375": " bron",
  "5376": " manus",
  "5377": " manuscrip",
  "5378": " considera",
  "5379": " considerable",
  "5380": "day",
  "5381": " folk",
  "5382": " ver",
  "5383": " mathematical",
  "5384": " transmit",
  "5385": " transmitted",
  "5386": " contributions",
  "5387": " neg",
  "5388": " trig",
  "5389": " fun",
  "5390": " examp",
  "5391": " example",
  "5392": "rin",
  "5393": "vis",
  "5394": " instru",
  "5395": "ile",
  "5396": "az",
  "5397": " cine",
  "5398": " promin",
  "5399": "hau",
  "5400": " Pra",
  "5401": " Pradesh",
  "5402": "angra",
  "5403": " pi",
  "5404": " cloth",
  "5405": "ulder",
  "5406": "alwar",
  "5407": "amas",
  "5408": " kurta",
  "5409": " nar",
  "5410": " chur",
  "5411": " churid",
  "5412": " churidars",
  "5413": "tton",
  "5414": " je",
  "5415": " dish",
  "5416": " dishes",
  "5417": "isi",
  "5418": " hoc",
  "5419": " hockey",
  "5420": " Archived",
  "5421": " News",
  "5422": " Open",
  "5423": "గोల",
  "5424": "-పूర्వ",
  "5425": " మహాసాగ",
  "5426": " మహాసాగర",
  "5427": " మాలద",
  "5428": " మాలదीవ",
  "5429": " ఇండो",
  "5430": "ेశియా",
  "5431": "ुద",
  "5432": " సीమా",
  "5433": " బంగాల",
  "5434": " సమ्పूర्ణ",
  "5435": " తబ",
  "5436": " చुకी",
  "5437": " జैన",
  "5438": "ప्రారమ्భ",
  "5439": "ప्రారమ्భిక",
  "5440": " సామ्రాజ्యोం",
  "5441": " జన्మ",
  "5442": " భరా",
  "5443": " సेన",
  "5444": " సेనాఓం",
  "5445": " ఉత्త",
  "5446": " ఉత्తరी",
  "5447": " లగాత",
  "5448": " లగాతార",
  "5449": " అత्య",
  "5450": "ాచార",
  "5451": " అన्తతః",
  "5452": "గ्ర",
  "5453": "-ధी",
  "5454": "-ధीరे",
  "5455": " ఈస्ట",
  "5456": " జిసనे",
  "5457": "्రభ",
  "5458": "्రభु",
  "5459": " మజ",
  "5460": "బूత",
  "5461": " ప्రభావశాలी",
  "5462": "వాదी",
  "5463": " ఆంద",
  "5464": " ఆందोలన",
  "5465": " విరोధ",
  "5466": "ुత",
  "5467": "121",
  "5468": "76",
  "5469": " ప्రతి",
  "5470": " సాక",
  "5471": " సాక्షర",
  "5472": " సాక्షరతా",
  "5473": " పुరुషोం",
  "5474": " తेజ",
  "5475": " సूచ",
  "5476": " సूచనా",
  "5477": " సेవాఓం",
  "5478": "ेఖ",
  "5479": " ప्రగ",
  "5480": "ిల्మ",
  "5481": " శిక्షా",
  "5482": "ాది",
  "5483": " పరంపరాగత",
  "5484": " సంగమ",
  "5485": "త्తి",
  "5486": "వత",
  "5487": "ेవ",
  "5488": " భరత",
  "5489": " ఆంత",
  "5490": " ఆంతరిక",
  "5491": " ప्రకాశ",
  "5492": " హిన्దुస",
  "5493": " హిన्దुస्తాన",
  "5494": " భूమి",
  "5495": " ప्రచలిత",
  "5496": "ద्వीప",
  "5497": " ఘాటी",
  "5498": " శామ",
  "5499": " శామిల",
  "5500": "ంస",
  "5501": " ప्రాచीనతమ",
  "5502": "ానా",
  "5503": "థమ",
  "5504": " ఆతे",
  "5505": " మे",
  "5506": "గఢ఼",
  "5507": " ఆసప",
  "5508": " ఆసపాస",
  "5509": " నిర्భ",
  "5510": " నిర्భర",
  "5511": " శిల",
  "5512": " లौ",
  "5513": "ैదిక",
  "5514": "-పశ",
  "5515": "-పశ्చిమ",
  "5516": " అవధ",
  "5517": " అవధి",
  "5518": "ఛ",
  "5519": " సమ्మ",
  "5520": " జిన्హ",
  "5521": " ధర्మोం",
  "5522": " ఉద",
  "5523": " ఆయా",
  "5524": " ఆధారిత",
  "5525": " మధ्యమ",
  "5526": " ఛोడ఼కర",
  "5527": " సభी",
  "5528": " తीసరी",
  "5529": " అంద",
  "5530": " ఉభరా",
  "5531": " స्థాపిత",
  "5532": " క्షेత्రोం",
  "5533": "వी",
  "5534": "्రమ",
  "5535": " ఆగे",
  "5536": " సాహిత्య",
  "5537": " పాండ",
  "5538": "ोంనे",
  "5539": " చौ",
  "5540": " విజ्ఞాన",
  "5541": "ర्శన",
  "5542": " సాంస्కृతిక",
  "5543": "ुక",
  "5544": " చాహ",
  "5545": " శాసక",
  "5546": " పడ఼ా",
  "5547": " తुలనా",
  "5548": " బఢ఼నे",
  "5549": " బాం",
  "5550": " సామాన",
  "5551": " స्థానीయ",
  "5552": " హोనे",
  "5553": " పహలी",
  "5554": " బనాయా",
  "5555": "కల",
  "5556": " పुన",
  "5557": "మార",
  "5558": "ोడ",
  "5559": " సకతా",
  "5560": "ఠిత",
  "5561": " ఆకర्మ",
  "5562": " ఆకర्మణ",
  "5563": "ीక",
  "5564": "కారी",
  "5565": " గै",
  "5566": " గैర",
  "5567": "యం",
  "5568": " విశాల",
  "5569": "१७",
  "5570": " ఉఠ",
  "5571": " విద्ర",
  "5572": " విద्రोహ",
  "5573": " కరవ",
  "5574": " భారతीయोం",
  "5575": " యे",
  "5576": " బల",
  "5577": "ोలी",
  "5578": "ूట",
  "5579": " దర्జ",
  "5580": " అచ्ఛ",
  "5581": " హత्య",
  "5582": " హత्యా",
  "5583": " బोల",
  "5584": " సదी",
  "5585": "టల",
  "5586": "ोస",
  "5587": " ఫల",
  "5588": " అగస्త",
  "5589": "१९४",
  "5590": "२६",
  "5591": "-అ",
  "5592": "లగ",
  "5593": "నిర",
  "5594": "లా",
  "5595": " వికాసశीల",
  "5596": "ాయेం",
  "5597": " ఊపర",
  "5598": "ియాఈ",
  "5599": " గो",
  "5600": " హిస्సా",
  "5601": "ेశియ",
  "5602": "ఓ",
  "5603": " పఠ",
  "5604": " పఠార",
  "5605": " జానे",
  "5606": "ిశीల",
  "5607": " ఊఁచ",
  "5608": " ఊఁచాఈ",
  "5609": " పహాడ఼",
  "5610": "ాచల",
  "5611": " మीల",
  "5612": " ఫुట",
  "5613": " జిసకी",
  "5614": " నదియोం",
  "5615": "టी",
  "5616": " మిశ्ర",
  "5617": "ర्ధ",
  "5618": " అపे",
  "5619": " పహాడ఼ी",
  "5620": " సతపु",
  "5621": " సతపुడ఼ా",
  "5622": "దావ",
  "5623": "జల",
  "5624": " ఛహ",
  "5625": " కటిబంధीయ",
  "5626": " వర्ణన",
  "5627": " సకతे",
  "5628": " ఠ",
  "5629": " మహी",
  "5630": "४०",
  "5631": "రల",
  "5632": " ఇల",
  "5633": "రద",
  "5634": " అక्ట",
  "5635": " అక्టूబ",
  "5636": " అక्టूబర",
  "5637": " సాఫ",
  "5638": "లక",
  "5639": "ంగల",
  "5640": " లोకతాంత्రిక",
  "5641": " సరకారोం",
  "5642": " సంసదीయ",
  "5643": " జ఼्యాద",
  "5644": " కेంద्రीయ",
  "5645": "పంథ",
  "5646": "పంథी",
  "5647": " నరे",
  "5648": " మोదी",
  "5649": " పార्టియोం",
  "5650": " బడी",
  "5651": " మనమोహన",
  "5652": "న्ధ",
  "5653": " ఘोషిత",
  "5654": " జవ",
  "5655": " నेహరू",
  "5656": " పాఈ",
  "5657": "గी",
  "5658": " చలी",
  "5659": " మोర्చ",
  "5660": " పాఁచ",
  "5661": " చలాయా",
  "5662": " బననे",
  "5663": "దన",
  "5664": " సంచ",
  "5665": " ప्రదेశोం",
  "5666": " న्యాయపాలికా",
  "5667": " కార्యపాలికా",
  "5668": " లोకసభా",
  "5669": " విధి",
  "5670": " దूస",
  "5671": " సారी",
  "5672": " పాస",
  "5673": " నియुక्త",
  "5674": " స्థితి",
  "5675": "्శ",
  "5676": "నన",
  "5677": " గంగ",
  "5678": "ద्యప",
  "5679": "ద्యపి",
  "5680": " వాస्తవిక",
  "5681": " సौహార",
  "5682": " సौహార्ద",
  "5683": " రఖా",
  "5684": " ఇజ",
  "5685": "రాయ",
  "5686": "ిఏశ",
  "5687": "ిఏశన",
  "5688": " పुల",
  "5689": " పुలిస",
  "5690": " సेవా",
  "5691": " బैఠ",
  "5692": " బैఠక",
  "5693": " భాగीదారी",
  "5694": " సశస्త्ర",
  "5695": " వాయु",
  "5696": "ैనిక",
  "5697": " కమాండ",
  "5698": " కమాండర",
  "5699": "నియोం",
  "5700": " ఑పర",
  "5701": " ఑పరेశ",
  "5702": " ఑పరेశన",
  "5703": "ीతి",
  "5704": " సమఝौ",
  "5705": "డమ",
  "5706": "రికी",
  "5707": "ర्ట",
  "5708": " క्రయ",
  "5709": " అమे",
  "5710": " వृద्ధ",
  "5711": " వृద्ధి",
  "5712": " వర",
  "5713": "యర",
  "5714": "-ఇ",
  "5715": " చीఫ",
  "5716": " ఑ఫ",
  "5717": " స्టాఫ",
  "5718": " రామ",
  "5719": " పुర्తగాలी",
  "5720": "्రవ",
  "5721": " సిక",
  "5722": " నిర्యాత",
  "5723": " సమू",
  "5724": " సమूహ",
  "5725": "्రా",
  "5726": "ియो",
  "5727": "२५",
  "5728": "ीణ",
  "5729": " బహुమूల",
  "5730": " బహुమूల्య",
  "5731": " రత्న",
  "5732": " సంఖ्యా",
  "5733": " కప",
  "5734": "సాయ",
  "5735": "33",
  "5736": " జనగణ",
  "5737": " రాజస",
  "5738": " రాజస्థాన",
  "5739": "ాష्ట्ర",
  "5740": " అనुసू",
  "5741": " ఝార",
  "5742": " అసమ",
  "5743": " కామక",
  "5744": " కామకాజ",
  "5745": " రాజభాషా",
  "5746": " వజ",
  "5747": " కరे",
  "5748": " ధర",
  "5749": "ిభ",
  "5750": "భాగ",
  "5751": " ఈద",
  "5752": " ఓడ",
  "5753": "నాథ",
  "5754": " ఆన",
  "5755": "ेమా",
  "5756": " మలయ",
  "5757": "ంజన",
  "5758": " పస",
  "5759": "ాతో",
  "5760": " మొదటి",
  "5761": " స్థానంలో",
  "5762": " ప్రజాస్వామ్య",
  "5763": " పాలన",
  "5764": " సమాఖ",
  "5765": " సమాఖ్య",
  "5766": " ఒకటిగా",
  "5767": " ముఖ్యమైన",
  "5768": "ియాలో",
  "5769": " సముద",
  "5770": "తీ",
  "5771": " ఉపఖండ",
  "5772": "ుకొ",
  "5773": " వాణిజ్య",
  "5774": " పాకిస్తాన్",
  "5775": "ైనా",
  "5776": "ార్",
  "5777": " బంగ్ల",
  "5778": " బంగ్లాదేశ",
  "5779": " బంగ్లాదేశ్",
  "5780": " నేపాల",
  "5781": " ఆఫ్�",
  "5782": " ఆఫ్ఘ",
  "5783": "ిస్తాన్",
  "5784": " పంచ",
  "5785": " శ్రీ",
  "5786": "వులు",
  "5787": "గ్గ",
  "5788": " సింధు",
  "5789": " నాగరికత",
  "5790": " జన్మ",
  "5791": " బహుళ",
  "5792": " వైవిధ",
  "5793": "ిల్",
  "5794": " చైన",
  "5795": " ఒకే",
  "5796": "్ట్",
  "5797": " కంపెన",
  "5798": " పరిప",
  "5799": " పరిపాల",
  "5800": " కింద",
  "5801": "ైట",
  "5802": " గాంధ",
  "5803": " గాంధీ",
  "5804": " స్వతంత్ర",
  "5805": " దేశంగా",
  "5806": "ెట్",
  "5807": " అను",
  "5808": " వేగంగా",
  "5809": "ినీ",
  "5810": " నాలు",
  "5811": " నాలుగు",
  "5812": "చ్చు",
  "5813": " వీట",
  "5814": " వీటిలో",
  "5815": " జంబూ",
  "5816": "బడిన",
  "5817": " మే",
  "5818": " ప్రదేశ",
  "5819": " లే",
  "5820": " లేదా",
  "5821": " వచ్చిన",
  "5822": " రాజు",
  "5823": " మీ",
  "5824": "మారు",
  "5825": " హిందూదేశం",
  "5826": "ీషు",
  "5827": " పొంద",
  "5828": " గు",
  "5829": " గుర్త",
  "5830": "ింప",
  "5831": " ప్రాచీన",
  "5832": " మొట్ట",
  "5833": " మొట్టమ",
  "5834": " మొట్టమొ",
  "5835": " మొట్టమొదటి",
  "5836": " ఏర్పడ్డ",
  "5837": " క్ర",
  "5838": ".పూ",
  "5839": "దే",
  "5840": " సాంస్కృ",
  "5841": " సాంస్కృతిక",
  "5842": " చేసింది",
  "5843": "బడింది",
  "5844": "ాల్లో",
  "5845": "స్వ",
  "5846": "గోళ",
  "5847": " మొదలైన",
  "5848": " ఢిల్లీ",
  "5849": "ెట్ట",
  "5850": "్స్",
  "5851": " ఇంగ్ల",
  "5852": " వ్యాప",
  "5853": " వ్యాపార",
  "5854": " స్వాతంత్ర్య",
  "5855": " భాగం",
  "5856": " ఏర్పడ",
  "5857": "్సీ",
  "5858": "ులకు",
  "5859": " దేశానికి",
  "5860": " కారణంగా",
  "5861": " రాజ్యాంగ",
  "5862": " న్యాయ",
  "5863": "్యవస్థ",
  "5864": " నిర్వహణ",
  "5865": " ద్వారా",
  "5866": "ుతుంది",
  "5867": " రాష్ట్రాల",
  "5868": "తులు",
  "5869": "ేజ",
  "5870": " సంకీర్ణ",
  "5871": "బడ్డ",
  "5872": " మంత్ర",
  "5873": " ఉంటుంది",
  "5874": "చే",
  "5875": "భారతదేశపు",
  "5876": " వ్యవస్థలో",
  "5877": "ుకుంటారు",
  "5878": "ట్",
  "5879": " సూచ",
  "5880": " ఇవి",
  "5881": "క్షం",
  "5882": " దాదాప",
  "5883": "్ళ",
  "5884": "టీ",
  "5885": "ోత",
  "5886": " ఎన్నిక",
  "5887": " కలిస",
  "5888": "మై",
  "5889": "ల్లో",
  "5890": "ేష",
  "5891": " పేర్కొ",
  "5892": " నుంచి",
  "5893": " మతాలు",
  "5894": " కుల",
  "5895": " సంప్రదాయాలు",
  "5896": " కూడుకు",
  "5897": " మై",
  "5898": " పీ",
  "5899": " పీఠ",
  "5900": "ైప",
  "5901": "భారతదేశంలో",
  "5902": " కొన్ని",
  "5903": " ఉండ",
  "5904": "కొ",
  "5905": " కాశ",
  "5906": " కాశ్మ",
  "5907": " కాశ్మీ",
  "5908": " ప్రభుత్వం",
  "5909": " శాస్త్ర",
  "5910": " శాస్త్రీయ",
  "5911": "పడ",
  "5912": "ూల",
  "5913": " కంట",
  "5914": " తక్కువ",
  "5915": " పరిశ్రమలు",
  "5916": " సినిమాలు",
  "5917": "ళి",
  "5918": " పట్టణాలు",
  "5919": " కల్ప",
  "5920": " మంది",
  "5921": " రంగ",
  "5922": "ెర",
  "5923": "జనాభ",
  "5924": "జనాభా",
  "5925": " భిన్న",
  "5926": " వర్గ",
  "5927": " నగరాలు",
  "5928": " ముంబ",
  "5929": "వె",
  "5930": "వెనుక",
  "5931": "వెనుకటి",
  "5932": " పురుష",
  "5933": " కార్యక",
  "5934": " కార్యక్రమ",
  "5935": " జరు",
  "5936": " జరుప",
  "5937": " పండుగలు",
  "5938": " హిందీ",
  "5939": " తెలు",
  "5940": " తెలుగు",
  "5941": " కన్న",
  "5942": " కన్నడ",
  "5943": " తమిళం",
  "5944": "భారతదేశంలోని",
  "5945": "ఢిల్లీ",
  "5946": "ూరు",
  "5947": "ెన్న",
  "5948": " ప్రారం�",
  "5949": " ప్రారంభ",
  "5950": " రైల్వే",
  "5951": "ోర్",
  "5952": " ఇస్లామ",
  "5953": " ఇస్లామాబాద్",
  "5954": " పాకిస్థాన్",
  "5955": "‌ల",
  "5956": " దక్షిణాస",
  "5957": " దక్షిణాసియా",
  "5958": " సర్వీసులు",
  "5959": "ాలనే",
  "5960": " ప్రతిపాదన",
  "5961": " రైళ్లను",
  "5962": "మేన",
  "5963": "ిపు",
  "5964": " నిర్మ",
  "5965": "డ్డు",
  "5966": " గ్ర",
  "5967": " కేవల",
  "5968": " కేవలం",
  "5969": "ిద్ధి",
  "5970": "యాలు",
  "5971": " చాలా",
  "5972": " పరంగా",
  "5973": " భావ",
  "5974": " సాంప్రదాయిక",
  "5975": " సంగీత",
  "5976": " ఆహార",
  "5977": " ఒల",
  "5978": " పతకాలు",
  "5979": "ాల్",
  "5980": " క్యాల",
  "5981": " క్యాలెండ",
  "5982": " క్యాలెండర్",
  "5983": "ెలవ",
  "5984": "SB",
  "5985": "SBN",
  "5986": "‌సై",
  "5987": "‌సైటు",
  "5988": "timo",
  "5989": "igo",
  "5990": " golf",
  "5991": " golfo",
  "5992": " lín",
  "5993": "ea",
  "5994": " coster",
  "5995": " Banglad",
  "5996": " Bangladés",
  "5997": " cerca",
  "5998": " islas",
  "5999": "ueva",
  "6000": "ombay",
  "6001": " histó",
  "6002": " histórica",
  "6003": " rique",
  "6004": " comercial",
  "6005": " budismo",
  "6006": " jainismo",
  "6007": " islam",
  "6008": " forma",
  "6009": " anex",
  "6010": " principios",
  "6011": " Unido",
  "6012": " nación",
  "6013": " tras",
  "6014": " luch",
  "6015": " marcada",
  "6016": " violencia",
  "6017": " encab",
  "6018": " encabez",
  "6019": " ocho",
  "6020": " democracia",
  "6021": " económicas",
  "6022": " economías",
  "6023": " niveles",
  "6024": " pobreza",
  "6025": "abe",
  "6026": " derechos",
  "6027": " rico",
  "6028": " religioso",
  "6029": " diferentes",
  "6030": " Tratado",
  "6031": " mantener",
  "6032": " puest",
  "6033": "tig",
  "6034": " aire",
  "6035": " caracter",
  "6036": " actualmente",
  "6037": " cali",
  "6038": " rica",
  "6039": "ientes",
  "6040": " marat",
  "6041": "ología",
  "6042": " nombre",
  "6043": "iene",
  "6044": " (/",
  "6045": "ocen",
  "6046": " himno",
  "6047": " significa",
  "6048": " diversos",
  "6049": " ár",
  "6050": " árbol",
  "6051": " tigre",
  "6052": " primeros",
  "6053": " conocidos",
  "6054": "atan",
  "6055": " unos",
  "6056": " apar",
  "6057": " prueb",
  "6058": " pruebas",
  "6059": " construc",
  "6060": " construcción",
  "6061": "enamiento",
  "6062": " hoy",
  "6063": " desarroll",
  "6064": " flore",
  "6065": "rada",
  "6066": " basán",
  "6067": " basándose",
  "6068": "tió",
  "6069": " producción",
  "6070": " antiguas",
  "6071": " consideran",
  "6072": " creó",
  "6073": " campesinos",
  "6074": " ind",
  "6075": " agricultura",
  "6076": " finales",
  "6077": " alre",
  "6078": " alreded",
  "6079": " alrededor",
  "6080": " VI",
  "6081": " pequeños",
  "6082": " convirtieron",
  "6083": " adqu",
  "6084": " ense",
  "6085": " atra",
  "6086": " clas",
  "6087": " clases",
  "6088": " creci",
  "6089": "vieron",
  "6090": "olí",
  "6091": "ticamente",
  "6092": " ah",
  "6093": " ahora",
  "6094": "idional",
  "6095": " occidental",
  "6096": " afir",
  "6097": " impuest",
  "6098": " impuestos",
  "6099": " encon",
  "6100": " encontr",
  "6101": "rocin",
  "6102": "iencia",
  "6103": "má",
  "6104": " edad",
  "6105": " Cu",
  "6106": " Cuando",
  "6107": " expandi",
  "6108": " expandir",
  "6109": " expandirse",
  "6110": " der",
  "6111": " derro",
  "6112": " derrot",
  "6113": " tierras",
  "6114": " Durante",
  "6115": "cionales",
  "6116": " toda",
  "6117": " ciudadanos",
  "6118": " comenzaron",
  "6119": " partes",
  "6120": " otra",
  "6121": " efectos",
  "6122": " asiá",
  "6123": " muchos",
  "6124": " ellos",
  "6125": " textos",
  "6126": "ería",
  "6127": " finalmente",
  "6128": " condujo",
  "6129": "lám",
  "6130": " leyes",
  "6131": " costu",
  "6132": " costumb",
  "6133": " costumbres",
  "6134": " sold",
  "6135": " soldados",
  "6136": " llegó",
  "6137": " gobernantes",
  "6138": " nuev",
  "6139": " cambio",
  "6140": "ivas",
  "6141": "vit",
  "6142": " especialmente",
  "6143": " bien",
  "6144": " hici",
  "6145": " hicieron",
  "6146": " rela",
  "6147": " paz",
  "6148": " recientemente",
  "6149": " costas",
  "6150": "teg",
  "6151": "untos",
  "6152": " estos",
  "6153": " acces",
  "6154": " acceso",
  "6155": " económico",
  "6156": " refor",
  "6157": " reforma",
  "6158": " nomb",
  "6159": " vig",
  "6160": " rebe",
  "6161": " rebeli",
  "6162": " rebelión",
  "6163": " esti",
  "6164": " estilo",
  "6165": " tierra",
  "6166": " algun",
  "6167": " algunos",
  "6168": "iente",
  "6169": "bios",
  "6170": "unda",
  "6171": " mitad",
  "6172": " Hu",
  "6173": " hambrunas",
  "6174": " empleo",
  "6175": " canal",
  "6176": " alimentos",
  "6177": " situ",
  "6178": " situación",
  "6179": " permaneci",
  "6180": " periodi",
  "6181": " hacer",
  "6182": " británicos",
  "6183": " Dav",
  "6184": " Davis",
  "6185": " eran",
  "6186": " ella",
  "6187": " Guer",
  "6188": " Guerra",
  "6189": " aproxim",
  "6190": " aproximadamente",
  "6191": " millón",
  "6192": " cooperación",
  "6193": " legisla",
  "6194": " Todos",
  "6195": " democrá",
  "6196": " Cor",
  "6197": " Corte",
  "6198": " Supre",
  "6199": " Suprema",
  "6200": " influencia",
  "6201": " pel",
  "6202": " pelí",
  "6203": " películ",
  "6204": " películas",
  "6205": " logrado",
  "6206": " Consejo",
  "6207": " miembro",
  "6208": " directamente",
  "6209": " alta",
  "6210": " seis",
  "6211": " representando",
  "6212": " comunidad",
  "6213": " tribun",
  "6214": " tribunales",
  "6215": " debido",
  "6216": " Fr",
  "6217": " Frente",
  "6218": " iz",
  "6219": " izquierda",
  "6220": " ree",
  "6221": " reeleg",
  "6222": " reelegido",
  "6223": "dio",
  "6224": " concentración",
  "6225": " propiet",
  "6226": " respectivamente",
  "6227": " ON",
  "6228": " principal",
  "6229": " armadas",
  "6230": "asiá",
  "6231": "rama",
  "6232": "fera",
  "6233": " mantiene",
  "6234": " extran",
  "6235": " uso",
  "6236": "uerdo",
  "6237": "erech",
  "6238": "erechos",
  "6239": " medio",
  "6240": " Ley",
  "6241": " dividi",
  "6242": " geog",
  "6243": " alto",
  "6244": " ríos",
  "6245": " desi",
  "6246": " desierto",
  "6247": "ende",
  "6248": " cordilleras",
  "6249": " Estas",
  "6250": " occidentales",
  "6251": " extremos",
  "6252": "ecen",
  "6253": " pant",
  "6254": " dese",
  "6255": " desemb",
  "6256": " desemboc",
  "6257": " desembocan",
  "6258": " extremadamente",
  "6259": "áticos",
  "6260": "ña",
  "6261": " jun",
  "6262": " junio",
  "6263": " hú",
  "6264": " húmed",
  "6265": " húmedo",
  "6266": " presenta",
  "6267": " mam",
  "6268": " mamífer",
  "6269": " mamíferos",
  "6270": " aves",
  "6271": " cubi",
  "6272": " bosque",
  "6273": " ampliamente",
  "6274": "uchas",
  "6275": " mas",
  "6276": " ganado",
  "6277": " silvest",
  "6278": " silvestre",
  "6279": " mercado",
  "6280": " agu",
  "6281": " agua",
  "6282": " quím",
  "6283": " químicos",
  "6284": " petró",
  "6285": " petróle",
  "6286": " petróleo",
  "6287": " billones",
  "6288": " promedio",
  "6289": " aunque",
  "6290": "Según",
  "6291": ".​​\n\n",
  "6292": "atos",
  "6293": " barri",
  "6294": "chado",
  "6295": " Otr",
  "6296": " familias",
  "6297": "lengu",
  "6298": " clásicas",
  "6299": " télugu",
  "6300": " tradicional",
  "6301": "rimonio",
  "6302": " estil",
  "6303": " estilos",
  "6304": "estas",
  "6305": "portes",
  "6306": " deporte",
  "6307": " Jue",
  "6308": " Juegos",
  "6309": " Prem",
  "6310": "út",
  "6311": "útbol",
  "6312": " Archiv",
  "6313": " Archivado",
  "6314": " democracy",
  "6315": " Ocean",
  "6316": " southwest",
  "6317": " borders",
  "6318": " Nepal",
  "6319": "time",
  "6320": " Tha",
  "6321": " Thail",
  "6322": " Thailand",
  "6323": "Mo",
  "6324": "Modern",
  "6325": " humans",
  "6326": "rived",
  "6327": " occupation",
  "6328": " isolation",
  "6329": " hun",
  "6330": " hunter",
  "6331": "-gather",
  "6332": "-gatherers",
  "6333": " highly",
  "6334": "ett",
  "6335": "ettled",
  "6336": " evol",
  "6337": " archaic",
  "6338": " diff",
  "6339": " diffused",
  "6340": " hymn",
  "6341": " hymns",
  "6342": "exist",
  "6343": "existing",
  "6344": " suppl",
  "6345": " supplanted",
  "6346": " arisen",
  "6347": "laim",
  "6348": "laiming",
  "6349": " Early",
  "6350": "-kn",
  "6351": "-knit",
  "6352": " flour",
  "6353": " crea",
  "6354": " creativity",
  "6355": " untouchability",
  "6356": " exported",
  "6357": " Chr",
  "6358": " Chris",
  "6359": " Christian",
  "6360": " Christianity",
  "6361": " Zoroastri",
  "6362": " Zoroastrian",
  "6363": " Zoroastrianism",
  "6364": " coasts",
  "6365": "nd",
  "6366": " overran",
  "6367": " Sultanate",
  "6368": " drew",
  "6369": " network",
  "6370": "asting",
  "6371": "hered",
  "6372": " expansion",
  "6373": " relative",
  "6374": " peace",
  "6375": " expanding",
  "6376": " turned",
  "6377": "rown",
  "6378": " ideas",
  "6379": " nationalist",
  "6380": " nonviol",
  "6381": " nonviolent",
  "6382": " ending",
  "6383": " independent",
  "6384": "-major",
  "6385": "-majority",
  "6386": " dominion",
  "6387": "-scal",
  "6388": "-scale",
  "6389": "pre",
  "6390": " migration",
  "6391": " govern",
  "6392": " democratic",
  "6393": " multil",
  "6394": " multiling",
  "6395": "thn",
  "6396": "thnic",
  "6397": " income",
  "6398": " annually",
  "6399": "-grow",
  "6400": "-growing",
  "6401": " information",
  "6402": " neigh",
  "6403": " neighbo",
  "6404": " unres",
  "6405": " unresol",
  "6406": " unresolved",
  "6407": "-ec",
  "6408": "-econom",
  "6409": "-economic",
  "6410": "alleng",
  "6411": " gender",
  "6412": " child",
  "6413": " levels",
  "6414": " pollu",
  "6415": " pollution",
  "6416": " megadi",
  "6417": " megadiverse",
  "6418": " biodiversity",
  "6419": " hots",
  "6420": " hotspo",
  "6421": " hotspots",
  "6422": "wed",
  "6423": "Etym",
  "6424": "Etymolog",
  "6425": "Etymology",
  "6426": " immediately",
  "6427": " Cl",
  "6428": " Class",
  "6429": " Classical",
  "6430": "-de",
  "6431": " historical",
  "6432": "�",
  "6433": "Ἰ",
  "6434": "Ἰνδ",
  "6435": "ί",
  "6436": " Ancient",
  "6437": " Acha",
  "6438": " Achae",
  "6439": " Achaemen",
  "6440": " Old",
  "6441": " provin",
  "6442": " Sindh",
  "6443": " Sindhu",
  "6444": ",\"",
  "6445": "pecific",
  "6446": " Asians",
  "6447": "'.\n",
  "6448": "Bh",
  "6449": " [",
  "6450": "ˈb",
  "6451": "ˈb�",
  "6452": "ˈbʱ",
  "6453": "etry",
  "6454": " applied",
  "6455": " gained",
  "6456": "Hin",
  "6457": " mean",
  "6458": " meaning",
  "6459": "-day",
  "6460": " enti",
  "6461": "History",
  "6462": "Ancient",
  "6463": "ased",
  "6464": "och",
  "6465": " data",
  "6466": " anat",
  "6467": " anatom",
  "6468": " Homo",
  "6469": " sapiens",
  "6470": " vary",
  "6471": " only",
  "6472": "sil",
  "6473": "sils",
  "6474": "vidence",
  "6475": " Me",
  "6476": " Meh",
  "6477": " Mehr",
  "6478": " Mehrg",
  "6479": " Mehrgar",
  "6480": " Mehrgarh",
  "6481": "istan",
  "6482": "including",
  "6483": "mped",
  "6484": " cattle",
  "6485": " occurred",
  "6486": "250",
  "6487": " Harap",
  "6488": " Harappa",
  "6489": " Dh",
  "6490": " Dhol",
  "6491": " Dholavira",
  "6492": "iw",
  "6493": "akh",
  "6494": "igar",
  "6495": " characteristic",
  "6496": " included",
  "6497": " standar",
  "6498": " standardis",
  "6499": " standardised",
  "6500": " script",
  "6501": " works",
  "6502": " stat",
  "6503": "ettes",
  "6504": " Network",
  "6505": " towns",
  "6506": " villages",
  "6507": "astoral",
  "6508": " associated",
  "6509": " what",
  "6510": " nex",
  "6511": " next",
  "6512": " sw",
  "6513": "ested",
  "6514": " imple",
  "6515": " settle",
  "6516": " settlement",
  "6517": " involved",
  "6518": " ens",
  "6519": " creating",
  "6520": " family",
  "6521": "-di",
  "6522": "vide",
  "6523": " mainly",
  "6524": " chap",
  "6525": "ini",
  "6526": " oral",
  "6527": "tell",
  "6528": "pic",
  "6529": " contemp",
  "6530": " contempor",
  "6531": " forti",
  "6532": " fortified",
  "6533": " varna",
  "6534": "-mill",
  "6535": " ethical",
  "6536": " systems",
  "6537": " Mahavira",
  "6538": "-viol",
  "6539": "-violence",
  "6540": " sacri",
  "6541": "xed",
  "6542": " hereditary",
  "6543": " living",
  "6544": "ronic",
  "6545": " beg",
  "6546": " begin",
  "6547": " beginning",
  "6548": " beginnings",
  "6549": "dro",
  "6550": " geograph",
  "6551": " foun",
  "6552": " grand",
  "6553": " brief",
  "6554": " briefly",
  "6555": " hubs",
  "6556": " produced",
  "6557": " Fol",
  "6558": " Following",
  "6559": " adopted",
  "6560": " subsequently",
  "6561": " policy",
  "6562": " dh",
  "6563": " dhamma",
  "6564": "mission",
  "6565": " edi",
  "6566": " edict",
  "6567": " edicts",
  "6568": " promo",
  "6569": " welf",
  "6570": " welfare",
  "6571": " kill",
  "6572": "mental",
  "6573": " historians",
  "6574": " complex",
  "6575": " Plain",
  "6576": " model",
  "6577": " Guptas",
  "6578": " devotion",
  "6579": " rit",
  "6580": " ritual",
  "6581": " flowering",
  "6582": " literature",
  "6583": " reve",
  "6584": " peninsul",
  "6585": " ruled",
  "6586": " Cheras",
  "6587": " respective",
  "6588": " valley",
  "6589": " Sim",
  "6590": " Simultan",
  "6591": " Simultane",
  "6592": " Simultaneously",
  "6593": " gods",
  "6594": "akti",
  "6595": " extensively",
  "6596": "Medi",
  "6597": " able",
  "6598": "ently",
  "6599": " clear",
  "6600": " cleared",
  "6601": " make",
  "6602": " way",
  "6603": " ruling",
  "6604": " They",
  "6605": " imit",
  "6606": "yalty",
  "6607": " temples",
  "6608": " patron",
  "6609": " citiz",
  "6610": " citizens",
  "6611": " Temple",
  "6612": " vario",
  "6613": " various",
  "6614": " siz",
  "6615": "here",
  "6616": "went",
  "6617": " effec",
  "6618": " Laos",
  "6619": " Br",
  "6620": " Camb",
  "6621": " Cambo",
  "6622": " Viet",
  "6623": " Vietnam",
  "6624": "sia",
  "6625": " merchants",
  "6626": " semin",
  "6627": "aval",
  "6628": " united",
  "6629": "city",
  "6630": " repeated",
  "6631": " repeatedly",
  "6632": "-western",
  "6633": " eventually",
  "6634": " Islamic",
  "6635": " largely",
  "6636": " own",
  "6637": " cust",
  "6638": " custom",
  "6639": "ongol",
  "6640": " sc",
  "6641": " artist",
  "6642": " artists",
  "6643": " artisans",
  "6644": "cre",
  "6645": "iding",
  "6646": "haiv",
  "6647": " buil",
  "6648": " building",
  "6649": " portion",
  "6650": " rulers",
  "6651": "bil",
  "6652": " warri",
  "6653": " warriors",
  "6654": " did",
  "6655": "stead",
  "6656": " paci",
  "6657": "che",
  "6658": " bon",
  "6659": " bonds",
  "6660": "-f",
  "6661": " emperor",
  "6662": " taxes",
  "6663": "regul",
  "6664": " larger",
  "6665": " markets",
  "6666": " maintain",
  "6667": " literary",
  "6668": " coher",
  "6669": " groups",
  "6670": " Mar",
  "6671": "athas",
  "6672": " Rajputs",
  "6673": " Sikhs",
  "6674": " ambi",
  "6675": " advers",
  "6676": " exper",
  "6677": " commerce",
  "6678": " imperial",
  "6679": " faci",
  "6680": " facilit",
  "6681": " enab",
  "6682": " affa",
  "6683": " affair",
  "6684": " affairs",
  "6685": "—s",
  "6686": " presence",
  "6687": " coastal",
  "6688": "osts",
  "6689": " resour",
  "6690": " resources",
  "6691": " advanced",
  "6692": " company",
  "6693": "176",
  "6694": " side",
  "6695": " access",
  "6696": "182",
  "6697": " materi",
  "6698": " materials",
  "6699": " ons",
  "6700": " onset",
  "6701": " severely",
  "6702": "iled",
  "6703": " consci",
  "6704": " aren",
  "6705": " appoin",
  "6706": " Dalhous",
  "6707": " Dalhousie",
  "6708": "eneral",
  "6709": " ess",
  "6710": " essenti",
  "6711": " essential",
  "6712": " demar",
  "6713": " demarc",
  "6714": " railways",
  "6715": " introduc",
  "6716": " Dis",
  "6717": "ection",
  "6718": " percep",
  "6719": "-st",
  "6720": "-sty",
  "6721": "-style",
  "6722": " reforms",
  "6723": " princes",
  "6724": " rebellion",
  "6725": " Proc",
  "6726": " unitary",
  "6727": " limited",
  "6728": " feud",
  "6729": " feudal",
  "6730": " safeguard",
  "6731": " against",
  "6732": " half",
  "6733": " farmers",
  "6734": " depend",
  "6735": " dependent",
  "6736": " desp",
  "6737": "ucture",
  "6738": "orne",
  "6739": " generated",
  "6740": " cro",
  "6741": " food",
  "6742": " consump",
  "6743": " consumption",
  "6744": " cri",
  "6745": " relief",
  "6746": " self",
  "6747": "-r",
  "6748": "-co",
  "6749": " Mahat",
  "6750": " Mahatma",
  "6751": " victories",
  "6752": " II",
  "6753": " final",
  "6754": " push",
  "6755": " advent",
  "6756": " liberalisation",
  "6757": " transformed",
  "6758": " persist",
  "6759": " violence",
  "6760": "axal",
  "6761": " insur",
  "6762": " insurgen",
  "6763": " Northeast",
  "6764": "Geograph",
  "6765": "Geography",
  "6766": " acco",
  "6767": " accoun",
  "6768": " bul",
  "6769": " bulk",
  "6770": "ying",
  "6771": " tect",
  "6772": "onic",
  "6773": "-Australi",
  "6774": "-Australian",
  "6775": " geolog",
  "6776": " supercontinent",
  "6777": "-east",
  "6778": "af",
  "6779": " spreading",
  "6780": "-west",
  "6781": " Te",
  "6782": " obst",
  "6783": " she",
  "6784": "zon",
  "6785": " layer",
  "6786": " subduc",
  "6787": " Tibet",
  "6788": "ick",
  "6789": " rap",
  "6790": " rapidly",
  "6791": "-Gange",
  "6792": "-Gangetic",
  "6793": " abo",
  "6794": " above",
  "6795": " Araval",
  "6796": " Aravalli",
  "6797": " extend",
  "6798": " extends",
  "6799": " lies",
  "6800": " survives",
  "6801": " Sat",
  "6802": " Satp",
  "6803": " Satpura",
  "6804": " Vin",
  "6805": " Vindh",
  "6806": " Vindhya",
  "6807": " ranges",
  "6808": " chains",
  "6809": " Gujarat",
  "6810": " coal",
  "6811": " Cho",
  "6812": " Chota",
  "6813": " Nag",
  "6814": " Nagpur",
  "6815": " Eastern",
  "6816": " country's",
  "6817": " fash",
  "6818": "68",
  "6819": "97",
  "6820": "orig",
  "6821": "origin",
  "6822": " subst",
  "6823": " substanti",
  "6824": " substantially",
  "6825": " Yam",
  "6826": " Yamuna",
  "6827": " extreme",
  "6828": " extremely",
  "6829": " gradi",
  "6830": "osition",
  "6831": " prevent",
  "6832": " God",
  "6833": " Godav",
  "6834": " Godavari",
  "6835": " Mahana",
  "6836": " Mahanadi",
  "6837": " Kr",
  "6838": " Krish",
  "6839": " Krishn",
  "6840": " Narm",
  "6841": " Narmada",
  "6842": " Tap",
  "6843": " Tapti",
  "6844": " coastline",
  "6845": " meas",
  "6846": "517",
  "6847": " length",
  "6848": "94",
  "6849": " Laksh",
  "6850": " Lakshad",
  "6851": " Lakshadwe",
  "6852": " Lakshadweep",
  "6853": "graph",
  "6854": " shores",
  "6855": " marsh",
  "6856": " marshy",
  "6857": " Rann",
  "6858": " Kut",
  "6859": " Kutch",
  "6860": " Sund",
  "6861": " Sundar",
  "6862": " Sundarban",
  "6863": " Sundarbans",
  "6864": " delta",
  "6865": " shared",
  "6866": " coral",
  "6867": " atol",
  "6868": " volcan",
  "6869": "limate",
  "6870": " strongly",
  "6871": " winds",
  "6872": "eep",
  "6873": " loc",
  "6874": " similar",
  "6875": " latitudes",
  "6876": " role",
  "6877": "cting",
  "6878": " June",
  "6879": " Octo",
  "6880": " October",
  "6881": " climatic",
  "6882": " wet",
  "6883": " dry",
  "6884": " subtro",
  "6885": " subtropical",
  "6886": " hum",
  "6887": "tan",
  "6888": "atures",
  "6889": " °",
  "6890": " gl",
  "6891": " glaci",
  "6892": " proj",
  "6893": "ections",
  "6894": "Bio",
  "6895": "Biodiversity",
  "6896": " countri",
  "6897": " countries",
  "6898": " bi",
  "6899": "ological",
  "6900": " habitat",
  "6901": "tile",
  "6902": " fish",
  "6903": "aps",
  "6904": " endemism",
  "6905": " dense",
  "6906": " dens",
  "6907": " decidu",
  "6908": " deciduous",
  "6909": " thorn",
  "6910": " tre",
  "6911": " astr",
  "6912": "ux",
  "6913": "ision",
  "6914": " Eurasia",
  "6915": " Still",
  "6916": " zo",
  "6917": " zoog",
  "6918": "eographic",
  "6919": " pass",
  "6920": " vul",
  "6921": " threatened",
  "6922": "172",
  "6923": "-des",
  "6924": "hari",
  "6925": " extinct",
  "6926": " carri",
  "6927": " dic",
  "6928": " diclo",
  "6929": " diclof",
  "6930": " diclofen",
  "6931": " diclofenac",
  "6932": " open",
  "6933": " black",
  "6934": " blackb",
  "6935": " blackbuc",
  "6936": " blackbuck",
  "6937": " cheeta",
  "6938": " cheetah",
  "6939": " response",
  "6940": " Project",
  "6941": " amend",
  "6942": " amendments",
  "6943": " eigh",
  "6944": "phere",
  "6945": " Res",
  "6946": " Reserv",
  "6947": " Ramsar",
  "6948": "Poli",
  "6949": "Politics",
  "6950": " recogn",
  "6951": " parties",
  "6952": "gener",
  "6953": "\")",
  "6954": " Bharati",
  "6955": " Bharatiya",
  "6956": "BJP",
  "6957": " centre",
  "6958": " remained",
  "6959": " comfor",
  "6960": " comfort",
  "6961": " comfortable",
  "6962": " died",
  "6963": " Bah",
  "6964": " Shast",
  "6965": " Shastri",
  "6966": "akistan",
  "6967": " soon",
  "6968": " Pe",
  "6969": "lar",
  "6970": " declared",
  "6971": "ending",
  "6972": " Emerg",
  "6973": " Emergency",
  "6974": " voted",
  "6975": " lasted",
  "6976": "orar",
  "6977": " returned",
  "6978": " assass",
  "6979": " assassin",
  "6980": " assassinated",
  "6981": " suc",
  "6982": " alliance",
  "6983": " Chandra",
  "6984": " Lankan",
  "6985": " separati",
  "6986": " organisation",
  "6987": " intervention",
  "6988": " Naras",
  "6989": " Narasim",
  "6990": " Narasimha",
  "6991": " Ra",
  "6992": " Rao",
  "6993": "-y",
  "6994": "-year",
  "6995": " followed",
  "6996": " Vaj",
  "6997": " Vajpay",
  "6998": " Vajpayee",
  "6999": " short",
  "7000": " due",
  "7001": " lac",
  "7002": " Democra",
  "7003": " Democratic",
  "7004": " Alliance",
  "7005": "NDA",
  "7006": "-Cong",
  "7007": "-Congress",
  "7008": " NDA",
  "7009": " defeated",
  "7010": " Progres",
  "7011": "UPA",
  "7012": " Manmo",
  "7013": " Manmohan",
  "7014": " President",
  "7015": " Narend",
  "7016": " Narendra",
  "7017": " absol",
  "7018": " uncom",
  "7019": " uncommon",
  "7020": " Government",
  "7021": " fr",
  "7022": " frame",
  "7023": " framework",
  "7024": " exerci",
  "7025": " exercis",
  "7026": " legislature",
  "7027": " houses",
  "7028": " deleg",
  "7029": " delegates",
  "7030": " direc",
  "7031": "ayat",
  "7032": " commit",
  "7033": " committe",
  "7034": " il",
  "7035": "Artic",
  "7036": " distinc",
  "7037": " Common",
  "7038": " Commonwe",
  "7039": " Commonwealth",
  "7040": " president",
  "7041": " seats",
  "7042": " house",
  "7043": " vice",
  "7044": " Coun",
  "7045": "aded",
  "7046": "mented",
  "7047": "tier",
  "7048": " compr",
  "7049": " comprising",
  "7050": " supreme",
  "7051": "hief",
  "7052": " jurisdiction",
  "7053": " involving",
  "7054": " down",
  "7055": "vene",
  "7056": " any",
  "7057": " action",
  "7058": "cher",
  "7059": "cherry",
  "7060": " Cap",
  "7061": " Capital",
  "7062": " Territ",
  "7063": " Reor",
  "7064": " city",
  "7065": " blo",
  "7066": "Un",
  "7067": "Fore",
  "7068": "Foreign",
  "7069": " played",
  "7070": " wars",
  "7071": " close",
  "7072": " Soviet",
  "7073": " arms",
  "7074": " suppli",
  "7075": "Ch",
  "7076": "59",
  "7077": " produ",
  "7078": " produce",
  "7079": " additional",
  "7080": "-Pro",
  "7081": "-Prolifer",
  "7082": "-Proliferation",
  "7083": " discrimin",
  "7084": "atory",
  "7085": "terr",
  "7086": "ateg",
  "7087": " civilian",
  "7088": " agree",
  "7089": " rece",
  "7090": " International",
  "7091": " Ag",
  "7092": " Agency",
  "7093": " Rus",
  "7094": " Fran",
  "7095": " Can",
  "7096": "Economy",
  "7097": " economies",
  "7098": "PP",
  "7099": " annual",
  "7100": " exce",
  "7101": " historically",
  "7102": "ides",
  "7103": "idesp",
  "7104": "idespread",
  "7105": "side",
  "7106": " emph",
  "7107": " emphas",
  "7108": "lows",
  "7109": " Tra",
  "7110": " Organ",
  "7111": " Organiz",
  "7112": " Organization",
  "7113": " service",
  "7114": " highest",
  "7115": " contributed",
  "7116": "32",
  "7117": " sto",
  "7118": " nin",
  "7119": " ninth",
  "7120": " exporter",
  "7121": " several",
  "7122": " Some",
  "7123": "203",
  "7124": "passing",
  "7125": " includes",
  "7126": " manufact",
  "7127": " producer",
  "7128": " dem",
  "7129": " top",
  "7130": " biote",
  "7131": " biotech",
  "7132": " ₹",
  "7133": "Indi",
  "7134": "Indian",
  "7135": " gig",
  "7136": " gigaw",
  "7137": " gigawat",
  "7138": " gigawatts",
  "7139": " renewable",
  "7140": " green",
  "7141": " greenhous",
  "7142": " greenhouse",
  "7143": " emiss",
  "7144": " emissions",
  "7145": " carb",
  "7146": " Inc",
  "7147": " Increasing",
  "7148": " elect",
  "7149": "Demographics",
  "7150": "422",
  "7151": " brough",
  "7152": " brought",
  "7153": " decreasing",
  "7154": " prev",
  "7155": " post",
  "7156": "49",
  "7157": " live",
  "7158": " births",
  "7159": " whereas",
  "7160": "41",
  "7161": " according",
  "7162": " females",
  "7163": " males",
  "7164": " foe",
  "7165": " foeticide",
  "7166": " stud",
  "7167": " study",
  "7168": " dy",
  "7169": "27",
  "7170": "81",
  "7171": " Mu",
  "7172": " Mumb",
  "7173": " Mumbai",
  "7174": "Languages",
  "7175": " break",
  "7176": "down",
  "7177": " speakers",
  "7178": "adai",
  "7179": " sole",
  "7180": "fficial",
  "7181": " international",
  "7182": " numerals",
  "7183": " resol",
  "7184": " artic",
  "7185": " obl",
  "7186": " oblig",
  "7187": " Ur",
  "7188": " Urdu",
  "7189": "use",
  "7190": " scheduled",
  "7191": "arati",
  "7192": "miri",
  "7193": " Punjabi",
  "7194": "dhi",
  "7195": "onk",
  "7196": "onkani",
  "7197": "ithili",
  "7198": "ogri",
  "7199": " Sant",
  "7200": "Religion",
  "7201": " Hindus",
  "7202": " Muslims",
  "7203": " Iran",
  "7204": "'í",
  "7205": " (\"",
  "7206": " expression",
  "7207": "orshi",
  "7208": "orship",
  "7209": "79",
  "7210": "veral",
  "7211": "yi",
  "7212": " San",
  "7213": " percent",
  "7214": " percentage",
  "7215": " poin",
  "7216": " points",
  "7217": "91",
  "7218": " Bihar",
  "7219": "189",
  "7220": "ka",
  "7221": "191",
  "7222": " priv",
  "7223": " colleg",
  "7224": " colleges",
  "7225": " affir",
  "7226": "vant",
  "7227": "ealth",
  "7228": " tuberculosis",
  "7229": " pul",
  "7230": " dise",
  "7231": " disease",
  "7232": " breat",
  "7233": " breath",
  "7234": " breathing",
  "7235": " WHO",
  "7236": " limit",
  "7237": " smo",
  "7238": "Culture",
  "7239": "Al",
  "7240": " bott",
  "7241": " bottom",
  "7242": " therefore",
  "7243": "cast",
  "7244": "castes",
  "7245": " jatis",
  "7246": " endo",
  "7247": " endog",
  "7248": "amy",
  "7249": " marry",
  "7250": "aste",
  "7251": " formally",
  "7252": " related",
  "7253": " segreg",
  "7254": " parents",
  "7255": " divorce",
  "7256": " less",
  "7257": "ousand",
  "7258": " legal",
  "7259": " obs",
  "7260": " visit",
  "7261": " married",
  "7262": " reco",
  "7263": " usually",
  "7264": " carved",
  "7265": " seal",
  "7266": " excav",
  "7267": " excavated",
  "7268": " best",
  "7269": "irtu",
  "7270": " thereafter",
  "7271": " prob",
  "7272": " probably",
  "7273": "Over",
  "7274": " figure",
  "7275": " preci",
  "7276": " give",
  "7277": " Shiva",
  "7278": " either",
  "7279": " cut",
  "7280": " Aj",
  "7281": " Ajanta",
  "7282": " Kar",
  "7283": "lora",
  "7284": " generally",
  "7285": "iling",
  "7286": " artistic",
  "7287": " saw",
  "7288": " dominance",
  "7289": " Cav",
  "7290": " Caves",
  "7291": "800",
  "7292": " But",
  "7293": " bronz",
  "7294": " Nat",
  "7295": " paintings",
  "7296": "vive",
  "7297": " ple",
  "7298": " everyday",
  "7299": " Cal",
  "7300": " Calc",
  "7301": " Calcut",
  "7302": "Mat",
  "7303": "ba",
  "7304": " Ve",
  "7305": " Vedic",
  "7306": "yth",
  "7307": "agore",
  "7308": ".)",
  "7309": " orally",
  "7310": " manuscript",
  "7311": "abh",
  "7312": "arā",
  "7313": " mathematici",
  "7314": " mathematicians",
  "7315": " concep",
  "7316": " cosine",
  "7317": " series",
  "7318": " Hindustani",
  "7319": " Carna",
  "7320": " Carnatic",
  "7321": " improvis",
  "7322": " ele",
  "7323": " fil",
  "7324": " Modern",
  "7325": " pop",
  "7326": "Dance",
  "7327": " contex",
  "7328": " Aca",
  "7329": " Academ",
  "7330": " crit",
  "7331": " criter",
  "7332": " eight",
  "7333": " \n\n",
  "7334": "nat",
  "7335": "yam",
  "7336": "aras",
  "7337": " Chhau",
  "7338": " Odi",
  "7339": " Odisha",
  "7340": " Yaksh",
  "7341": " Yakshag",
  "7342": " Yakshagana",
  "7343": "dition",
  "7344": " Utt",
  "7345": " Uttar",
  "7346": " Nadu",
  "7347": " Nav",
  "7348": "divasi",
  "7349": "-cent",
  "7350": "-century",
  "7351": " asp",
  "7352": " Bollywood",
  "7353": " shoulder",
  "7354": " comb",
  "7355": "irt",
  "7356": "-body",
  "7357": " garment",
  "7358": "—co",
  "7359": " dho",
  "7360": " dhoti",
  "7361": " shalwar",
  "7362": "yj",
  "7363": "yjamas",
  "7364": " tun",
  "7365": "yp",
  "7366": "ypically",
  "7367": " narrow",
  "7368": " pants",
  "7369": "ams",
  "7370": " occas",
  "7371": " occasions",
  "7372": " sports",
  "7373": " jack",
  "7374": " jackets",
  "7375": " groom",
  "7376": " sport",
  "7377": "wan",
  "7378": "isine",
  "7379": " cere",
  "7380": " cereal",
  "7381": " savo",
  "7382": " savoury",
  "7383": " steam",
  "7384": " steamed",
  "7385": " bread",
  "7386": "ake",
  "7387": " spic",
  "7388": " garlic",
  "7389": " vegetarian",
  "7390": " feature",
  "7391": " techni",
  "7392": " simple",
  "7393": " marina",
  "7394": " partially",
  "7395": " conce",
  "7396": " tandoori",
  "7397": " tandoor",
  "7398": " kabad",
  "7399": " kabaddi",
  "7400": " gill",
  "7401": " gilli",
  "7402": "-dand",
  "7403": "-danda",
  "7404": " adi",
  "7405": " Chess",
  "7406": " Champ",
  "7407": "ricket",
  "7408": " Cup",
  "7409": " Cups",
  "7410": " fiel",
  "7411": " med",
  "7412": "Re",
  "7413": "Refer",
  "7414": "Bi",
  "7415": "Bibl",
  "7416": "Biblio",
  "7417": " Dire",
  "7418": " Direct",
  "7419": " Directory",
  "7420": " Gov",
  "7421": "Pu",
  "7422": "Pubs",
  "7423": " Lib",
  "7424": " Libr",
  "7425": " Libraries",
  "7426": " BB",
  "7427": " BBC",
  "7428": " Atlas",
  "7429": "Stre",
  "7430": "Street",
  "7431": "Map",
  "7432": " లిప",
  "7433": " రిప",
  "7434": " ఇణ्డ",
  "7435": " ఇణ्డియా",
  "7436": "వాఁ",
  "7437": "గాన",
  "7438": " నेపాల",
  "7439": " బాంగ",
  "7440": " బాంగ्ల",
  "7441": " బాంగ्లాద",
  "7442": " బాంగ्లాదेశ",
  "7443": " మ्య",
  "7444": " ఇండोన",
  "7445": " ఇండोనेశియా",
  "7446": "ాడ఼ी",
  "7447": " యహాం",
  "7448": "ेద",
  "7449": " బे",
  "7450": "సిన",
  "7451": "ुగ",
  "7452": " ఈసాఈ",
  "7453": " యహू",
  "7454": " యహूదी",
  "7455": " పారసी",
  "7456": " తటोం",
  "7457": " మैదానोం",
  "7458": " మధ्యకాల",
  "7459": " విజయన",
  "7460": " విజయనగర",
  "7461": " చలనे",
  "7462": " సిఖ",
  "7463": "నివ",
  "7464": "నివेశ",
  "7465": " సమ्ప्రభु",
  "7466": "१८५",
  "7467": " జిసे",
  "7468": "्వोం",
  "7469": " విభాజిత",
  "7470": " అధిర",
  "7471": " అధిరాజ्య",
  "7472": "245",
  "7473": " ఏవమ",
  "7474": " మహిల",
  "7475": " తेజ఼ी",
  "7476": " ఉల",
  "7477": " అద",
  "7478": " ప्రగతి",
  "7479": " ఫ఼",
  "7480": "्మిక",
  "7481": " వै",
  "7482": "శ्వ",
  "7483": "ాతी",
  "7484": " గ఼",
  "7485": " గ఼రी",
  "7486": " గ఼రीబी",
  "7487": " రఖనे",
  "7488": " వాలా",
  "7489": "-చ",
  "7490": "-చीన",
  "7491": " బాల",
  "7492": "ोషణ",
  "7493": "ష्ట",
  "7494": "షణ",
  "7495": " ఇత्య",
  "7496": " ఇత्యాది",
  "7497": " సామనे",
  "7498": " జంగ",
  "7499": " జంగలोం",
  "7500": " జగ",
  "7501": " జగహ",
  "7502": " సం",
  "7503": "రక्ష",
  "7504": " మహాత्మ",
  "7505": " మహాత्మా",
  "7506": " గాఁ",
  "7507": " త्ర",
  "7508": "|\n\n",
  "7509": "నామ",
  "7510": "्పత्తి",
  "7511": " నదी",
  "7512": "ఇండ",
  "7513": " వర्ణిత",
  "7514": "దेవ",
  "7515": " బेట",
  "7516": " బेటे",
  "7517": " సమ्ర",
  "7518": " సమ्రాట",
  "7519": "భా",
  "7520": " శబ",
  "7521": " శబ्ద",
  "7522": "లబ",
  "7523": "ిడ఼",
  "7524": " మహాభ",
  "7525": " మహాభారత",
  "7526": " అన्తర्గ",
  "7527": " అన्తర्గత",
  "7528": " నామोం",
  "7529": " భారతవర्ష",
  "7530": " ఆర्య",
  "7531": "ావర्త",
  "7532": "ప्రాచीన",
  "7533": " సంగ्ర",
  "7534": " సంగ्రామ",
  "7535": " మహత",
  "7536": " మహత्వ",
  "7537": " మహత्వపूర्ణ",
  "7538": " పुరానా",
  "7539": " ప्రమాణ",
  "7540": " దेఖనे",
  "7541": " ప्రథమ",
  "7542": " స्థాఈ",
  "7543": "రुప",
  "7544": "రोం",
  "7545": " చరమ",
  "7546": " శహరोం",
  "7547": " ఉత्పాదన",
  "7548": " జु",
  "7549": " జुడ఼",
  "7550": " గ्ర",
  "7551": "దोం",
  "7552": "వैదిక",
  "7553": " కुలीన",
  "7554": "ాహी",
  "7555": " సమ्మిల",
  "7556": " సమ्మిలిత",
  "7557": " జిన्హे",
  "7558": "నప",
  "7559": " శహరीకరణ",
  "7560": " ఉదయ",
  "7561": "ిత्వ",
  "7562": "ुద्ధ",
  "7563": " అనु",
  "7564": " ఆకర्ష",
  "7565": " ఆకర्షిత",
  "7566": " త्య",
  "7567": " ఆద",
  "7568": " ఆదర्శ",
  "7569": " మగ",
  "7570": " మగధ",
  "7571": " అందర",
  "7572": " హిస्సोం",
  "7573": "ిపత्య",
  "7574": " రాజాఓం",
  "7575": " సతర",
  "7576": " క्య",
  "7577": " క्యो",
  "7578": " క्యोంక",
  "7579": " క्యोంకి",
  "7580": " అశोక",
  "7581": " ఆక्రమ",
  "7582": " ఆక्రమణ",
  "7583": " జినకे",
  "7584": " యूన",
  "7585": "ానी",
  "7586": " కహల",
  "7587": " ప्రాయ",
  "7588": " ప्రాయద्వीప",
  "7589": " చोల",
  "7590": " చौథ",
  "7591": "హద",
  "7592": " నిర्ధ",
  "7593": " భక्తి",
  "7594": " ప्రచలన",
  "7595": " కలా",
  "7596": " గణిత",
  "7597": "మధ",
  "7598": "१२०",
  "7599": " ఉత्థాన",
  "7600": " కన्న",
  "7601": "క्క",
  "7602": " చాలुక",
  "7603": " చాలुక्యोం",
  "7604": " హరా",
  "7605": " హార",
  "7606": " పరాజ",
  "7607": " ఉనకా",
  "7608": " సక्ష",
  "7609": " సక्షమ",
  "7610": " దुస",
  "7611": " జారी",
  "7612": " నయे",
  "7613": " బాంట",
  "7614": " సామాన्య",
  "7615": "కोం",
  "7616": " ఇసనे",
  "7617": "ैండ",
  "7618": " పैమ",
  "7619": " పैమానे",
  "7620": "ివాజ",
  "7621": "१३",
  "7622": " విన",
  "7623": " ప्రశ",
  "7624": " మజబूత",
  "7625": " పరంపరా",
  "7626": " ప्రభావిత",
  "7627": " పुర्తగాల",
  "7628": " సహిత",
  "7629": " ఉన्హ",
  "7630": " ఉన्హोంనे",
  "7631": " ఫాయ",
  "7632": " ఫాయదా",
  "7633": " ఉఠాయా",
  "7634": " హాలాం",
  "7635": " హాలాంకి",
  "7636": " అంగ्రेజोం",
  "7637": " ఆఏ",
  "7638": " కరవానे",
  "7639": "ాకర",
  "7640": "జोర",
  "7641": " కామయ",
  "7642": " కామయాబ",
  "7643": " దेవ",
  "7644": " దेతे",
  "7645": " అశాంతి",
  "7646": " ఫैల",
  "7647": " వాద",
  "7648": " నीచ",
  "7649": " విభాజన",
  "7650": " వాలोం",
  "7651": " మాతా",
  "7652": " ఫిర",
  "7653": "ुఓం",
  "7654": " దेఖो",
  "7655": " ఆపకे",
  "7656": " భాఈ",
  "7657": " దेఖతे",
  "7658": " అసఫల",
  "7659": " స्వతన",
  "7660": " స्వతన्త्ర",
  "7661": " స्వతన्త्రతా",
  "7662": " అధికాం",
  "7663": " అధికాంశ",
  "7664": " నియంత्రణ",
  "7665": "ఆధ",
  "7666": "ఆధुనిక",
  "7667": "బीస",
  "7668": " పరిస",
  "7669": " స्వరूప",
  "7670": "మ्బे",
  "7671": " ప्రాప्తి",
  "7672": " అహింసావ",
  "7673": " అహింసావాదी",
  "7674": " చలా",
  "7675": " నेతृత्",
  "7676": "‍వ",
  "7677": "రాష्ట्ర",
  "7678": " సంబ",
  "7679": " సంబोధ",
  "7680": " సంబोధిత",
  "7681": "ివాదी",
  "7682": " బాబ",
  "7683": " నిర्మాతా",
  "7684": " మస",
  "7685": "గత",
  "7686": " పूర्ణ",
  "7687": " బహु�",
  "7688": "-సమ",
  "7689": "-సమయ",
  "7690": "्ప्ర",
  "7691": " శికార",
  "7692": " ధర्మనిర",
  "7693": " ధర्మనిరపेక्ష",
  "7694": " జనతాంత्రిక",
  "7695": " తత",
  "7696": " తత्క",
  "7697": " తత्కాల",
  "7698": " తత्కాలीన",
  "7699": " ఆపాత",
  "7700": " ఆపాతకాల",
  "7701": " అక्ష",
  "7702": " అక्షु",
  "7703": " అక्షुణ्�",
  "7704": " అక्షुణ्ణ",
  "7705": " రాష्ట्రोం",
  "7706": "మానोం",
  "7707": " సామనా",
  "7708": "ాఇయ",
  "7709": "ాపక",
  "7710": " గయे",
  "7711": " సूచी",
  "7712": "-ఆక",
  "7713": "ఖణ्డ",
  "7714": " గोండ",
  "7715": " అంటార",
  "7716": "्కట",
  "7717": "्కటికా",
  "7718": " సेమी",
  "7719": " యूరेశ",
  "7720": " యूరेశియన",
  "7721": " అవసాద",
  "7722": " తి�",
  "7723": "्బ",
  "7724": " సిన्ధ",
  "7725": " సిన्ధु",
  "7726": "-గంగా",
  "7727": "./",
  "7728": " గతిశीల",
  "7729": " పర्వతమ",
  "7730": " పర्వతమాల",
  "7731": " పర्వతమాలా",
  "7732": " పర्వతశ",
  "7733": " పర्వతశ्రे",
  "7734": " పర्వతశ्రेణी",
  "7735": " సంసార",
  "7736": " చोట",
  "7737": "०००",
  "7738": "స्ట",
  "7739": "२९",
  "7740": "२८",
  "7741": " బ्రహ",
  "7742": " బ्రహ्మ",
  "7743": " బ्రహ्మపु",
  "7744": " బ्రహ्మపुత्ర",
  "7745": "ాలిక",
  "7746": " ప्రవ",
  "7747": " పेట",
  "7748": " కంక",
  "7749": " కంకడ",
  "7750": " మిశ्రిత",
  "7751": " భాబ",
  "7752": " భాబర",
  "7753": " తరాఈ",
  "7754": " దల",
  "7755": " నవीన",
  "7756": " పुరానे",
  "7757": " బా�",
  "7758": " బాఢ",
  "7759": " బాఢ఼",
  "7760": " కహीం",
  "7761": "ूనे",
  "7762": " నఈ",
  "7763": " కడ఼",
  "7764": " కాయ",
  "7765": " విం�",
  "7766": " వింధ",
  "7767": " వింధ्య",
  "7768": " వింధ्యాచల",
  "7769": " పహాడ఼ియాఁ",
  "7770": " నర्మ",
  "7771": " నర्మదా",
  "7772": " బహతी",
  "7773": " మै",
  "7774": " కినార",
  "7775": " కినారे",
  "7776": "కोప",
  "7777": "కोపेన",
  "7778": " వర्గीకరణ",
  "7779": " విశిష",
  "7780": " ఉష्ణ",
  "7781": " అల्ప",
  "7782": " జैసी",
  "7783": "ोత्తర",
  "7784": " శुష्క",
  "7785": "అల",
  "7786": "ర्ద",
  "7787": "ఉష्ణ",
  "7788": "శुష्క",
  "7789": "्థల",
  "7790": " మానी",
  "7791": " పరన",
  "7792": " పరన्తु",
  "7793": " మौసమ",
  "7794": " విభాగ",
  "7795": "ాత्మ",
  "7796": "ాత्మక",
  "7797": " నిమ्నవత",
  "7798": " లిఖ",
  "7799": ":\n",
  "7800": " దిస",
  "7801": " దిసంబర",
  "7802": " మహीనे",
  "7803": " ఔస",
  "7804": " ఔసత",
  "7805": " తాప",
  "7806": " తాపమాన",
  "7807": " డిగ",
  "7808": " డిగ्రी",
  "7809": " సेల",
  "7810": " సेల्స",
  "7811": " సेల्సియ",
  "7812": " సेల्సియస",
  "7813": "-mon",
  "7814": "-monsoon",
  "7815": "३२",
  "7816": " సిత",
  "7817": " వర्షా",
  "7818": " వస्త",
  "7819": "టనా",
  "7820": " ఇనకా",
  "7821": " క्రమశ",
  "7822": " క्రమశః",
  "7823": "శరద",
  "7824": " సాఫ఼",
  "7825": " శాంత",
  "7826": " తమిలనాడ",
  "7827": " తమిలనాడु",
  "7828": " మुమ्బ",
  "7829": " మुమ्బఈ",
  "7830": "ంఖ",
  "7831": "రాజనी",
  "7832": "రాజనीతి",
  "7833": " లोకత",
  "7834": " శక्తియोం",
  "7835": " వాలे",
  "7836": " మాన्యతా",
  "7837": "-ప्ర",
  "7838": " పార्టియాం",
  "7839": " జ఼्యాదా",
  "7840": "భాజపా",
  "7841": " నीత",
  "7842": "-ద",
  "7843": " నరेంద्ర",
  "7844": "ామపంథी",
  "7845": " దौర",
  "7846": "५२",
  "7847": " జవాహ",
  "7848": " జవాహరల",
  "7849": " జవాహరలాల",
  "7850": " మृత्య",
  "7851": " మृత्యु",
  "7852": "्త्రी",
  "7853": " బనीం",
  "7854": " పడ",
  "7855": "ాజ఼",
  "7856": "గఠిత",
  "7857": " కेబ",
  "7858": " మంత्రी",
  "7859": " మोర्చా",
  "7860": " పరంత",
  "7861": " పరంతु",
  "7862": "రస",
  "7863": "మత",
  "7864": " వక्త",
  "7865": " ఆఈ",
  "7866": " నా",
  "7867": " బిహ",
  "7868": "డीఏ",
  "7869": " ఐసी",
  "7870": " ఉభరी",
  "7871": " యूప",
  "7872": " యूపी",
  "7873": " యूపीఏ",
  "7874": " నయా",
  "7875": "కॉ",
  "7876": " ఐసे",
  "7877": " అవసర",
  "7878": "సర",
  "7879": "्టర",
  "7880": " శैలी",
  "7881": " సంచాల",
  "7882": " సంచాలిత",
  "7883": "చे",
  "7884": " రूపరे",
  "7885": " రूపరेఖ",
  "7886": " రूపరेఖా",
  "7887": " సరకారी",
  "7888": " ఢాఁచ",
  "7889": " ఢాఁచా",
  "7890": "మి",
  "7891": "-ఫ఼",
  "7892": "ेడेర",
  "7893": "ेడेరల",
  "7894": "ాయికా",
  "7895": " సదన",
  "7896": "సదన",
  "7897": " అథ",
  "7898": " అథవ",
  "7899": " అథవా",
  "7900": "५४",
  "7901": "ాతర",
  "7902": "యన",
  "7903": " విధాన",
  "7904": " దूసరे",
  "7905": " సభా",
  "7906": "దాన",
  "7907": " నియुక्తి",
  "7908": " రాష्ట्రపతి",
  "7909": " ప्రావ",
  "7910": " ప्రావధాన",
  "7911": " యोగ",
  "7912": " యोగ्య",
  "7913": " అనివ",
  "7914": " అనివార",
  "7915": " అనివార्య",
  "7916": " ఉత्తరదాయ",
  "7917": " ప्రధాన",
  "7918": " న्యాయాధికార",
  "7919": "ిజిన",
  "7920": "्శన",
  "7921": " న्యాయాలయोం",
  "7922": "నो",
  "7923": "లిక",
  "7924": " హనన",
  "7925": " ఇలావా",
  "7926": " కాన",
  "7927": " అపेక्షా",
  "7928": "మిత",
  "7929": " కेన्ద्రశాసిత",
  "7930": "త्రी",
  "7931": " యద्యపి",
  "7932": " కेంద्రశాసిత",
  "7933": " దాదరా",
  "7934": " హవ",
  "7935": " హవेలी",
  "7936": " దమన",
  "7937": " ద्వीప",
  "7938": " సौహార्దపूర्ణ",
  "7939": " బనాఏ",
  "7940": " గुట",
  "7941": " నిరపेక्ష",
  "7942": " అగ्ర",
  "7943": " అగ्రణी",
  "7944": " సంక्ష",
  "7945": " సంక्షిప",
  "7946": " సంక्షిప्త",
  "7947": " హస्తక्ష",
  "7948": " హస्తక्షे",
  "7949": " హస्తక्షेప",
  "7950": " యुద्ధोం",
  "7951": " బఢ఼ोత",
  "7952": " ఆపू",
  "7953": " ఆపूర्త",
  "7954": " ఆపूర्తిక",
  "7955": " ఆపूర्తికర्త",
  "7956": " ఆపूర्తికర्తా",
  "7957": " ఇజరాయ",
  "7958": " ఇజరాయల",
  "7959": " సంగఠ",
  "7960": " సంగఠన",
  "7961": " ఏశియాఈ",
  "7962": " ఏస",
  "7963": " ఏసोస",
  "7964": " ఏసोసిఏశన",
  "7965": " కర्మ",
  "7966": " కర्మియोం",
  "7967": " మహాద्వीప",
  "7968": " మహాద्వीపोం",
  "7969": " భర",
  "7970": " పैంత",
  "7971": " పैంతीస",
  "7972": " అభియానोం",
  "7973": " బహुప",
  "7974": " బహुపక्ష",
  "7975": " బహुపక्షीయ",
  "7976": " మంచ",
  "7977": " మంచोం",
  "7978": " ఖాస",
  "7979": " ఖాసకర",
  "7980": " శిఖ",
  "7981": " శిఖర",
  "7982": " ఘన",
  "7983": " ఘనిష्ఠ",
  "7984": "లగభగ",
  "7985": " సैనిక",
  "7986": " సैనికोం",
  "7987": " బలोం",
  "7988": " జ्యాద",
  "7989": " నीతి",
  "7990": " మुద",
  "7991": " జాప",
  "7992": " జాపాన",
  "7993": "రియా",
  "7994": " మద",
  "7995": " నివेశ",
  "7996": "హాల",
  "7997": " అసैనిక",
  "7998": " సమఝौతे",
  "7999": " హస्తాక",
  "8000": " హస्తాక्షర",
  "8001": " సంధి",
  "8002": " ఊర्జ",
  "8003": " ఊర्జా",
  "8004": "ఏస",
  "8005": "ఏసజी",
  "8006": " ఛूట",
  "8007": " కింగ",
  "8008": "విత",
  "8009": " కेన्ద्రीయ",
  "8010": " ఆవంట",
  "8011": " రूపఏ",
  "8012": " రాశ",
  "8013": " రాశి",
  "8014": " సకల",
  "8015": " ఘరे",
  "8016": " ఘరेల",
  "8017": " ఘరेలू",
  "8018": " SI",
  "8019": "ोర्ట",
  "8020": " మామలे",
  "8021": " అమेరికी",
  "8022": " వార्ష",
  "8023": " వార्షిక",
  "8024": " పैస",
  "8025": " ఆయాతక",
  "8026": " అంతిమ",
  "8027": " రै",
  "8028": " రैంక",
  "8029": " “",
  "8030": "”",
  "8031": " ఉపాధ",
  "8032": " దిఏ",
  "8033": " అపన",
  "8034": " రియ",
  "8035": " రియాస",
  "8036": " రియాసత",
  "8037": " రియాసతोం",
  "8038": " శेష",
  "8039": " అధికారी",
  "8040": " వరిష्ఠ",
  "8041": " వాయुసेనా",
  "8042": "-ఇన",
  "8043": "-చी",
  "8044": "-చीఫ",
  "8045": "ియమ",
  "8046": " గोవ",
  "8047": " గोవా",
  "8048": " బఢ఼ా",
  "8049": " ప्రదర्శన",
  "8050": " కార्రవ",
  "8051": " కార्రవాఈ",
  "8052": " సియ",
  "8053": " సియాచ",
  "8054": " సియాచిన",
  "8055": " గ्ల",
  "8056": " గ्లेశియ",
  "8057": " గ्లेశియర",
  "8058": " పత्ర",
  "8059": "నेట",
  "8060": " కంపనియोం",
  "8061": " సాఝ",
  "8062": " సాఝे",
  "8063": " సాఝेదారी",
  "8064": " లడ఼ాక",
  "8065": " లడ఼ాకू",
  "8066": "ॉక",
  "8067": "ीడ",
  "8068": "१६",
  "8069": " టी",
  "8070": " దస",
  "8071": "వेం",
  "8072": " క्రయశ",
  "8073": " క्రయశక्తి",
  "8074": " తीసరे",
  "8075": " తीవ",
  "8076": " తीవ्ర",
  "8077": " ప्రతివ",
  "8078": " మాత्ర",
  "8079": " బैంక",
  "8080": " మధ्యమవ",
  "8081": " మధ्యమవర्గ",
  "8082": " సुధార",
  "8083": "డीపी",
  "8084": "्టవ",
  "8085": "्టవे",
  "8086": "्టవेయర",
  "8087": " లఘ",
  "8088": " నాగరికोం",
  "8089": " ఆనे",
  "8090": " ఆవశ",
  "8091": " ఆవశ्య",
  "8092": " ఆవశ्యక",
  "8093": " స्ర",
  "8094": " స्రोత",
  "8095": "గార",
  "8096": " దेతా",
  "8097": " కరोడ",
  "8098": " అమరीకా",
  "8099": " రసాయ",
  "8100": " రసాయన",
  "8101": " తेల",
  "8102": " మశ",
  "8103": " మశीన",
  "8104": "జ఼",
  "8105": "ిసమ",
  "8106": "కాలిక",
  "8107": "కुల",
  "8108": "‍య",
  "8109": "१४",
  "8110": " స्త्ర",
  "8111": "ింగ",
  "8112": "१००",
  "8113": "६६",
  "8114": "ధర्మ",
  "8115": "७९",
  "8116": "२३",
  "8117": "३७",
  "8118": "३८",
  "8119": " మధ्యప्ర",
  "8120": " మధ्యప्రద",
  "8121": " మధ्యప्రదेశ",
  "8122": " ।\n",
  "8123": " మुఖ्యరूప",
  "8124": " మహార",
  "8125": " మహారాష्ట्ర",
  "8126": " రेజ",
  "8127": " రेజిమ",
  "8128": " రेజిమे",
  "8129": " రेజిమेంట",
  "8130": " నాగా",
  "8131": " ఉడ఼",
  "8132": " ఉడ఼ीస",
  "8133": " ఉడ఼ीసా",
  "8134": " సమాన",
  "8135": " అంక",
  "8136": " భాషी",
  "8137": "భాషी",
  "8138": " ఇస्త",
  "8139": " ఇస्తेమ",
  "8140": " ఇస्తेమాల",
  "8141": " దర्జ఼",
  "8142": " వజహ",
  "8143": "వహార",
  "8144": " ఆఠ",
  "8145": " ఆఠవीం",
  "8146": " అనुసूచी",
  "8147": " కరेగी",
  "8148": "సంస",
  "8149": " తాజ",
  "8150": " పారంప",
  "8151": " పారంపరిక",
  "8152": " మूల्యोం",
  "8153": "విభ",
  "8154": " మనాఏ",
  "8155": " దివాలी",
  "8156": " హोలी",
  "8157": " దశహ",
  "8158": " దశహరా",
  "8159": "హా",
  "8160": " నृత्య",
  "8161": " భరతన",
  "8162": " భరతనాట",
  "8163": " కథక",
  "8164": " ప्రసిద",
  "8165": " ప्రసిద्ధ",
  "8166": " కర्�",
  "8167": " కర्న",
  "8168": " కర्నాటక",
  "8169": " ఝారఖండ",
  "8170": " క्రిక",
  "8171": " క्రికेట",
  "8172": "ुచ",
  "8173": " ఆనంద",
  "8174": " దివస",
  "8175": " టेలीవిజ఼",
  "8176": " టेలीవిజ఼న",
  "8177": " ఫిల्మ",
  "8178": " సినेమా",
  "8179": " మరా�",
  "8180": " మరాఠ",
  "8181": " సినेమ",
  "8182": " టेలीవిజన",
  "8183": " ప्రసారణ",
  "8184": " ఉపగ्ర",
  "8185": " ఉపగ्రహ",
  "8186": " మనोర",
  "8187": " మనोరంజన",
  "8188": " ఇంట",
  "8189": "ానప",
  "8190": "ానపాన",
  "8191": " శాక",
  "8192": " శాకాహ",
  "8193": " పసన्ద",
  "8194": " కోట్ల",
  "8195": " జనాభాతో",
  "8196": " ప్రపంచంలో",
  "8197": "263",
  "8198": "మీ",
  "8199": " విస్త",
  "8200": "ేచ",
  "8201": "ాయుత",
  "8202": " పార్ల",
  "8203": " పార్లమ",
  "8204": " పార్లమె",
  "8205": " పార్లమెంట",
  "8206": " సైన",
  "8207": " సైనిక",
  "8208": " సామర్�",
  "8209": " సామర్థ",
  "8210": " సామర్థ్యం",
  "8211": " అణ",
  "8212": " ప్రాంతీయ",
  "8213": " శక్త",
  "8214": " వేల",
  "8215": " కిలో",
  "8216": " కిలోమ",
  "8217": " కిలోమీట",
  "8218": " కిలోమీటర్ల",
  "8219": " కిలోమీటర్లకు",
  "8220": " సముద్ర",
  "8221": " సముద్రతీ",
  "8222": " భాగాన్ని",
  "8223": " కూడుకొ",
  "8224": " చారిత్రక",
  "8225": " ఉత్తరాన",
  "8226": " మహాసము",
  "8227": " మహాసముద",
  "8228": " మహాసముద్రం",
  "8229": " పశ్చిమాన",
  "8230": " తూ",
  "8231": " తూర్ప",
  "8232": "ాతం",
  "8233": " చైనా",
  "8234": " నేపాల్",
  "8235": " భూట",
  "8236": " భూటాన్",
  "8237": " సరిహద్దుల",
  "8238": " ఇండో",
  "8239": "రలో",
  "8240": "దేశాలు",
  "8241": " బౌ",
  "8242": " బౌద్ధ",
  "8243": " జైన",
  "8244": " సిక్క",
  "8245": "లకు",
  "8246": "ిచ్చ",
  "8247": " ఏప్ర",
  "8248": " ఏప్రిల్",
  "8249": " చైనాన",
  "8250": " చైనాను",
  "8251": " దాట",
  "8252": "ౌర్య",
  "8253": " సామ్రాజ్య",
  "8254": "వర్త",
  "8255": " పాలనలో",
  "8256": " పలు",
  "8257": " రాజ్యాలుగా",
  "8258": "ిపో",
  "8259": "ిపోయ",
  "8260": "ిపోయింది",
  "8261": " బ్రిటిష్",
  "8262": " ఈస్ట్",
  "8263": " కంపెనీ",
  "8264": " చేస",
  "8265": " పరిపాలన",
  "8266": " కిందకు",
  "8267": "ెడ",
  "8268": "ెడ్",
  "8269": "మ్",
  "8270": " మహాత్మ",
  "8271": " మహాత్మా",
  "8272": " నాయక",
  "8273": " నాయకత్వ",
  "8274": " స్వాతంత్ర్యం",
  "8275": " తర్వ",
  "8276": " తర్వాత",
  "8277": "్భ",
  "8278": " సంస్క",
  "8279": " సంస్కరణ",
  "8280": " చెందుతున్న",
  "8281": " ఒకటి",
  "8282": "ంటున్న",
  "8283": " పేర్లు",
  "8284": " చెప్ప",
  "8285": " మొద",
  "8286": " మొదట",
  "8287": " వేద",
  "8288": " ఇవ",
  "8289": " ఉపయో",
  "8290": " ఉపయోగ",
  "8291": "ైల",
  "8292": " కృ",
  "8293": " కృష్ణ",
  "8294": " గోదావ",
  "8295": "రే",
  "8296": "రేడు",
  "8297": "్లు",
  "8298": " కనుక",
  "8299": " దీన",
  "8300": "భరత",
  "8301": " మీద",
  "8302": " మీదగా",
  "8303": "తను",
  "8304": "తరువాత",
  "8305": " సింధూ",
  "8306": " సింధూన",
  "8307": " పూర్వ",
  "8308": "్ష",
  "8309": "్రీక",
  "8310": "ిలిచ",
  "8311": " రూపాంతర",
  "8312": " చెంది",
  "8313": "ేయ",
  "8314": " వలన",
  "8315": "ాము",
  "8316": " పొందిన",
  "8317": " అవి",
  "8318": " హిందూస్త",
  "8319": "మే",
  "8320": "్యమైన",
  "8321": "ుగ",
  "8322": " ఏర్పడ్డాయి",
  "8323": "ోల",
  "8324": " స్థావ",
  "8325": " స్థావరాలు",
  "8326": " పశ్చిమ",
  "8327": " ప్రాంతాల్లో",
  "8328": " సంస్కృతి",
  "8329": " చెందాయి",
  "8330": " సామ్రాజ్యం",
  "8331": " విలువ",
  "8332": " తరువాతి",
  "8333": " పల్ల",
  "8334": "గువ",
  "8335": " పాలించ",
  "8336": " పాలించారు",
  "8337": " కళ",
  "8338": " కళలు",
  "8339": " సారస్వ",
  "8340": " సారస్వతం",
  "8341": " సాంక",
  "8342": " సాంకే",
  "8343": " సాంకేతిక",
  "8344": " తత్వ",
  "8345": " మొదలైనవి",
  "8346": " సహస",
  "8347": " సహస్ర",
  "8348": " సహస్రాబ",
  "8349": " సహస్రాబ్ద",
  "8350": " మొగలు",
  "8351": " అయినా",
  "8352": " ముఖ్యంగా",
  "8353": "రెండ",
  "8354": "ర్చ",
  "8355": " ఐరో",
  "8356": " ఐరోపా",
  "8357": " ఇక్క",
  "8358": " బ్రిటిషు",
  "8359": " తిరు",
  "8360": " తిరుగు",
  "8361": " తిరుగుబ",
  "8362": " తిరుగుబాటు",
  "8363": " సమరం",
  "8364": " సిద్�",
  "8365": " సిద్ధ",
  "8366": " జనవరి",
  "8367": " గణతంత్ర",
  "8368": " రాజ్యంగా",
  "8369": " జాతులు",
  "8370": " విభిన్న",
  "8371": "ర్షణ",
  "8372": " చవ",
  "8373": " లౌ",
  "8374": " లౌక",
  "8375": " లౌకిక",
  "8376": " లక్షణ",
  "8377": " కాప",
  "8378": " కాపాడ",
  "8379": " కాపాడుకుంట",
  "8380": " కాపాడుకుంటూ",
  "8381": " అప్ప",
  "8382": " ప్రధానమంత్రి",
  "8383": " మాత్రమ",
  "8384": " మాత్రమే",
  "8385": " వాట",
  "8386": " యుద్ధ",
  "8387": " సభ్య",
  "8388": " పరీ",
  "8389": " పరీక్ష",
  "8390": " నిర్వహించింది",
  "8391": " మరో",
  "8392": " రాజ్యాంగం",
  "8393": " అధికారం",
  "8394": " లె",
  "8395": "వ్యవస్థ",
  "8396": "వుతుంది",
  "8397": " పదవి",
  "8398": " పద్ధత",
  "8399": " ఎలక",
  "8400": " ఎలక్ట",
  "8401": " ఎలక్టోర",
  "8402": " ఎలక్టోరల్",
  "8403": " కాలేజ",
  "8404": " సంవత్సర",
  "8405": " ఎన్నుకో",
  "8406": " ఎన్నుకోబడ",
  "8407": " ఎన్నుకోబడత",
  "8408": " ఎన్నుకోబడతారు",
  "8409": "‌సభ",
  "8410": " సభ్యులు",
  "8411": "ిచే",
  "8412": " నియమ",
  "8413": " నియమించ",
  "8414": " స్వీ",
  "8415": " పద్ధతి",
  "8416": " సభను",
  "8417": " ప్రజలు",
  "8418": " ప్రత్య",
  "8419": "స్థ",
  "8420": "స్థాన",
  "8421": "ుప్రీ",
  "8422": "ుప్రీం",
  "8423": " కోర్టు",
  "8424": " కోర్టులు",
  "8425": " హై",
  "8426": "కో",
  "8427": " రిట",
  "8428": "్లలో",
  "8429": "ారి",
  "8430": " రకాలు",
  "8431": " జో",
  "8432": " వ్యవస్థకు",
  "8433": "దుగా",
  "8434": "ిత్వ",
  "8435": " అతిప",
  "8436": " అతిపెద్ద",
  "8437": " దాదాపు",
  "8438": " ఐక",
  "8439": " ఐక్య",
  "8440": " ప్రభుత్వాన్ని",
  "8441": " ఇటీ",
  "8442": " ఇటీవల",
  "8443": "పై",
  "8444": "ును",
  "8445": " సార్వత",
  "8446": " సార్వత్ర",
  "8447": " సార్వత్రిక",
  "8448": " కలిసి",
  "8449": "న్నీ",
  "8450": "ాలే",
  "8451": " ఎన్నికల్లో",
  "8452": " కాంగ్రెస్",
  "8453": " స్థానాలను",
  "8454": " గెలు",
  "8455": " గెలుచ",
  "8456": " గెలుచుకోవడ",
  "8457": " గెలుచుకోవడం",
  "8458": "ౌగోళ",
  "8459": "ౌగోళిక",
  "8460": " కులాలు",
  "8461": "చార",
  "8462": " ఈశ",
  "8463": " ఈశాన",
  "8464": " ఈశాన్య",
  "8465": " కూడుకుని",
  "8466": "వంత",
  "8467": " కూడి",
  "8468": "్పం",
  "8469": " పూర్త",
  "8470": " పూర్తిగా",
  "8471": "క్కను",
  "8472": " పీఠభ",
  "8473": " పీఠభూ",
  "8474": " కను",
  "8475": " కనుమ",
  "8476": " కనుమలు",
  "8477": "పుత",
  "8478": "దేశపు",
  "8479": " నెల",
  "8480": " నెలకొ",
  "8481": "నాలు",
  "8482": " కలు",
  "8483": "రాష్ట్రాలు",
  "8484": " బడ",
  "8485": " జమ్మ",
  "8486": " జమ్మూ",
  "8487": " లకు",
  "8488": "్క్",
  "8489": "లే",
  "8490": "లేదు",
  "8491": "్రి",
  "8492": "ూడండి",
  "8493": "ఆర్�",
  "8494": "ఆర్ధిక",
  "8495": " ఆధారపడ",
  "8496": " ఆధారపడిన",
  "8497": "ాదాయ",
  "8498": "ాదాయంలో",
  "8499": " కంటే",
  "8500": "ెట్ర",
  "8501": "ిశ్ర",
  "8502": "ెస్",
  "8503": " రంగాల",
  "8504": " ప్రపంచంలోని",
  "8505": "ర్శ",
  "8506": "ేశీ",
  "8507": " అమెర",
  "8508": " అమెరికా",
  "8509": "ీకరణ",
  "8510": " ముంబై",
  "8511": "‌క",
  "8512": "‌కాతా",
  "8513": "01",
  "8514": " అక్షరాస్యత",
  "8515": " మహిళ",
  "8516": "101",
  "8517": " స్త",
  "8518": " స్త్రీ",
  "8519": " స్త్రీలు",
  "8520": " రెండో",
  "8521": " ముస",
  "8522": " ముస్ల",
  "8523": " ముస్లి",
  "8524": " ముస్లిం",
  "8525": "స్తులు",
  "8526": " కార్యక్రమాలు",
  "8527": " భక",
  "8528": " భక్త",
  "8529": " జరుపుకుంటారు",
  "8530": "ృత",
  "8531": "ర్య",
  "8532": " భాషలను",
  "8533": " ఇంగ్లీషు",
  "8534": "165",
  "8535": "ాబాదు",
  "8536": "ప్రాచ",
  "8537": "ప్రాచీన",
  "8538": " భార",
  "8539": " సౌకర్యాలు",
  "8540": " సౌకర్యాలలో",
  "8541": "దేశంలో",
  "8542": " నిడ",
  "8543": " నిడివ",
  "8544": "న్ల",
  "8545": "జిత",
  "8546": "ఢాక",
  "8547": "ఢాకా",
  "8548": "-ఢిల్లీ",
  "8549": "-ల",
  "8550": "-లాహ",
  "8551": "-లాహోర్",
  "8552": " ప్రారంభించ",
  "8553": " ప్రతిపాదనకు",
  "8554": " రైల్వేశ",
  "8555": " రైల్వేశాఖ",
  "8556": "నీ",
  "8557": "తే",
  "8558": "కూ",
  "8559": "చ్చని",
  "8560": " నిపు",
  "8561": " నిపుణ",
  "8562": " నిపుణులు",
  "8563": " సూచించిన",
  "8564": " సూచించినట్లు",
  "8565": "చన",
  "8566": "ెహ్ర",
  "8567": "బుల",
  "8568": "ికలు",
  "8569": " ప్రయో",
  "8570": " ప్రయోజన",
  "8571": " మనదేశం",
  "8572": "ెల్ల",
  "8573": "మేనని",
  "8574": " ఉండటం",
  "8575": "మూల",
  "8576": " రోడ్డు",
  "8577": "ాయు",
  "8578": " జరిగే",
  "8579": "ప్పటికినీ",
  "8580": "ండా",
  "8581": " ఇతరదేశ",
  "8582": " అంతర్జ",
  "8583": " అంతర్జాత",
  "8584": " అంతర్జాతీయ",
  "8585": " ముడి",
  "8586": " ఖన",
  "8587": " ఖనిజ",
  "8588": " ఖనిజాలు",
  "8589": "మతి",
  "8590": " విష",
  "8591": " విషయాలు",
  "8592": " ప్రపంచములో",
  "8593": "ఒ",
  "8594": "ఒక",
  "8595": " సంస్కృత",
  "8596": "ులతో",
  "8597": " భావిస్తారు",
  "8598": " చిర",
  "8599": " పవ",
  "8600": " పవిత్ర",
  "8601": " ప్రజాద",
  "8602": " ప్రజాదరణ",
  "8603": "డిస",
  "8604": " ప్రస",
  "8605": " ప్రసిద్ధి",
  "8606": " రచయ",
  "8607": " రచయిత",
  "8608": " సాధించిన",
  "8609": "డైన",
  "8610": " అన్న",
  "8611": " మలయాళ",
  "8612": " మలయాళం",
  "8613": " ఆహారం",
  "8614": " క్రీడా",
  "8615": " స్థానం",
  "8616": " ఒలంప",
  "8617": " ఒలంపిక్",
  "8618": " క్రీడలలో",
  "8619": " పర్యాయ",
  "8620": " పర్యాయాలు",
  "8621": " హాక",
  "8622": " హాకీ",
  "8623": " బంగారు",
  "8624": "దరంగ",
  "8625": " టైట",
  "8626": "ిళ్ళ",
  "8627": " క్రీడలు",
  "8628": " కబడ్డ",
  "8629": " కబడ్డీ",
  "8630": " పతాక",
  "8631": " శెలవ",
  "8632": " శెలవుద",
  "8633": " శెలవుదినాలు",
  "8634": " పక్క",
  "8635": " పక్కన",
  "8636": " మాట",
  "8637": " మాట్ల",
  "8638": " మాట్లాడ",
  "8639": " మాట్లాడే",
  "8640": " =",
  "8641": "స్ట",
  "8642": "):",
  "8643": "విద్య",
  "8644": "విద్యుత",
  "8645": "విద్యుత్",
  "8646": " ప్ల",
  "8647": "‌లో",
  "8648": " ISBN",
  "8649": "IA",
  "8650": " Prof",
  "8651": " Profile",
  "8652": " ఆఫ్ఘన",
  "8653": " ఆఫ్ఘనిస్తాన్",
  "8654": " సరిహద్దుగా",
  "8655": " భూభాగ",
  "8656": " భూభాగం",
  "8657": " oficialmente",
  "8658": " Ga",
  "8659": " ubicado",
  "8660": " Sur",
  "8661": " poblado",
  "8662": "fici",
  "8663": " planeta",
  "8664": " océ",
  "8665": " océano",
  "8666": " Índico",
  "8667": " línea",
  "8668": " costera",
  "8669": "751",
  "8670": "irman",
  "8671": " Maldivas",
  "8672": " Nueva",
  "8673": " poblada",
  "8674": " Bombay",
  "8675": " valle",
  "8676": " imperios",
  "8677": "ficado",
  "8678": " riqueza",
  "8679": " larga",
  "8680": " historia",
  "8681": " sijismo",
  "8682": " zoroast",
  "8683": " cristian",
  "8684": " cristianismo",
  "8685": " culturas",
  "8686": " Britán",
  "8687": " XVIII",
  "8688": " coloniz",
  "8689": " Reino",
  "8690": " XI",
  "8691": " XIX",
  "8692": " lucha",
  "8693": " encabezado",
  "8694": " compuest",
  "8695": " parlamentaria",
  "8696": " transformado",
  "8697": " todav",
  "8698": " todavía",
  "8699": " suf",
  "8700": " proble",
  "8701": " altos",
  "8702": "tismo",
  "8703": " malnutrición",
  "8704": " fauna",
  "8705": " háb",
  "8706": " hábit",
  "8707": " nueve",
  "8708": " Prolifer",
  "8709": " Proliferación",
  "8710": " dado",
  "8711": " pasó",
  "8712": " puesto",
  "8713": " Índice",
  "8714": " Ambi",
  "8715": "vestig",
  "8716": " estudi",
  "8717": " estudio",
  "8718": " destaca",
  "8719": "alar",
  "8720": " calidad",
  "8721": " caracteriz",
  "8722": " caracteriza",
  "8723": " desigualdad",
  "8724": " desig",
  "8725": " desigu",
  "8726": " desiguales",
  "8727": " Desigual",
  "8728": " Desigualdad",
  "8729": " califica",
  "8730": "país",
  "8731": " siguientes",
  "8732": " kannada",
  "8733": " malayalam",
  "8734": " marathi",
  "8735": " manipuri",
  "8736": "alí",
  "8737": " dial",
  "8738": " dialectos",
  "8739": " deriva",
  "8740": " pal",
  "8741": " palab",
  "8742": " palabra",
  "8743": " persa",
  "8744": "/),",
  "8745": " río",
  "8746": " antiguos",
  "8747": " hablados",
  "8748": "unci",
  "8749": "endario",
  "8750": " rey",
  "8751": " mitología",
  "8752": " hinduista",
  "8753": " design",
  "8754": " utiliza",
  "8755": " bandera",
  "8756": " emble",
  "8757": " emblema",
  "8758": " canción",
  "8759": "puesta",
  "8760": "chand",
  "8761": "tivas",
  "8762": " posee",
  "8763": " loto",
  "8764": ")​",
  "8765": " símbolo",
  "8766": " moned",
  "8767": " moneda",
  "8768": " antigua",
  "8769": " modernos",
  "8770": " datan",
  "8771": " Después",
  "8772": " cul",
  "8773": " cultivos",
  "8774": " estruct",
  "8775": " agrícolas",
  "8776": " Estos",
  "8777": " gradualmente",
  "8778": " civilización",
  "8779": " floreció",
  "8780": " subs",
  "8781": "istencia",
  "8782": " artesan",
  "8783": "Dur",
  "8784": "Durante",
  "8785": " Edad",
  "8786": " Vedas",
  "8787": " asoci",
  "8788": " abar",
  "8789": " ole",
  "8790": " migración",
  "8791": " indoaria",
  "8792": " jer",
  "8793": " jerarqu",
  "8794": " jerarquía",
  "8795": " guerr",
  "8796": " guerreros",
  "8797": " lib",
  "8798": " exclu",
  "8799": " excluyó",
  "8800": " pue",
  "8801": " puebl",
  "8802": " pueblos",
  "8803": " indí",
  "8804": " indígen",
  "8805": " surg",
  "8806": "gi",
  "8807": " jef",
  "8808": " tanques",
  "8809": "aturas",
  "8810": " dieci",
  "8811": "arquías",
  "8812": " urbanización",
  "8813": "imientos",
  "8814": " religiosos",
  "8815": " védicos",
  "8816": " importancia",
  "8817": " basado",
  "8818": " enseñan",
  "8819": " enseñanzas",
  "8820": "ama",
  "8821": " seguid",
  "8822": " seguidores",
  "8823": " excepto",
  "8824": " clase",
  "8825": " media",
  "8826": "ónica",
  "8827": " Buda",
  "8828": " inicios",
  "8829": " ép",
  "8830": " creciente",
  "8831": " ambas",
  "8832": " reducido",
  "8833": " Alg",
  "8834": "rales",
  "8835": "omas",
  "8836": " gestión",
  "8837": " pública",
  "8838": " destac",
  "8839": " amplia",
  "8840": " defensa",
  "8841": " lengua",
  "8842": " meridional",
  "8843": " comerci",
  "8844": "aban",
  "8845": " rom",
  "8846": "iental",
  "8847": "mó",
  "8848": " patriar",
  "8849": " patriarcal",
  "8850": "oner",
  "8851": " reno",
  "8852": " renov",
  "8853": "jó",
  "8854": "ultura",
  "8855": " encontró",
  "8856": " patrocin",
  "8857": " medicina",
  "8858": "raron",
  "8859": " avances",
  "8860": " temprana",
  "8861": " define",
  "8862": " diversidad",
  "8863": "angética",
  "8864": " intentó",
  "8865": " derrotado",
  "8866": " gobernante",
  "8867": " Chal",
  "8868": " Chaluk",
  "8869": " suces",
  "8870": " quien",
  "8871": " op",
  "8872": "ieron",
  "8873": " constante",
  "8874": " constantemente",
  "8875": " cuyas",
  "8876": " consecu",
  "8877": " consecuencia",
  "8878": " mos",
  "8879": " mostr",
  "8880": " crearon",
  "8881": " Fuer",
  "8882": " llevaron",
  "8883": " resurgimiento",
  "8884": " tam",
  "8885": " tamañ",
  "8886": " sudes",
  "8887": " sudeste",
  "8888": " asiático",
  "8889": "inas",
  "8890": " ejércitos",
  "8891": " tom",
  "8892": " hind",
  "8893": " hindú",
  "8894": "Después",
  "8895": "anes",
  "8896": " utilizando",
  "8897": " caball",
  "8898": " religión",
  "8899": " repeti",
  "8900": " repetid",
  "8901": " repetidamente",
  "8902": " islám",
  "8903": " ib",
  "8904": " iba",
  "8905": " realizar",
  "8906": " incurs",
  "8907": " incursiones",
  "8908": " Aunque",
  "8909": " vasta",
  "8910": "alt",
  "8911": " salv",
  "8912": "ísticos",
  "8913": " artesanos",
  "8914": " cam",
  "8915": " tradición",
  "8916": " moderna",
  "8917": " nuevamente",
  "8918": " ante",
  "8919": " potencia",
  "8920": "go",
  "8921": "ficó",
  "8922": " prácticas",
  "8923": " condujeron",
  "8924": " sistemá",
  "8925": " mog",
  "8926": " mogol",
  "8927": " lej",
  "8928": " lejanos",
  "8929": " tenía",
  "8930": " políticas",
  "8931": " deriv",
  "8932": " ingresos",
  "8933": " pag",
  "8934": " plata",
  "8935": " ingresar",
  "8936": " mercados",
  "8937": " expansión",
  "8938": " sik",
  "8939": "aboración",
  "8940": " reconocimiento",
  "8941": " medida",
  "8942": " bus",
  "8943": " buscar",
  "8944": " político",
  "8945": " empresas",
  "8946": " establecido",
  "8947": " avan",
  "8948": " avanz",
  "8949": " entrenamiento",
  "8950": " factores",
  "8951": " empresa",
  "8952": " lado",
  "8953": " ejército",
  "8954": " ese",
  "8955": " moment",
  "8956": " momento",
  "8957": " restring",
  "8958": "éndose",
  "8959": " convertido",
  "8960": " algún",
  "8961": "yeron",
  "8962": " soberan",
  "8963": " soberanía",
  "8964": " vigil",
  "8965": " canales",
  "8966": "ég",
  "8967": " introdu",
  "8968": " descontent",
  "8969": " descontento",
  "8970": "entim",
  "8971": " terrat",
  "8972": " terraten",
  "8973": " prín",
  "8974": " príncip",
  "8975": " príncipes",
  "8976": " sacudi",
  "8977": " sacudió",
  "8978": " directa",
  "8979": " unitario",
  "8980": " parlamentario",
  "8981": "ardia",
  "8982": "uros",
  "8983": " emergió",
  "8984": " segunda",
  "8985": "endientes",
  "8986": " infra",
  "8987": " infraest",
  "8988": " infraestruct",
  "8989": "yentes",
  "8990": " salud",
  "8991": " ferro",
  "8992": " ferrovi",
  "8993": " redujo",
  "8994": " transporte",
  "8995": " naci",
  "8996": "Entre",
  "8997": " historiador",
  "8998": "igencia",
  "8999": " hambri",
  "9000": " hambrientos",
  "9001": " ninguna",
  "9002": " permaneció",
  "9003": " Por",
  "9004": "oridades",
  "9005": " foment",
  "9006": " exportaciones",
  "9007": " preoc",
  "9008": " preocup",
  "9009": " muer",
  "9010": " sue",
  "9011": " suelo",
  "9012": " Mik",
  "9013": " Mike",
  "9014": " apo",
  "9015": " idea",
  "9016": "ondres",
  "9017": " estaba",
  "9018": " Ro",
  "9019": " Ly",
  "9020": " Lytton",
  "9021": " descrit",
  "9022": "ind",
  "9023": " menos",
  "9024": " posi",
  "9025": " posible",
  "9026": " pueb",
  "9027": " pueblo",
  "9028": " Primer",
  "9029": " sir",
  "9030": " legislación",
  "9031": " convertiría",
  "9032": " victorias",
  "9033": " siguiente",
  "9034": " último",
  "9035": " moder",
  "9036": " termin",
  "9037": " democrática",
  "9038": " mantenido",
  "9039": " liberta",
  "9040": " libertades",
  "9041": " activa",
  "9042": " prensa",
  "9043": " aumentó",
  "9044": "olítica",
  "9045": " desemp",
  "9046": " desempe",
  "9047": "pi",
  "9048": " Cac",
  "9049": " Cache",
  "9050": " Cachemi",
  "9051": " Cachemira",
  "9052": " Tiene",
  "9053": " disputas",
  "9054": " mis",
  "9055": " siendo",
  "9056": "Gobierno",
  "9057": " cualquier",
  "9058": " enero",
  "9059": " bic",
  "9060": " bicam",
  "9061": " bicamer",
  "9062": " bicameral",
  "9063": " tendencia",
  "9064": " resultado",
  "9065": " jefe",
  "9066": " elegido",
  "9067": " indire",
  "9068": " indirect",
  "9069": " indirectamente",
  "9070": " ejer",
  "9071": " ejerce",
  "9072": " funciones",
  "9073": "atiz",
  "9074": " ali",
  "9075": " alianza",
  "9076": " asientos",
  "9077": " parlamento",
  "9078": "presid",
  "9079": "presidente",
  "9080": " Comit",
  "9081": " Comité",
  "9082": " legislativo",
  "9083": " llamada",
  "9084": "Con",
  "9085": " elegidos",
  "9086": " nombran",
  "9087": " ang",
  "9088": " anglo",
  "9089": "-in",
  "9090": "-india",
  "9091": " piens",
  "9092": " piensa",
  "9093": " elig",
  "9094": " eligen",
  "9095": " judicial",
  "9096": " superiores",
  "9097": " jurisdicción",
  "9098": "biernos",
  "9099": " apel",
  "9100": " apro",
  "9101": " mej",
  "9102": " dirig",
  "9103": " Parti",
  "9104": " Partido",
  "9105": " breves",
  "9106": "fr",
  "9107": " ningún",
  "9108": " mando",
  "9109": " Ali",
  "9110": " Alianza",
  "9111": " completo",
  "9112": " generales",
  "9113": " cargo",
  "9114": " tend",
  "9115": " radio",
  "9116": " telev",
  "9117": " televisión",
  "9118": " sat",
  "9119": "él",
  "9120": " plano",
  "9121": " diarios",
  "9122": " representan",
  "9123": " concentra",
  "9124": " hay",
  "9125": " impres",
  "9126": " existe",
  "9127": " propietarios",
  "9128": " involuc",
  "9129": " ambos",
  "9130": " ONG",
  "9131": "SF",
  "9132": " Panda",
  "9133": " Jay",
  "9134": " otro",
  "9135": " información",
  "9136": " periodistas",
  "9137": " aumentado",
  "9138": " temas",
  "9139": "Relaciones",
  "9140": " exteriores",
  "9141": "Desde",
  "9142": " favor",
  "9143": " colonias",
  "9144": " mantenimiento",
  "9145": " Manc",
  "9146": " Mancom",
  "9147": " Mancomun",
  "9148": " Mancomunidad",
  "9149": " Una",
  "9150": " tenido",
  "9151": "asiática",
  "9152": " proporcionado",
  "9153": " personal",
  "9154": " san",
  "9155": " Unidos",
  "9156": " estre",
  "9157": " Amé",
  "9158": " América",
  "9159": " cuarta",
  "9160": "edores",
  "9161": " armas",
  "9162": " equipos",
  "9163": " dependencia",
  "9164": " importaciones",
  "9165": " extranjer",
  "9166": " extranjero",
  "9167": " posteriormente",
  "9168": " octu",
  "9169": " octubre",
  "9170": "iden",
  "9171": " restricciones",
  "9172": " perten",
  "9173": " Internacional",
  "9174": " Derechos",
  "9175": " Human",
  "9176": " Humanos",
  "9177": "rón",
  "9178": " distrit",
  "9179": " distritos",
  "9180": " proces",
  "9181": " geográfica",
  "9182": " actual",
  "9183": " colisión",
  "9184": " debajo",
  "9185": " monta",
  "9186": " montaños",
  "9187": " montañoso",
  "9188": "echo",
  "9189": " Himalaya",
  "9190": " exti",
  "9191": " aráb",
  "9192": " arábigo",
  "9193": " derecha",
  "9194": " rocosas",
  "9195": " algunas",
  "9196": " Islas",
  "9197": " Laque",
  "9198": " Laquedivas",
  "9199": " acuerdo",
  "9200": "grafía",
  "9201": " pantanos",
  "9202": " origen",
  "9203": " pendi",
  "9204": " provo",
  "9205": " inund",
  "9206": " inundaciones",
  "9207": "ficas",
  "9208": " evit",
  "9209": " suroeste",
  "9210": " monz",
  "9211": "ienen",
  "9212": " vientos",
  "9213": " seco",
  "9214": " muest",
  "9215": " muestra",
  "9216": " Como",
  "9217": " anfi",
  "9218": " anfibios",
  "9219": " cubier",
  "9220": " cadu",
  "9221": " caduci",
  "9222": " caducifolio",
  "9223": " masa",
  "9224": " utilizado",
  "9225": "Muchas",
  "9226": " masivo",
  "9227": " extinción",
  "9228": "ráf",
  "9229": " amen",
  "9230": " llega",
  "9231": " promulgó",
  "9232": "unto",
  "9233": " quin",
  "9234": " Biosfera",
  "9235": " anual",
  "9236": " arro",
  "9237": " arroz",
  "9238": " trigo",
  "9239": "jas",
  "9240": " maqu",
  "9241": " maquin",
  "9242": " soft",
  "9243": " softwar",
  "9244": " software",
  "9245": " relativamente",
  "9246": " paridad",
  "9247": " adquisi",
  "9248": " adquisitivo",
  "9249": " doble",
  "9250": " tip",
  "9251": " tipos",
  "9252": "PPA",
  "9253": " cuestión",
  "9254": " convirtiendo",
  "9255": " empleos",
  "9256": " disminuyó",
  "9257": " incor",
  "9258": " incorpor",
  "9259": " laboral",
  "9260": " desemple",
  "9261": " menores",
  "9262": " estad",
  "9263": " estadís",
  "9264": " siguen",
  "9265": " aus",
  "9266": " barrios",
  "9267": " niños",
  "9268": " internacional",
  "9269": " Ban",
  "9270": " Banco",
  "9271": " día",
  "9272": " Rp",
  "9273": " urbanas",
  "9274": "asas",
  "9275": " públ",
  "9276": " público",
  "9277": " normas",
  "9278": "dios",
  "9279": " integ",
  "9280": " integral",
  "9281": "ficialmente",
  "9282": " gast",
  "9283": " subsi",
  "9284": " hor",
  "9285": " ''",
  "9286": " innovación",
  "9287": " ubicó",
  "9288": ".​​​",
  "9289": " médicos",
  "9290": "volución",
  "9291": "mig",
  "9292": " mano",
  "9293": " comunidades",
  "9294": " hinduistas",
  "9295": " Otros",
  "9296": " cristi",
  "9297": " cristianos",
  "9298": " jainistas",
  "9299": " alf",
  "9300": " alfabe",
  "9301": " alfabetiz",
  "9302": " alfabetización",
  "9303": " demog",
  "9304": " lingüísticas",
  "9305": "hab",
  "9306": "habl",
  "9307": "hablada",
  "9308": " %).",
  "9309": " hablantes",
  "9310": " cen",
  "9311": " censo",
  "9312": "éase",
  "9313": "lenguas",
  "9314": "cidas",
  "9315": " respet",
  "9316": " respetados",
  "9317": " matrimonio",
  "9318": " var",
  "9319": " prend",
  "9320": " prendas",
  "9321": " celebra",
  "9322": " celebraciones",
  "9323": " celebran",
  "9324": " casta",
  "9325": " fiestas",
  "9326": " Eid",
  "9327": " festivos",
  "9328": " Día",
  "9329": " turismo",
  "9330": "ronom",
  "9331": "ronomía",
  "9332": " especi",
  "9333": " especias",
  "9334": " carn",
  "9335": " na",
  "9336": " bh",
  "9337": "vegetari",
  "9338": "vegetarianos",
  "9339": " comunes",
  "9340": " comidas",
  "9341": " gén",
  "9342": "mentos",
  "9343": " folc",
  "9344": " folcl",
  "9345": " folcló",
  "9346": " folclóric",
  "9347": " Occid",
  "9348": " Occidental",
  "9349": " Oriss",
  "9350": " Orissa",
  "9351": " kath",
  "9352": " kathak",
  "9353": " noticias",
  "9354": " cinem",
  "9355": " cinemat",
  "9356": " cinematog",
  "9357": " cinematográfica",
  "9358": " realizan",
  "9359": "lí",
  "9360": " Maj",
  "9361": " cés",
  "9362": " césped",
  "9363": " administrado",
  "9364": " Fede",
  "9365": " Federación",
  "9366": " equipo",
  "9367": " Cam",
  "9368": " Campe",
  "9369": "lección",
  "9370": "iga",
  "9371": " fútbol",
  "9372": " deportes",
  "9373": ":India",
  "9374": " Comm",
  "9375": " Commons",
  "9376": " multime",
  "9377": " multimedia",
  "9378": "ajes",
  "9379": " Portal",
  "9380": " Of",
  "9381": " officially",
  "9382": " sevent",
  "9383": " seventh",
  "9384": " Boun",
  "9385": " Bounded",
  "9386": " southeast",
  "9387": " shares",
  "9388": " Bhut",
  "9389": " Bhutan",
  "9390": " Maldi",
  "9391": " Maldives",
  "9392": " mari",
  "9393": " maritime",
  "9394": " border",
  "9395": " arrived",
  "9396": " predominant",
  "9397": " predominantly",
  "9398": " Settled",
  "9399": " evolving",
  "9400": " da",
  "9401": " dawn",
  "9402": " dawnings",
  "9403": "-existing",
  "9404": " proc",
  "9405": " proclaiming",
  "9406": " orders",
  "9407": " unl",
  "9408": " unlin",
  "9409": " unlinked",
  "9410": " heredity",
  "9411": " consolidations",
  "9412": " Empi",
  "9413": " Empires",
  "9414": " flourish",
  "9415": " flourishing",
  "9416": " writing",
  "9417": " declined",
  "9418": " organised",
  "9419": " scripts",
  "9420": " Juda",
  "9421": " Judaism",
  "9422": " intermit",
  "9423": " intermittent",
  "9424": " intermittently",
  "9425": " cosmo",
  "9426": " cosmop",
  "9427": " cosmopol",
  "9428": " cosmopolit",
  "9429": " cosmopolitan",
  "9430": " networks",
  "9431": "-lasting",
  "9432": " compos",
  "9433": " composite",
  "9434": " reject",
  "9435": " rejecting",
  "9436": " institutional",
  "9437": " institutionalised",
  "9438": " ushered",
  "9439": " architect",
  "9440": " architectural",
  "9441": " legacy",
  "9442": " Grad",
  "9443": " Gradually",
  "9444": " consolidated",
  "9445": " Crown",
  "9446": " promised",
  "9447": " granted",
  "9448": " slowly",
  "9449": " technological",
  "9450": " roo",
  "9451": " root",
  "9452": " movements",
  "9453": " Noted",
  "9454": " resist",
  "9455": " resistance",
  "9456": " partitioned",
  "9457": " dominions",
  "9458": " unpre",
  "9459": " unpreced",
  "9460": " unprecedent",
  "9461": " unprecedented",
  "9462": " accomp",
  "9463": " accompani",
  "9464": " accompanied",
  "9465": " governed",
  "9466": " pluralistic",
  "9467": " multilingual",
  "9468": "-ethnic",
  "9469": "601",
  "9470": " hub",
  "9471": "-we",
  "9472": "-weap",
  "9473": "-weapon",
  "9474": " rank",
  "9475": " ranks",
  "9476": " expendi",
  "9477": " expenditure",
  "9478": " neighbours",
  "9479": " socio",
  "9480": " challeng",
  "9481": " challenges",
  "9482": " faces",
  "9483": " malnutrition",
  "9484": " rising",
  "9485": " vie",
  "9486": " viewed",
  "9487": " tol",
  "9488": " toler",
  "9489": " tolerance",
  "9490": " habitats",
  "9491": "Ac",
  "9492": "According",
  "9493": " Ox",
  "9494": " Oxfor",
  "9495": " Oxford",
  "9496": " Dic",
  "9497": " Diction",
  "9498": " Dictionary",
  "9499": " proper",
  "9500": " noun",
  "9501": " derives",
  "9502": " Lat",
  "9503": " Latin",
  "9504": " reference",
  "9505": " loosely",
  "9506": "-def",
  "9507": "-defined",
  "9508": " stre",
  "9509": " stret",
  "9510": " stretch",
  "9511": " stretching",
  "9512": " Further",
  "9513": " etym",
  "9514": " etymons",
  "9515": " Hell",
  "9516": " Hellen",
  "9517": " Hellenistic",
  "9518": "Ἰνδί",
  "9519": "Ἰνδί�",
  "9520": "Ἰνδία",
  "9521": " Indos",
  "9522": "Ἰνδ�",
  "9523": "Ἰνδό",
  "9524": "Ἰνδό�",
  "9525": "Ἰνδός",
  "9526": " Ri",
  "9527": " River",
  "9528": " Achaemenian",
  "9529": " province",
  "9530": " Achaemenid",
  "9531": "river",
  "9532": " specific",
  "9533": " specifically",
  "9534": " extension",
  "9535": "-settled",
  "9536": " Greeks",
  "9537": " referred",
  "9538": " Indoi",
  "9539": "Bhārat",
  "9540": " pron",
  "9541": " pronoun",
  "9542": " pronounced",
  "9543": "ˈbʱa",
  "9544": "ˈbʱaː",
  "9545": "ˈbʱaː�",
  "9546": "ˈbʱaːɾ",
  "9547": "ˈbʱaːɾ�",
  "9548": "ˈbʱaːɾə",
  "9549": "ˈbʱaːɾət",
  "9550": " ),",
  "9551": " mention",
  "9552": " mentioned",
  "9553": " epic",
  "9554": " poetry",
  "9555": " variations",
  "9556": " render",
  "9557": " rendering",
  "9558": " Bharatav",
  "9559": " Bharatavar",
  "9560": " Bharatavarsha",
  "9561": " native",
  "9562": "Hindust",
  "9563": "Hindustan",
  "9564": " ([",
  "9565": "ɦ",
  "9566": "ɦ�",
  "9567": "ɦɪ",
  "9568": "ɦɪnd",
  "9569": "ɦɪnd�",
  "9570": "ɦɪndʊ",
  "9571": "ɦɪndʊˈ",
  "9572": "ɦɪndʊˈsta",
  "9573": "ɦɪndʊˈstaː",
  "9574": "ɦɪndʊˈstaːn",
  "9575": " )",
  "9576": " Hindustan",
  "9577": " varied",
  "9578": " referring",
  "9579": " encomp",
  "9580": " encompassing",
  "9581": "pres",
  "9582": "present",
  "9583": " entire",
  "9584": " entirety",
  "9585": "Based",
  "9586": " coales",
  "9587": " coalesc",
  "9588": " coalescence",
  "9589": " Mit",
  "9590": " Mitoch",
  "9591": " Mitochond",
  "9592": " Mitochondri",
  "9593": " Mitochondrial",
  "9594": " DN",
  "9595": " DNA",
  "9596": " Chrom",
  "9597": " Chromos",
  "9598": " Chromosome",
  "9599": " line",
  "9600": " lineages",
  "9601": " anatomically",
  "9602": " likeli",
  "9603": " likeliho",
  "9604": " likelihood",
  "9605": " initially",
  "9606": " varying",
  "9607": " gene",
  "9608": " genetic",
  "9609": " fos",
  "9610": " fossils",
  "9611": " date",
  "9612": " Evidence",
  "9613": " neol",
  "9614": " neolith",
  "9615": " neolithic",
  "9616": " Baloch",
  "9617": " Balochistan",
  "9618": " dates",
  "9619": " Domestic",
  "9620": " Domestication",
  "9621": " grain",
  "9622": "-pro",
  "9623": "-produc",
  "9624": "-producing",
  "9625": " plants",
  "9626": " barle",
  "9627": " barley",
  "9628": " humped",
  "9629": " zeb",
  "9630": " zebu",
  "9631": " evolved",
  "9632": " flourished",
  "9633": " Centred",
  "9634": " Gan",
  "9635": " Ganwer",
  "9636": " Ganweriw",
  "9637": " Ganweriwala",
  "9638": " Rakh",
  "9639": " Rakhigar",
  "9640": " Rakhigarhi",
  "9641": " weigh",
  "9642": " weights",
  "9643": " steati",
  "9644": " steatite",
  "9645": " plann",
  "9646": " planning",
  "9647": " craf",
  "9648": " crafts",
  "9649": " potter",
  "9650": " pottery",
  "9651": " terra",
  "9652": " terraco",
  "9653": " terracot",
  "9654": " terracotta",
  "9655": " statu",
  "9656": " statuettes",
  "9657": " Networks",
  "9658": " agro",
  "9659": "-pastoral",
  "9660": "Between",
  "9661": "150",
  "9662": " evidence",
  "9663": " Rig",
  "9664": " Veda",
  "9665": "—the",
  "9666": " scripture",
  "9667": "—wh",
  "9668": "—which",
  "9669": "-speak",
  "9670": "-speaking",
  "9671": " tribes",
  "9672": " migrat",
  "9673": " migrating",
  "9674": " Af",
  "9675": " Afg",
  "9676": " Afghan",
  "9677": " Afghanistan",
  "9678": " sett",
  "9679": " settling",
  "9680": " swath",
  "9681": " swathes",
  "9682": " system's",
  "9683": " adjo",
  "9684": " adjoining",
  "9685": " defor",
  "9686": " deforested",
  "9687": " fires",
  "9688": " employing",
  "9689": " iron",
  "9690": " implements",
  "9691": " prepared",
  "9692": " driving",
  "9693": " preexisting",
  "9694": " ensl",
  "9695": " enslav",
  "9696": " enslaving",
  "9697": "-divide",
  "9698": " spok",
  "9699": " spoken",
  "9700": " refined",
  "9701": " gramma",
  "9702": " grammatical",
  "9703": " emerge",
  "9704": " codi",
  "9705": " codified",
  "9706": " A�",
  "9707": " Aṣ",
  "9708": " Aṣ�",
  "9709": " Aṣṭ",
  "9710": " Aṣṭā",
  "9711": " Aṣṭādh",
  "9712": " Aṣṭādhy",
  "9713": " Aṣṭādhyā",
  "9714": " Aṣṭādhyāy",
  "9715": " Aṣṭādhyāy�",
  "9716": " Aṣṭādhyāyī",
  "9717": " ('",
  "9718": "Eight",
  "9719": " chapters",
  "9720": "')",
  "9721": " Pā",
  "9722": " Pāṇ",
  "9723": " Pāṇini",
  "9724": " epics",
  "9725": " Mahā",
  "9726": " Mahābh",
  "9727": " Mahābhārat",
  "9728": " Mahābhārata",
  "9729": " Rā",
  "9730": " Rām",
  "9731": " Rāmā",
  "9732": " Rāmāya",
  "9733": " Rāmāyaṇ",
  "9734": " Rāmāyaṇa",
  "9735": " story",
  "9736": " storytell",
  "9737": " storytelling",
  "9738": " registers",
  "9739": " Epic",
  "9740": " rough",
  "9741": " roughly",
  "9742": " contemporary",
  "9743": "  \n",
  "9744": " taken",
  "9745": " differenti",
  "9746": " differentiation",
  "9747": "-millennium",
  "9748": " teach",
  "9749": " teachings",
  "9750": " Both",
  "9751": " stressed",
  "9752": " abj",
  "9753": " abjured",
  "9754": " sacrific",
  "9755": " sacrifices",
  "9756": " Brahman",
  "9757": " Brahmanism",
  "9758": " fixed",
  "9759": " ethically",
  "9760": " socially",
  "9761": " mor",
  "9762": " morally",
  "9763": " Chronic",
  "9764": " Chronicling",
  "9765": " backdro",
  "9766": " backdrop",
  "9767": " emergence",
  "9768": " geographically",
  "9769": " founder",
  "9770": " founder's",
  "9771": " grands",
  "9772": " grandson",
  "9773": "268",
  "9774": "232",
  "9775": " controlled",
  "9776": " arter",
  "9777": " arteries",
  "9778": " except",
  "9779": " deep",
  "9780": " empire's",
  "9781": " inscrip",
  "9782": " inscriptions",
  "9783": " declining",
  "9784": " mainst",
  "9785": " mainstre",
  "9786": " mainstream",
  "9787": " speaking",
  "9788": " conqu",
  "9789": " conquest",
  "9790": " Kaling",
  "9791": " Kalinga",
  "9792": " forces",
  "9793": " immen",
  "9794": " immense",
  "9795": " adopting",
  "9796": " commission",
  "9797": " commissioning",
  "9798": " numerous",
  "9799": " pill",
  "9800": " pillar",
  "9801": " throughout",
  "9802": " promote",
  "9803": " forb",
  "9804": " forbade",
  "9805": " killing",
  "9806": " destruc",
  "9807": " destruction",
  "9808": " seen",
  "9809": " envir",
  "9810": " environ",
  "9811": " environmental",
  "9812": " embo",
  "9813": " embodiment",
  "9814": " ethos",
  "9815": " taxation",
  "9816": " Under",
  "9817": " renewed",
  "9818": " manage",
  "9819": " management",
  "9820": " itself",
  "9821": " renewal",
  "9822": " reflected",
  "9823": " sci",
  "9824": " science",
  "9825": " reveals",
  "9826": " peninsula",
  "9827": " respectively",
  "9828": " farther",
  "9829": " Vaig",
  "9830": " Vaigai",
  "9831": " sixth",
  "9832": " grown",
  "9833": " favo",
  "9834": " favoured",
  "9835": " conservative",
  "9836": " transac",
  "9837": " transactional",
  "9838": " transactionalism",
  "9839": " repl",
  "9840": " replaced",
  "9841": " kingly",
  "9842": " places",
  "9843": " Bhakti",
  "9844": " traded",
  "9845": " Rom",
  "9846": " Roman",
  "9847": "Medie",
  "9848": "Medieval",
  "9849": " defined",
  "9850": " ruler",
  "9851": " create",
  "9852": " consistently",
  "9853": " bey",
  "9854": " beyond",
  "9855": " core",
  "9856": " pastoral",
  "9857": " peoples",
  "9858": " accom",
  "9859": " accommo",
  "9860": " accommod",
  "9861": " accommodated",
  "9862": "-tra",
  "9863": "-traditional",
  "9864": " consequent",
  "9865": " consequently",
  "9866": " differences",
  "9867": " devotional",
  "9868": " imitated",
  "9869": " resurgence",
  "9870": " royalty",
  "9871": " big",
  "9872": " patronised",
  "9873": " sizes",
  "9874": " everyw",
  "9875": " everywhere",
  "9876": " underwent",
  "9877": " effects",
  "9878": " fel",
  "9879": " felt",
  "9880": " Brune",
  "9881": " Brunei",
  "9882": " Cambodia",
  "9883": " Ph",
  "9884": " Phili",
  "9885": " Philipp",
  "9886": " Philippines",
  "9887": " Malay",
  "9888": " Malaysia",
  "9889": " sch",
  "9890": " schol",
  "9891": " scholars",
  "9892": " transmission",
  "9893": " initiative",
  "9894": " sojo",
  "9895": " sojour",
  "9896": " sojourning",
  "9897": " seminaries",
  "9898": " transl",
  "9899": " translating",
  "9900": " noma",
  "9901": " nomadic",
  "9902": " clans",
  "9903": " using",
  "9904": " swi",
  "9905": " swift",
  "9906": "-h",
  "9907": "-hor",
  "9908": "-horse",
  "9909": " caval",
  "9910": " cavalry",
  "9911": " raising",
  "9912": " ethni",
  "9913": " ethnicity",
  "9914": " Asia's",
  "9915": " establish",
  "9916": " establishment",
  "9917": " forays",
  "9918": " disrup",
  "9919": " disruptive",
  "9920": "-M",
  "9921": "-Muslim",
  "9922": " subject",
  "9923": " customs",
  "9924": " repul",
  "9925": " repuls",
  "9926": " repulsing",
  "9927": " Mongol",
  "9928": " rai",
  "9929": " raiders",
  "9930": " saved",
  "9931": " devastation",
  "9932": " visited",
  "9933": " scene",
  "9934": " fle",
  "9935": " flee",
  "9936": " fleeing",
  "9937": " soldi",
  "9938": " soldiers",
  "9939": " lear",
  "9940": " learned",
  "9941": " my",
  "9942": " mys",
  "9943": " mystics",
  "9944": " traders",
  "9945": " thereb",
  "9946": " thereby",
  "9947": " syn",
  "9948": " syncre",
  "9949": " syncretic",
  "9950": "-I",
  "9951": "-Is",
  "9952": "-Islam",
  "9953": "-Islamic",
  "9954": " sultanate's",
  "9955": " raiding",
  "9956": " weak",
  "9957": " weakening",
  "9958": " paved",
  "9959": " Emb",
  "9960": " Embrac",
  "9961": " Embracing",
  "9962": " Shaiv",
  "9963": " Shaivite",
  "9964": " upon",
  "9965": " afterwards",
  "9966": "Early",
  "9967": " fell",
  "9968": " mobil",
  "9969": " mobility",
  "9970": " fire",
  "9971": " firepo",
  "9972": " firepower",
  "9973": " generation",
  "9974": " stamp",
  "9975": " socie",
  "9976": " societies",
  "9977": " Instead",
  "9978": " balanced",
  "9979": " pacified",
  "9980": " administrative",
  "9981": " inclusive",
  "9982": " systema",
  "9983": " systematic",
  "9984": " centralised",
  "9985": " uniform",
  "9986": " Esche",
  "9987": " Eschew",
  "9988": " Eschewing",
  "9989": " identity",
  "9990": " Mughals",
  "9991": "-fl",
  "9992": "-flung",
  "9993": " realms",
  "9994": " loyalty",
  "9995": "—ex",
  "9996": "—exp",
  "9997": "—expressed",
  "9998": " Persianised",
  "9999": "—to",
  "10000": "-div",
  "10001": "-divine",
  "10002": " state's",
  "10003": " deriving",
  "10004": " mandating",
  "10005": " paid"
}