{
  "0": "\u0000",
  "1": "\u0001",
  "2": "\u0002",
  "3": "\u0003",
  "4": "\u0004",
  "5": "\u0005",
  "6": "\u0006",
  "7": "\u0007",
  "8": "\b",
  "9": "\t",
  "10": "\n",
  "11": "\u000b",
  "12": "\f",
  "13": "\r",
  "14": "\u000e",
  "15": "\u000f",
  "16": "\u0010",
  "17": "\u0011",
  "18": "\u0012",
  "19": "\u0013",
  "20": "\u0014",
  "21": "\u0015",
  "22": "\u0016",
  "23": "\u0017",
  "24": "\u0018",
  "25": "\u0019",
  "26": "\u001a",
  "27": "\u001b",
  "28": "\u001c",
  "29": "\u001d",
  "30": "\u001e",
  "31": "\u001f",
  "32": " ",
  "33": "!",
  "34": "\"",
  "35": "#",
  "36": "$",
  "37": "%",
  "38": "&",
  "39": "'",
  "40": "(",
  "41": ")",
  "42": "*",
  "43": "+",
  "44": ",",
  "45": "-",
  "46": ".",
  "47": "/",
  "48": "0",
  "49": "1",
  "50": "2",
  "51": "3",
  "52": "4",
  "53": "5",
  "54": "6",
  "55": "7",
  "56": "8",
  "57": "9",
  "58": ":",
  "59": ";",
  "60": "<",
  "61": "=",
  "62": ">",
  "63": "?",
  "64": "@",
  "65": "A",
  "66": "B",
  "67": "C",
  "68": "D",
  "69": "E",
  "70": "F",
  "71": "G",
  "72": "H",
  "73": "I",
  "74": "J",
  "75": "K",
  "76": "L",
  "77": "M",
  "78": "N",
  "79": "O",
  "80": "P",
  "81": "Q",
  "82": "R",
  "83": "S",
  "84": "T",
  "85": "U",
  "86": "V",
  "87": "W",
  "88": "X",
  "89": "Y",
  "90": "Z",
  "91": "[",
  "92": "\\",
  "93": "]",
  "94": "^",
  "95": "_",
  "96": "`",
  "97": "a",
  "98": "b",
  "99": "c",
  "100": "d",
  "101": "e",
  "102": "f",
  "103": "g",
  "104": "h",
  "105": "i",
  "106": "j",
  "107": "k",
  "108": "l",
  "109": "m",
  "110": "n",
  "111": "o",
  "112": "p",
  "113": "q",
  "114": "r",
  "115": "s",
  "116": "t",
  "117": "u",
  "118": "v",
  "119": "w",
  "120": "x",
  "121": "y",
  "122": "z",
  "123": "{",
  "124": "|",
  "125": "}",
  "126": "~",
  "127": "",
  "128": "�",
  "129": "�",
  "130": "�",
  "131": "�",
  "132": "�",
  "133": "�",
  "134": "�",
  "135": "�",
  "136": "�",
  "137": "�",
  "138": "�",
  "139": "�",
  "140": "�",
  "141": "�",
  "142": "�",
  "143": "�",
  "144": "�",
  "145": "�",
  "146": "�",
  "147": "�",
  "148": "�",
  "149": "�",
  "150": "�",
  "151": "�",
  "152": "�",
  "153": "�",
  "154": "�",
  "155": "�",
  "156": "�",
  "157": "�",
  "158": "�",
  "159": "�",
  "160": "�",
  "161": "�",
  "162": "�",
  "163": "�",
  "164": "�",
  "165": "�",
  "166": "�",
  "167": "�",
  "168": "�",
  "169": "�",
  "170": "�",
  "171": "�",
  "172": "�",
  "173": "�",
  "174": "�",
  "175": "�",
  "176": "�",
  "177": "�",
  "178": "�",
  "179": "�",
  "180": "�",
  "181": "�",
  "182": "�",
  "183": "�",
  "184": "�",
  "185": "�",
  "186": "�",
  "187": "�",
  "188": "�",
  "189": "�",
  "190": "�",
  "191": "�",
  "192": "�",
  "193": "�",
  "194": "�",
  "195": "�",
  "196": "�",
  "197": "�",
  "198": "�",
  "199": "�",
  "200": "�",
  "201": "�",
  "202": "�",
  "203": "�",
  "204": "�",
  "205": "�",
  "206": "�",
  "207": "�",
  "208": "�",
  "209": "�",
  "210": "�",
  "211": "�",
  "212": "�",
  "213": "�",
  "214": "�",
  "215": "�",
  "216": "�",
  "217": "�",
  "218": "�",
  "219": "�",
  "220": "�",
  "221": "�",
  "222": "�",
  "223": "�",
  "224": "�",
  "225": "�",
  "226": "�",
  "227": "�",
  "228": "�",
  "229": "�",
  "230": "�",
  "231": "�",
  "232": "�",
  "233": "�",
  "234": "�",
  "235": "�",
  "236": "�",
  "237": "�",
  "238": "�",
  "239": "�",
  "240": "�",
  "241": "�",
  "242": "�",
  "243": "�",
  "244": "�",
  "245": "�",
  "246": "�",
  "247": "�",
  "248": "�",
  "249": "�",
  "250": "�",
  "251": "�",
  "252": "�",
  "253": "�",
  "254": "�",
  "255": "�",
  "256": "�",
  "257": "�",
  "258": "�",
  "259": " �",
  "260": "�",
  "261": "ा",
  "262": "र",
  "263": " �",
  "264": "्",
  "265": "े",
  "266": "en",
  "267": "an",
  "268": "ा�",
  "269": "de",
  "270": "्�",
  "271": "in",
  "272": " t",
  "273": "్",
  "274": "es",
  "275": "ా",
  "276": "on",
  "277": "ि",
  "278": " l",
  "279": "్�",
  "280": "er",
  "281": " क",
  "282": "ं",
  "283": "ी",
  "284": " de",
  "285": "ా�",
  "286": "al",
  "287": "as",
  "288": "ి",
  "289": "ि�",
  "290": " c",
  "291": "ar",
  "292": "di",
  "293": " p",
  "294": " s",
  "295": "he",
  "296": "os",
  "297": "or",
  "298": "त",
  "299": "ు",
  "300": " m",
  "301": " e",
  "302": "ti",
  "303": "ం",
  "304": " the",
  "305": " स",
  "306": "न",
  "307": " I",
  "308": "ो",
  "309": "ci",
  "310": "re",
  "311": " a",
  "312": "ent",
  "313": " la",
  "314": "ి�",
  "315": " In",
  "316": " in",
  "317": " म",
  "318": " o",
  "319": "क",
  "320": "ार",
  "321": " ह",
  "322": "ం�",
  "323": "is",
  "324": " Indi",
  "325": "्र",
  "326": " प",
  "327": "and",
  "328": "om",
  "329": " f",
  "330": "ed",
  "331": " के",
  "332": "it",
  "333": "स",
  "334": " b",
  "335": "ै",
  "336": "ु",
  "337": "ad",
  "338": " el",
  "339": "ें",
  "340": " of",
  "341": "un",
  "342": " India",
  "343": " w",
  "344": "ic",
  "345": "at",
  "346": " and",
  "347": "త",
  "348": " भ",
  "349": " y",
  "350": "।",
  "351": "ur",
  "352": " में",
  "353": " en",
  "354": "న",
  "355": "ల",
  "356": " h",
  "357": "ó",
  "358": "�",
  "359": "ర",
  "360": "म",
  "361": " है",
  "362": " n",
  "363": "्य",
  "364": "am",
  "365": "ే",
  "366": "ో",
  "367": "్ర",
  "368": "ल",
  "369": "ing",
  "370": " ప",
  "371": " अ",
  "372": "ं�",
  "373": "ro",
  "374": "ह",
  "375": " g",
  "376": "य",
  "377": "ारत",
  "378": "ార",
  "379": " re",
  "380": "í",
  "381": " ज",
  "382": " न",
  "383": " ब",
  "384": "र्�",
  "385": "á",
  "386": "est",
  "387": " con",
  "388": "క",
  "389": "ra",
  "390": " व",
  "391": " भारत",
  "392": "प",
  "393": "tion",
  "394": "ాల",
  "395": "ri",
  "396": "ul",
  "397": "ol",
  "398": " द",
  "399": "qu",
  "400": "ों",
  "401": "us",
  "402": "िय",
  "403": "िक",
  "404": "ద",
  "405": " se",
  "406": "il",
  "407": " un",
  "408": "ీ",
  "409": " C",
  "410": " औ",
  "411": " to",
  "412": "19",
  "413": " और",
  "414": " र",
  "415": "द",
  "416": "ón",
  "417": "​",
  "418": "ू",
  "419": " A",
  "420": "ान",
  "421": "te",
  "422": "्त",
  "423": "le",
  "424": " d",
  "425": "व",
  "426": " los",
  "427": "श",
  "428": " స",
  "429": "aci",
  "430": "ig",
  "431": " (",
  "432": ".\n",
  "433": " క",
  "434": " की",
  "435": "th",
  "436": " T",
  "437": "20",
  "438": " त",
  "439": "ly",
  "440": "im",
  "441": "ే�",
  "442": " E",
  "443": " प्र",
  "444": " r",
  "445": "id",
  "446": " del",
  "447": "ु�",
  "448": "ver",
  "449": "ist",
  "450": "మ",
  "451": " com",
  "452": "que",
  "453": "్య",
  "454": " B",
  "455": "ec",
  "456": " par",
  "457": "వ",
  "458": " S",
  "459": "़",
  "460": " से",
  "461": "é",
  "462": " su",
  "463": "ाज",
  "464": " వ",
  "465": " का",
  "466": " మ",
  "467": "ment",
  "468": " las",
  "469": "ग",
  "470": ".​",
  "471": "ve",
  "472": "ाल",
  "473": "ीय",
  "474": " P",
  "475": "ab",
  "476": " al",
  "477": "ter",
  "478": " ग",
  "479": "ంద",
  "480": " M",
  "481": "tic",
  "482": "ion",
  "483": "ch",
  "484": "ేశ",
  "485": " आ",
  "486": " ar",
  "487": "ce",
  "488": " que",
  "489": "do",
  "490": " di",
  "491": "ిక",
  "492": "ె",
  "493": "्ष",
  "494": "ప",
  "495": "ales",
  "496": "డ",
  "497": "ás",
  "498": " उ",
  "499": " po",
  "500": "ध",
  "501": "లు",
  "502": "res",
  "503": " ल",
  "504": "�ార",
  "505": " v",
  "506": " por",
  "507": "�ారత",
  "508": " ర",
  "509": "్న",
  "510": "ir",
  "511": " est",
  "512": " es",
  "513": " L",
  "514": "ation",
  "515": " पर",
  "516": " ప్ర",
  "517": " is",
  "518": "ay",
  "519": "�ा",
  "520": "�్�",
  "521": "der",
  "522": "con",
  "523": " इ",
  "524": " श",
  "525": "भ",
  "526": "ూ",
  "527": " for",
  "528": " ex",
  "529": "�ో",
  "530": "ాలు",
  "531": " th",
  "532": "ब",
  "533": "ड",
  "534": "ట",
  "535": "ై",
  "536": "ado",
  "537": " को",
  "538": " అ",
  "539": "et",
  "540": "िया",
  "541": "lo",
  "542": "tu",
  "543": "्व",
  "544": "ात",
  "545": " हैं",
  "546": "ిన",
  "547": " ए",
  "548": "st",
  "549": "య",
  "550": " by",
  "551": "00",
  "552": "du",
  "553": " Indian",
  "554": "io",
  "555": " D",
  "556": " वि�",
  "557": " य",
  "558": " so",
  "559": "ण",
  "560": "mp",
  "561": "ాన",
  "562": "ant",
  "563": " as",
  "564": "ర్�",
  "565": "ación",
  "566": "ones",
  "567": " The",
  "568": "ut",
  "569": "ast",
  "570": " G",
  "571": "ित",
  "572": " más",
  "573": "ente",
  "574": " ने",
  "575": "గ",
  "576": " N",
  "577": " कर",
  "578": " ద",
  "579": "ú",
  "580": "bi",
  "581": " an",
  "582": "ाम",
  "583": "त्र",
  "584": "ac",
  "585": "ास",
  "586": "१",
  "587": "ith",
  "588": "న్న",
  "589": " or",
  "590": "िन",
  "591": "ang",
  "592": " per",
  "593": "ज",
  "594": " ఉ",
  "595": "si",
  "596": " pro",
  "597": "ada",
  "598": "।\n",
  "599": "ంది",
  "600": "'s",
  "601": "ेश",
  "602": " च",
  "603": "ía",
  "604": "ill",
  "605": "ag",
  "606": "pe",
  "607": " be",
  "608": " wh",
  "609": "ाद",
  "610": "ता",
  "611": "ने",
  "612": "ాయ",
  "613": "ran",
  "614": "्ट",
  "615": "ate",
  "616": "क्ष",
  "617": "ट",
  "618": "च",
  "619": " राज",
  "620": "దేశ",
  "621": " with",
  "622": "rom",
  "623": "ere",
  "624": "ంచ",
  "625": " una",
  "626": "ong",
  "627": " was",
  "628": "०",
  "629": "ాత",
  "630": "ern",
  "631": " H",
  "632": "ृ",
  "633": "िस",
  "634": " सं�",
  "635": " co",
  "636": "ari",
  "637": "ain",
  "638": "por",
  "639": "lu",
  "640": "mb",
  "641": "्द",
  "642": "ाष",
  "643": "ంగ",
  "644": "mer",
  "645": "ड़",
  "646": " న",
  "647": "mo",
  "648": "rit",
  "649": " indi",
  "650": " %",
  "651": " భారత",
  "652": "li",
  "653": " इस",
  "654": " सम",
  "655": "్వ",
  "656": "ధ",
  "657": "ica",
  "658": "to",
  "659": " inc",
  "660": "ाय",
  "661": "ంలో",
  "662": "్ట",
  "663": "ñ",
  "664": "cial",
  "665": "tr",
  "666": "bl",
  "667": " it",
  "668": "201",
  "669": "ना",
  "670": "९",
  "671": "ct",
  "672": " भारतीय",
  "673": "था",
  "674": " చ",
  "675": "arg",
  "676": " no",
  "677": " lo",
  "678": "aj",
  "679": " des",
  "680": "ां",
  "681": "ult",
  "682": "ug",
  "683": " तथा",
  "684": " జ",
  "685": " R",
  "686": " एक",
  "687": " अन",
  "688": "లో",
  "689": "ción",
  "690": "ak",
  "691": " econ",
  "692": " mo",
  "693": " हु�",
  "694": "२",
  "695": "ient",
  "696": " on",
  "697": "up",
  "698": "ich",
  "699": " भी",
  "700": "క్�",
  "701": "ీయ",
  "702": " from",
  "703": " has",
  "704": " go",
  "705": ".\n\n",
  "706": " ha",
  "707": " हो",
  "708": " ఇ",
  "709": " tra",
  "710": " En",
  "711": "ंग",
  "712": "్ల",
  "713": "స",
  "714": "ts",
  "715": "ma",
  "716": "\n\n",
  "717": "ाव",
  "718": "స్�",
  "719": "ండ",
  "720": "ను",
  "721": " nor",
  "722": "200",
  "723": "ue",
  "724": "ించ",
  "725": "án",
  "726": " como",
  "727": "ados",
  "728": " reg",
  "729": " im",
  "730": "),",
  "731": " cu",
  "732": "्थ",
  "733": "से",
  "734": "ొ",
  "735": "హ",
  "736": "ud",
  "737": " rel",
  "738": " pl",
  "739": "el",
  "740": " which",
  "741": "ien",
  "742": " cont",
  "743": "inist",
  "744": "र्व",
  "745": " para",
  "746": "ally",
  "747": " mill",
  "748": " me",
  "749": " सा�",
  "750": "र्म",
  "751": "कार",
  "752": "కు",
  "753": "mente",
  "754": "acion",
  "755": "dia",
  "756": " sub",
  "757": "ugh",
  "758": "og",
  "759": "िम",
  "760": "ृत",
  "761": "ాం",
  "762": "cia",
  "763": "har",
  "764": "des",
  "765": "iv",
  "766": " st",
  "767": " cent",
  "768": " U",
  "769": " La",
  "770": " pa",
  "771": "िल",
  "772": " जात",
  "773": "ís",
  "774": "In",
  "775": " are",
  "776": "se",
  "777": " k",
  "778": " pri",
  "779": " W",
  "780": "ौ",
  "781": "ष",
  "782": "ణ",
  "783": "ులు",
  "784": "చ",
  "785": " O",
  "786": " ag",
  "787": " le",
  "788": "భారత",
  "789": " దేశ",
  "790": " ఆ",
  "791": "ta",
  "792": "ity",
  "793": "port",
  "794": "hi",
  "795": " cl",
  "796": "per",
  "797": " mar",
  "798": " किया",
  "799": " త",
  "800": " its",
  "801": "tiv",
  "802": " econom",
  "803": "–",
  "804": "ाँ",
  "805": "ाई",
  "806": "री",
  "807": " वर्�",
  "808": "ిత",
  "809": "én",
  "810": "ld",
  "811": " cons",
  "812": "ces",
  "813": "ीन",
  "814": "ाप",
  "815": "ambi",
  "816": "uer",
  "817": " Ch",
  "818": " res",
  "819": "titu",
  "820": "199",
  "821": " तक",
  "822": " రా�",
  "823": "ింది",
  "824": "for",
  "825": "uc",
  "826": " ter",
  "827": "av",
  "828": "के",
  "829": " గ",
  "830": "eng",
  "831": "man",
  "832": " were",
  "833": " J",
  "834": "ary",
  "835": " \"",
  "836": "ori",
  "837": " ent",
  "838": " j",
  "839": "िण",
  "840": " ध",
  "841": "ుత",
  "842": "ంట",
  "843": " బ",
  "844": "uth",
  "845": " India's",
  "846": "ated",
  "847": " at",
  "848": " ad",
  "849": "ura",
  "850": "ores",
  "851": " El",
  "852": "या",
  "853": "ंत्र",
  "854": "ई",
  "855": " राज्य",
  "856": "१९",
  "857": "ాయి",
  "858": "భ",
  "859": " Asi",
  "860": " V",
  "861": " cre",
  "862": "195",
  "863": "ap",
  "864": " F",
  "865": " pr",
  "866": " inclu",
  "867": "iz",
  "868": " देश",
  "869": " जन",
  "870": "स्�",
  "871": " यह",
  "872": "५",
  "873": " साथ",
  "874": "४",
  "875": "జ",
  "876": "ైన",
  "877": "pul",
  "878": " form",
  "879": " ac",
  "880": " sig",
  "881": "196",
  "882": " स्थ",
  "883": "ते",
  "884": "ूप",
  "885": " భ",
  "886": "రు",
  "887": "ambién",
  "888": " gran",
  "889": "me",
  "890": " region",
  "891": "ism",
  "892": " comp",
  "893": "sh",
  "894": "ical",
  "895": " larg",
  "896": " K",
  "897": " dur",
  "898": "ando",
  "899": "bre",
  "900": "धिक",
  "901": "्तर",
  "902": "क्षिण",
  "903": " उत",
  "904": "ीं",
  "905": "ोग",
  "906": "ख",
  "907": "ిస్�",
  "908": "ద్�",
  "909": "ము",
  "910": "ూడ",
  "911": " país",
  "912": "orld",
  "913": "end",
  "914": "vi",
  "915": "202",
  "916": "ener",
  "917": " दक्षिण",
  "918": " पू",
  "919": "िन्द",
  "920": " था",
  "921": " रह",
  "922": " बन",
  "923": " अप",
  "924": "‌",
  "925": "्षे",
  "926": " बह",
  "927": " सर",
  "928": " añ",
  "929": "India",
  "930": " pol",
  "931": "ame",
  "932": "vern",
  "933": "vers",
  "934": " tradi",
  "935": " man",
  "936": "und",
  "937": "so",
  "938": " may",
  "939": "्रे",
  "940": "�ं",
  "941": " गया",
  "942": " जिस",
  "943": " क्षे",
  "944": " क्षेत्र",
  "945": "ॉ",
  "946": " सरकार",
  "947": " ఎ",
  "948": "ంగా",
  "949": "ante",
  "950": "encia",
  "951": "acional",
  "952": "amente",
  "953": " popul",
  "954": "ear",
  "955": "tin",
  "956": " li",
  "957": "ni",
  "958": "duc",
  "959": "fter",
  "960": "ine",
  "961": "co",
  "962": " साम",
  "963": " सं",
  "964": "्ध",
  "965": "िर",
  "966": "ंध",
  "967": " बाद",
  "968": "ంత",
  "969": "ని",
  "970": " సం�",
  "971": ".​\n",
  "972": "ida",
  "973": "ún",
  "974": " son",
  "975": "ost",
  "976": "ded",
  "977": " Hin",
  "978": " rep",
  "979": "fer",
  "980": "ban",
  "981": " te",
  "982": " mu",
  "983": " sur",
  "984": "भारत",
  "985": " विश",
  "986": "ाग",
  "987": " भाष",
  "988": "ढ",
  "989": "क्त",
  "990": " ఉన్న",
  "991": "ిగ",
  "992": " శ",
  "993": "క్ష",
  "994": " భారతదేశ",
  "995": "ారు",
  "996": " también",
  "997": "ido",
  "998": " Asia",
  "999": "dus",
  "1000": "age",
  "1001": "ture",
  "1002": "gan",
  "1003": " relig",
  "1004": "ament",
  "1005": "vernment",
  "1006": "adas",
  "1007": "ाज्य",
  "1008": "फ",
  "1009": " सब",
  "1010": " सबसे",
  "1011": "्च",
  "1012": "८",
  "1013": "ंद",
  "1014": "ुख",
  "1015": "ाण",
  "1016": "గా",
  "1017": " mayor",
  "1018": "iento",
  "1019": "ty",
  "1020": " bec",
  "1021": "ral",
  "1022": "ect",
  "1023": "low",
  "1024": "ass",
  "1025": "we",
  "1026": "od",
  "1027": "les",
  "1028": " emp",
  "1029": "amil",
  "1030": " हिन्द",
  "1031": " थ",
  "1032": "ाओं",
  "1033": "ढ़",
  "1034": "६",
  "1035": "७",
  "1036": "్చ",
  "1037": " వి�",
  "1038": "బ",
  "1039": "La",
  "1040": "és",
  "1041": " mun",
  "1042": "ismo",
  "1043": "aciones",
  "1044": "eron",
  "1045": "dern",
  "1046": "000",
  "1047": "ers",
  "1048": " into",
  "1049": "ans",
  "1050": " Com",
  "1051": " inf",
  "1052": "ance",
  "1053": "lear",
  "1054": "all",
  "1055": "—",
  "1056": "ore",
  "1057": "cip",
  "1058": "dem",
  "1059": "za",
  "1060": " minist",
  "1061": "का",
  "1062": "ाष्ट",
  "1063": "ाष्ट्र",
  "1064": " कार",
  "1065": "ुन",
  "1066": "ాద",
  "1067": "ిప",
  "1068": "ha",
  "1069": "contin",
  "1070": "angu",
  "1071": "ury",
  "1072": "ies",
  "1073": "ire",
  "1074": " ch",
  "1075": "ome",
  "1076": " hab",
  "1077": "ons",
  "1078": " ur",
  "1079": "rol",
  "1080": " cr",
  "1081": "ाक",
  "1082": "कर",
  "1083": "ति",
  "1084": "िका",
  "1085": "ठ",
  "1086": "ామ",
  "1087": "antes",
  "1088": "ciones",
  "1089": "ous",
  "1090": " north",
  "1091": "ural",
  "1092": "18",
  "1093": "ok",
  "1094": "ding",
  "1095": "uclear",
  "1096": "ates",
  "1097": " urban",
  "1098": "ress",
  "1099": "erv",
  "1100": " gener",
  "1101": "ber",
  "1102": "ios",
  "1103": "198",
  "1104": "ंग्रे",
  "1105": "्ल",
  "1106": "ती",
  "1107": "्प",
  "1108": " फ",
  "1109": "ली",
  "1110": "ुर",
  "1111": "िए",
  "1112": " दो",
  "1113": " पह",
  "1114": " अधिक",
  "1115": "�్ట",
  "1116": "ది",
  "1117": " pobl",
  "1118": "ras",
  "1119": " So",
  "1120": " oc",
  "1121": " pre",
  "1122": "omin",
  "1123": " ri",
  "1124": "pp",
  "1125": "ati",
  "1126": " fir",
  "1127": "ual",
  "1128": "reas",
  "1129": "ie",
  "1130": "op",
  "1131": "ric",
  "1132": "tions",
  "1133": "ali",
  "1134": " entre",
  "1135": "्म",
  "1136": "की",
  "1137": " शास",
  "1138": "र्थ",
  "1139": "భారతదేశ",
  "1140": "ిస్త",
  "1141": "ియ",
  "1142": "ధిక",
  "1143": " కూడ",
  "1144": " హ",
  "1145": " tien",
  "1146": " años",
  "1147": "fi",
  "1148": " sin",
  "1149": "ence",
  "1150": "194",
  "1151": " subcontin",
  "1152": "fe",
  "1153": " langu",
  "1154": "ose",
  "1155": " parti",
  "1156": " fe",
  "1157": " mil",
  "1158": "tern",
  "1159": "ros",
  "1160": "vo",
  "1161": "min",
  "1162": " government",
  "1163": " territ",
  "1164": "197",
  "1165": " sus",
  "1166": " धर्म",
  "1167": "द्ध",
  "1168": "रे",
  "1169": " रूप",
  "1170": " वर्ष",
  "1171": "ुस",
  "1172": " बहु",
  "1173": "్త",
  "1174": "ాక",
  "1175": " parte",
  "1176": "entes",
  "1177": " fuer",
  "1178": "biern",
  "1179": " world",
  "1180": " hu",
  "1181": "igh",
  "1182": " modern",
  "1183": "ste",
  "1184": " ne",
  "1185": " ext",
  "1186": "The",
  "1187": "imal",
  "1188": "rib",
  "1189": "tim",
  "1190": " prin",
  "1191": "gu",
  "1192": " elec",
  "1193": " mus",
  "1194": " विश्व",
  "1195": " मह",
  "1196": "्न",
  "1197": "िश",
  "1198": " राष्ट्र",
  "1199": " घ",
  "1200": " जो",
  "1201": "ियों",
  "1202": " ఈ",
  "1203": "ుల",
  "1204": "ట్ట",
  "1205": "ిల",
  "1206": "ృ",
  "1207": " mundo",
  "1208": "ión",
  "1209": "ciales",
  "1210": "aron",
  "1211": "ico",
  "1212": "ia",
  "1213": " year",
  "1214": " cas",
  "1215": " Ma",
  "1216": " dec",
  "1217": " medi",
  "1218": " first",
  "1219": " sy",
  "1220": " dis",
  "1221": " hist",
  "1222": "peci",
  "1223": " पूर्व",
  "1224": "नी",
  "1225": "िव",
  "1226": "।\n\n",
  "1227": "ఖ",
  "1228": " రాజ",
  "1229": " población",
  "1230": "tica",
  "1231": "icos",
  "1232": "bierno",
  "1233": "engal",
  "1234": " cult",
  "1235": " pe",
  "1236": "row",
  "1237": "olog",
  "1238": " milit",
  "1239": "ens",
  "1240": "oth",
  "1241": "able",
  "1242": "cul",
  "1243": "enta",
  "1244": "dial",
  "1245": " नाम",
  "1246": " बड़",
  "1247": "ोल",
  "1248": "रा",
  "1249": " हुआ",
  "1250": "ाच",
  "1251": " हुई",
  "1252": "ए",
  "1253": " नि",
  "1254": "धान",
  "1255": "తి",
  "1256": " ఒ",
  "1257": " భా�",
  "1258": "ాబ",
  "1259": " పర",
  "1260": "చ్చ",
  "1261": "ార్�",
  "1262": "ికి",
  "1263": "óm",
  "1264": "iste",
  "1265": "akist",
  "1266": "used",
  "1267": " became",
  "1268": " over",
  "1269": "ik",
  "1270": "titution",
  "1271": "wo",
  "1272": "ted",
  "1273": " syste",
  "1274": "form",
  "1275": " Th",
  "1276": " during",
  "1277": " ci",
  "1278": " Un",
  "1279": " Cong",
  "1280": "ana",
  "1281": " import",
  "1282": "ares",
  "1283": " –",
  "1284": "ंड",
  "1285": "ैन",
  "1286": "ाब",
  "1287": " स्व",
  "1288": "ोड़",
  "1289": " दे",
  "1290": " जाता",
  "1291": "ाए",
  "1292": "स्त",
  "1293": "ाने",
  "1294": " మొ",
  "1295": "�్ట్ర",
  "1296": "క్క",
  "1297": "ువ",
  "1298": "్రీ",
  "1299": "ిర",
  "1300": " ల",
  "1301": "ాతీయ",
  "1302": " రై",
  "1303": " hin",
  "1304": " princip",
  "1305": ",​",
  "1306": " nacional",
  "1307": " sobre",
  "1308": " tiene",
  "1309": " Los",
  "1310": "pu",
  "1311": " south",
  "1312": "estern",
  "1313": " had",
  "1314": "ages",
  "1315": " but",
  "1316": "anges",
  "1317": "ide",
  "1318": "ational",
  "1319": "ajor",
  "1320": " been",
  "1321": " system",
  "1322": " fo",
  "1323": "fic",
  "1324": " have",
  "1325": "ya",
  "1326": " also",
  "1327": "ive",
  "1328": " pres",
  "1329": "cu",
  "1330": " dos",
  "1331": " उत्तर",
  "1332": "स्क",
  "1333": "स्कृत",
  "1334": " दिया",
  "1335": "ाली",
  "1336": " शासन",
  "1337": " प्रम",
  "1338": " प्रद",
  "1339": "में",
  "1340": " मान",
  "1341": "ाह",
  "1342": "ुल",
  "1343": "ारी",
  "1344": "ద్ద",
  "1345": "్మ",
  "1346": "ళ",
  "1347": " millones",
  "1348": "idad",
  "1349": " indios",
  "1350": " Pakist",
  "1351": "ina",
  "1352": " long",
  "1353": "merg",
  "1354": " gr",
  "1355": " Indo",
  "1356": " Hindu",
  "1357": " Bud",
  "1358": "dh",
  "1359": " art",
  "1360": " col",
  "1361": " influ",
  "1362": "ions",
  "1363": "cal",
  "1364": " lit",
  "1365": " nuclear",
  "1366": " ab",
  "1367": "wer",
  "1368": "26",
  "1369": " nu",
  "1370": " more",
  "1371": "pecies",
  "1372": " उप",
  "1373": "कि",
  "1374": "्तान",
  "1375": "ालय",
  "1376": " ई",
  "1377": " पार",
  "1378": " बढ़",
  "1379": " व्य",
  "1380": "ंद्र",
  "1381": "३",
  "1382": " ड",
  "1383": "न्द",
  "1384": "స్థ",
  "1385": " వ్య",
  "1386": "మైన",
  "1387": "ింద",
  "1388": "ౌ",
  "1389": "ంత్ర",
  "1390": "్ప",
  "1391": " comer",
  "1392": " otr",
  "1393": " primer",
  "1394": "cion",
  "1395": "try",
  "1396": " South",
  "1397": " most",
  "1398": " inde",
  "1399": " Bengal",
  "1400": "la",
  "1401": "mar",
  "1402": " years",
  "1403": "ins",
  "1404": "CE",
  "1405": "wn",
  "1406": "ite",
  "1407": " exp",
  "1408": " after",
  "1409": "til",
  "1410": " million",
  "1411": " increas",
  "1412": " class",
  "1413": " that",
  "1414": " century",
  "1415": "ho",
  "1416": " divers",
  "1417": " such",
  "1418": "jo",
  "1419": "reat",
  "1420": "tive",
  "1421": " ra",
  "1422": "17",
  "1423": "ru",
  "1424": "tal",
  "1425": " end",
  "1426": "mon",
  "1427": "्री",
  "1428": " थी",
  "1429": " समय",
  "1430": "त्य",
  "1431": " लिए",
  "1432": "ाप्त",
  "1433": " प्रमुख",
  "1434": " केंद्र",
  "1435": " अन्य",
  "1436": " उन",
  "1437": " अनुस",
  "1438": "रिक",
  "1439": "ले",
  "1440": "ँ",
  "1441": "थ",
  "1442": " छ",
  "1443": " राज्यों",
  "1444": "�ंध",
  "1445": "००",
  "1446": "స్త",
  "1447": "ిమ",
  "1448": " పే",
  "1449": " este",
  "1450": "demás",
  "1451": " india",
  "1452": "almente",
  "1453": "gún",
  "1454": " cada",
  "1455": " Re",
  "1456": " indep",
  "1457": " An",
  "1458": " emerg",
  "1459": " bas",
  "1460": " social",
  "1461": "tical",
  "1462": "ures",
  "1463": " two",
  "1464": " rul",
  "1465": " liter",
  "1466": "mong",
  "1467": "dos",
  "1468": " both",
  "1469": " Cons",
  "1470": " vari",
  "1471": " orig",
  "1472": " z",
  "1473": "als",
  "1474": "ph",
  "1475": " not",
  "1476": " ca",
  "1477": "minist",
  "1478": " much",
  "1479": "ario",
  "1480": "amb",
  "1481": "ven",
  "1482": " Go",
  "1483": " Congress",
  "1484": " car",
  "1485": " prime",
  "1486": " prop",
  "1487": "udi",
  "1488": " ve",
  "1489": "ीप",
  "1490": " भू",
  "1491": " मिल",
  "1492": " संघ",
  "1493": " चुन",
  "1494": " हिन्दी",
  "1495": "ेट",
  "1496": " द्व",
  "1497": "हीं",
  "1498": " జన",
  "1499": " స్�",
  "1500": " స్థ",
  "1501": " ము",
  "1502": " ఉంది",
  "1503": " అధిక",
  "1504": "నే",
  "1505": "త్త",
  "1506": " ఉన్నాయి",
  "1507": " లో",
  "1508": "ాట",
  "1509": " fue",
  "1510": "ier",
  "1511": " dé",
  "1512": "yen",
  "1513": " human",
  "1514": " BCE",
  "1515": "uro",
  "1516": "ff",
  "1517": "cor",
  "1518": " Emp",
  "1519": "era",
  "1520": "ultan",
  "1521": " cos",
  "1522": "riti",
  "1523": " Comp",
  "1524": "ign",
  "1525": " large",
  "1526": "rough",
  "1527": " major",
  "1528": "ough",
  "1529": "put",
  "1530": " ho",
  "1531": "etwe",
  "1532": "etween",
  "1533": "no",
  "1534": "ron",
  "1535": " control",
  "1536": " administ",
  "1537": " pen",
  "1538": " under",
  "1539": " Al",
  "1540": " mat",
  "1541": "leg",
  "1542": "vas",
  "1543": " fol",
  "1544": "mber",
  "1545": " territori",
  "1546": " Himal",
  "1547": " Himalay",
  "1548": "21",
  "1549": "श्च",
  "1550": "श्चिम",
  "1551": "िस्तान",
  "1552": " ख",
  "1553": "म्�",
  "1554": "ध्य",
  "1555": "सी",
  "1556": "ैद",
  "1557": " करने",
  "1558": " रहा",
  "1559": "ोक",
  "1560": " देशों",
  "1561": "िये",
  "1562": "िध",
  "1563": " दश",
  "1564": " न्य",
  "1565": " अम",
  "1566": " ఏ",
  "1567": "వస్థ",
  "1568": " రాష్ట్ర",
  "1569": " ఒక",
  "1570": "ాస",
  "1571": "ుకు",
  "1572": " మార్�",
  "1573": "తర",
  "1574": "ర్",
  "1575": " ఎన్న",
  "1576": ".​​",
  "1577": "este",
  "1578": " indio",
  "1579": "anos",
  "1580": " déc",
  "1581": "blic",
  "1582": " coun",
  "1583": " Ne",
  "1584": "ved",
  "1585": "ath",
  "1586": "isation",
  "1587": "urope",
  "1588": " language",
  "1589": " caste",
  "1590": " this",
  "1591": "ish",
  "1592": "lam",
  "1593": "hed",
  "1594": " Empire",
  "1595": "ulture",
  "1596": " leg",
  "1597": " Briti",
  "1598": " British",
  "1599": "any",
  "1600": " population",
  "1601": "cio",
  "1602": "gl",
  "1603": "rat",
  "1604": " men",
  "1605": "ry",
  "1606": "enc",
  "1607": "ory",
  "1608": " perio",
  "1609": " Mo",
  "1610": "ten",
  "1611": " agric",
  "1612": " famil",
  "1613": "roc",
  "1614": " grow",
  "1615": "rans",
  "1616": " their",
  "1617": " part",
  "1618": "dic",
  "1619": " he",
  "1620": "cent",
  "1621": " serv",
  "1622": " ob",
  "1623": " mon",
  "1624": "40",
  "1625": " minister",
  "1626": " general",
  "1627": " De",
  "1628": "da",
  "1629": "राज्य",
  "1630": " अंग्रे",
  "1631": " अंग्रेज",
  "1632": "़ी",
  "1633": " एश",
  "1634": " पाक",
  "1635": " पाकिस्तान",
  "1636": "ीव",
  "1637": " लग",
  "1638": " ईस",
  "1639": " संस्कृत",
  "1640": " हुए",
  "1641": "प्र",
  "1642": " स्वत",
  "1643": " जिन",
  "1644": "्ह",
  "1645": "द्य",
  "1646": " सह",
  "1647": " अनुसार",
  "1648": "ाचीन",
  "1649": " या",
  "1650": " कई",
  "1651": " निर्म",
  "1652": " विक",
  "1653": " होता",
  "1654": "ीच",
  "1655": " अल",
  "1656": "ाया",
  "1657": "ारा",
  "1658": " नहीं",
  "1659": " कारण",
  "1660": "�िध",
  "1661": " चुनाव",
  "1662": " కల",
  "1663": " పార",
  "1664": "్యం",
  "1665": "ుక",
  "1666": "ాణ",
  "1667": " హింద",
  "1668": "తో",
  "1669": "ద్ధ",
  "1670": "ిన్న",
  "1671": "్రమ",
  "1672": " వచ్చ",
  "1673": "ివ",
  "1674": "ానికి",
  "1675": "ెండ",
  "1676": " మార్గ",
  "1677": " desde",
  "1678": "rá",
  "1679": " siste",
  "1680": " económ",
  "1681": "ías",
  "1682": " Mun",
  "1683": " Mundial",
  "1684": " Est",
  "1685": ".​\n\n",
  "1686": " polí",
  "1687": " poder",
  "1688": "moc",
  "1689": " Se",
  "1690": "um",
  "1691": " ear",
  "1692": "ations",
  "1693": "uch",
  "1694": " Cent",
  "1695": " Del",
  "1696": " Mugh",
  "1697": " economic",
  "1698": " began",
  "1699": "ther",
  "1700": "act",
  "1701": " many",
  "1702": " origin",
  "1703": "dust",
  "1704": " between",
  "1705": "50",
  "1706": "ene",
  "1707": "ting",
  "1708": " some",
  "1709": "ure",
  "1710": "ack",
  "1711": "lowing",
  "1712": "vir",
  "1713": " trans",
  "1714": "ds",
  "1715": "ular",
  "1716": " ap",
  "1717": "10",
  "1718": "idi",
  "1719": " dire",
  "1720": " repres",
  "1721": "uras",
  "1722": "una",
  "1723": "ble",
  "1724": "tre",
  "1725": " Par",
  "1726": "JP",
  "1727": "cim",
  "1728": " dance",
  "1729": " u",
  "1730": " इसके",
  "1731": "र्ण",
  "1732": " एव",
  "1733": " साम्र",
  "1734": " साम्राज्य",
  "1735": " मध्य",
  "1736": " करोड़",
  "1737": "ीत",
  "1738": "मान",
  "1739": "ियाँ",
  "1740": " देख",
  "1741": "र्ज",
  "1742": " विद",
  "1743": "र्ष",
  "1744": "र्त",
  "1745": " ऊ",
  "1746": "ुक्त",
  "1747": "्क",
  "1748": "ाध",
  "1749": " ही",
  "1750": " सद",
  "1751": "�िधान",
  "1752": "ंत्री",
  "1753": " संस",
  "1754": " दशक",
  "1755": " लोक",
  "1756": " न्याय",
  "1757": "టి",
  "1758": "శ",
  "1759": " స్వ",
  "1760": "ియా",
  "1761": "ాగ",
  "1762": " మత",
  "1763": "ష",
  "1764": "ధ్య",
  "1765": "ధాన",
  "1766": "ావ",
  "1767": " కూడా",
  "1768": "icas",
  "1769": "tos",
  "1770": "cuent",
  "1771": "rí",
  "1772": "ización",
  "1773": "ticas",
  "1774": "ración",
  "1775": "ajo",
  "1776": " It",
  "1777": " world's",
  "1778": " Pakistan",
  "1779": "rica",
  "1780": " later",
  "1781": " ma",
  "1782": "ivil",
  "1783": " northern",
  "1784": "ef",
  "1785": " arm",
  "1786": " Delhi",
  "1787": "unj",
  "1788": "unjab",
  "1789": " Mughal",
  "1790": " economy",
  "1791": " prom",
  "1792": " tec",
  "1793": "tro",
  "1794": "deral",
  "1795": " tim",
  "1796": "ats",
  "1797": "ree",
  "1798": "ata",
  "1799": "30",
  "1800": "ese",
  "1801": "ties",
  "1802": " Ganges",
  "1803": " sp",
  "1804": " CE",
  "1805": " central",
  "1806": " emb",
  "1807": " def",
  "1808": "ited",
  "1809": " up",
  "1810": "ior",
  "1811": "amp",
  "1812": "ades",
  "1813": " Gand",
  "1814": " Gandhi",
  "1815": " contin",
  "1816": "lan",
  "1817": "15",
  "1818": "ecu",
  "1819": "oc",
  "1820": "ip",
  "1821": "odo",
  "1822": " गण",
  "1823": " एशिया",
  "1824": "ृष",
  "1825": "�्य",
  "1826": "�्या",
  "1827": " पश्चिम",
  "1828": "रब",
  "1829": "ुप",
  "1830": " विस",
  "1831": " मैद",
  "1832": " मैदान",
  "1833": "काल",
  "1834": "ंप",
  "1835": "वस्�",
  "1836": "वस्था",
  "1837": " स्वतंत्र",
  "1838": " आध",
  "1839": " भूम",
  "1840": "ोष",
  "1841": " प्राचीन",
  "1842": "ीस",
  "1843": " प्रदेश",
  "1844": " बीच",
  "1845": "ून",
  "1846": " संबंध",
  "1847": "शास",
  "1848": " द्वारा",
  "1849": " ओ",
  "1850": " भाषाओं",
  "1851": " नेत",
  "1852": " सक",
  "1853": "क्षा",
  "1854": " सैन",
  "1855": " प्रधान",
  "1856": " जल",
  "1857": " संविधान",
  "1858": " पार्ट",
  "1859": " चुनावों",
  "1860": " కో",
  "1861": "పంచ",
  "1862": " ప్రాం",
  "1863": " ప్రాంత",
  "1864": " దేశాల",
  "1865": " దక్ష",
  "1866": " భారతదేశం",
  "1867": "ిత్ర",
  "1868": "ాన్",
  "1869": "ిల్ల",
  "1870": "ప్ర",
  "1871": "ాజ",
  "1872": "ున్న",
  "1873": "ర్వ",
  "1874": " చె",
  "1875": "ంబ",
  "1876": "పు",
  "1877": "ంలోని",
  "1878": "ెల",
  "1879": " ofi",
  "1880": "úbl",
  "1881": " norte",
  "1882": " subcontinente",
  "1883": " durante",
  "1884": " convir",
  "1885": " convirti",
  "1886": "lament",
  "1887": "En",
  "1888": " han",
  "1889": "cimiento",
  "1890": " encuent",
  "1891": " estado",
  "1892": " mayoría",
  "1893": " vida",
  "1894": "úl",
  "1895": " incluyen",
  "1896": " since",
  "1897": " land",
  "1898": " China",
  "1899": " subcontinent",
  "1900": " western",
  "1901": "vol",
  "1902": " Buddh",
  "1903": " poli",
  "1904": " there",
  "1905": "cri",
  "1906": "ork",
  "1907": " Punjab",
  "1908": " us",
  "1909": "ered",
  "1910": "nolog",
  "1911": " non",
  "1912": " federal",
  "1913": " bill",
  "1914": " cap",
  "1915": " increased",
  "1916": " rate",
  "1917": "16",
  "1918": "endi",
  "1919": " tradition",
  "1920": " peop",
  "1921": "ā",
  "1922": "-d",
  "1923": " classical",
  "1924": "duct",
  "1925": "raph",
  "1926": " As",
  "1927": " histori",
  "1928": " penins",
  "1929": " resp",
  "1930": "velo",
  "1931": "velop",
  "1932": " super",
  "1933": " local",
  "1934": "pecial",
  "1935": " can",
  "1936": " pers",
  "1937": "ental",
  "1938": " Des",
  "1939": "12",
  "1940": " Pro",
  "1941": " BJP",
  "1942": " स्थित",
  "1943": "सं�",
  "1944": "ाड",
  "1945": "तिक",
  "1946": "ंगा",
  "1947": " विस्त",
  "1948": "ील",
  "1949": "ंब",
  "1950": "धी",
  "1951": " ब्र",
  "1952": " शुर",
  "1953": "द्योग",
  "1954": " बहुत",
  "1955": " अव",
  "1956": " निर्माण",
  "1957": "हर",
  "1958": " अभ",
  "1959": "ुद्ध",
  "1960": "्स",
  "1961": "च्च",
  "1962": "्यों",
  "1963": " क्र",
  "1964": " नेतृत",
  "1965": " हाल",
  "1966": " राष्ट्रीय",
  "1967": "मंत्री",
  "1968": " आर्थ",
  "1969": " आर्थिक",
  "1970": " मुख",
  "1971": "ॉंग्रे",
  "1972": "ॉंग्रेस",
  "1973": "योग",
  "1974": " जनज",
  "1975": " जनजात",
  "1976": "ాభ",
  "1977": " ప్రపంచ",
  "1978": " వ్యవస్థ",
  "1979": "ిలో",
  "1980": " దక్షి�",
  "1981": " దక్షిణ",
  "1982": " పాక",
  "1983": " రాజ్య",
  "1984": "ాధ",
  "1985": " మధ్య",
  "1986": "్డ",
  "1987": " ప్రధాన",
  "1988": "బడ",
  "1989": "వి",
  "1990": "్లో",
  "1991": " భారతీయ",
  "1992": " అధికార",
  "1993": " పార్ట",
  "1994": " పార్టీ",
  "1995": " రైలు",
  "1996": "జాతీయ",
  "1997": " Además",
  "1998": " está",
  "1999": " ciud",
  "2000": "omb",
  "2001": "ientras",
  "2002": "añ",
  "2003": "ritán",
  "2004": " estados",
  "2005": " sistema",
  "2006": "aria",
  "2007": " economía",
  "2008": " nue",
  "2009": "dad",
  "2010": " nacion",
  "2011": " nacionales",
  "2012": "crit",
  "2013": " pero",
  "2014": " otros",
  "2015": "ument",
  "2016": "ticos",
  "2017": "ato",
  "2018": "onas",
  "2019": " úl",
  "2020": "tivo",
  "2021": " mie",
  "2022": " miemb",
  "2023": "-l",
  "2024": "rac",
  "2025": "dam",
  "2026": " than",
  "2027": "55",
  "2028": " occ",
  "2029": " high",
  "2030": " life",
  "2031": "enni",
  "2032": " Sans",
  "2033": "lim",
  "2034": " Central",
  "2035": "ains",
  "2036": "ublic",
  "2037": " parli",
  "2038": " parliament",
  "2039": " mid",
  "2040": " state",
  "2041": "ash",
  "2042": " sup",
  "2043": "ell",
  "2044": "cient",
  "2045": " people",
  "2046": " popular",
  "2047": "13",
  "2048": " period",
  "2049": "ala",
  "2050": " new",
  "2051": " set",
  "2052": "ange",
  "2053": "eog",
  "2054": " power",
  "2055": " tex",
  "2056": " Pl",
  "2057": " agricult",
  "2058": " all",
  "2059": " develop",
  "2060": " mer",
  "2061": " sultan",
  "2062": "ites",
  "2063": "ust",
  "2064": " sol",
  "2065": "war",
  "2066": " war",
  "2067": "anc",
  "2068": " especial",
  "2069": " consi",
  "2070": " direct",
  "2071": " number",
  "2072": " World",
  "2073": " legis",
  "2074": " rural",
  "2075": " Himalayas",
  "2076": "°",
  "2077": " cour",
  "2078": " cor",
  "2079": " species",
  "2080": " among",
  "2081": " Jan",
  "2082": " largest",
  "2083": ").",
  "2084": " qu",
  "2085": " sect",
  "2086": "ances",
  "2087": "24",
  "2088": "14",
  "2089": "asa",
  "2090": "आ",
  "2091": " गणराज्य",
  "2092": "पू",
  "2093": " पर्व",
  "2094": " मु",
  "2095": " शत",
  "2096": "ंज",
  "2097": "िट",
  "2098": " विभ",
  "2099": " संग",
  "2100": "ेष",
  "2101": " नि�",
  "2102": " कम",
  "2103": " परम",
  "2104": " परमाण",
  "2105": " परमाणु",
  "2106": " अस",
  "2107": " इन",
  "2108": " मन",
  "2109": "ाट",
  "2110": " स्थान",
  "2111": "नों",
  "2112": " सेना",
  "2113": " पड़",
  "2114": " सैन्य",
  "2115": " जाती",
  "2116": " प्राप्त",
  "2117": "ाइ",
  "2118": "ची",
  "2119": " ट",
  "2120": " मुख्य",
  "2121": " कॉंग्रेस",
  "2122": " कार्य",
  "2123": " प्रत",
  "2124": " जनजाति",
  "2125": " మొద",
  "2126": " ప్రజ",
  "2127": "ాస్�",
  "2128": " సమ",
  "2129": "క్కువ",
  "2130": "ఖ్య",
  "2131": " హిందూ",
  "2132": "్రం",
  "2133": "ిధ",
  "2134": "ర్య",
  "2135": " కాల",
  "2136": "ీన",
  "2137": "త్వ",
  "2138": "ించింది",
  "2139": "రణ",
  "2140": " అయ",
  "2141": "ప్ప",
  "2142": " పేరు",
  "2143": " కు",
  "2144": "భుత",
  "2145": "భుత్వ",
  "2146": " ఇతర",
  "2147": "�ృ",
  "2148": " క్రీ",
  "2149": " అత",
  "2150": "ాంగ",
  "2151": " భాష",
  "2152": "భారతీయ",
  "2153": "ública",
  "2154": " hindu",
  "2155": " mientras",
  "2156": "iones",
  "2157": " siglo",
  "2158": "II",
  "2159": "imiento",
  "2160": "ér",
  "2161": "argo",
  "2162": "jer",
  "2163": "edad",
  "2164": "idos",
  "2165": "aca",
  "2166": "igual",
  "2167": "fica",
  "2168": " é",
  "2169": "El",
  "2170": " nú",
  "2171": " númer",
  "2172": " número",
  "2173": "arrol",
  "2174": " perí",
  "2175": " período",
  "2176": "cid",
  "2177": "los",
  "2178": " musul",
  "2179": " gobierno",
  "2180": " gan",
  "2181": " aument",
  "2182": "opa",
  "2183": "anza",
  "2184": " comun",
  "2185": "ficial",
  "2186": " country",
  "2187": " democ",
  "2188": "ank",
  "2189": "ves",
  "2190": " Andam",
  "2191": " Is",
  "2192": "ually",
  "2193": "ennium",
  "2194": " Sansk",
  "2195": " Sanskrit",
  "2196": " languages",
  "2197": "ise",
  "2198": " Dur",
  "2199": "ised",
  "2200": " rule",
  "2201": " educ",
  "2202": "vement",
  "2203": " through",
  "2204": " mul",
  "2205": "36",
  "2206": " US",
  "2207": " though",
  "2208": " military",
  "2209": "bo",
  "2210": "ga",
  "2211": "ately",
  "2212": " including",
  "2213": " imp",
  "2214": "par",
  "2215": " them",
  "2216": " produc",
  "2217": " caused",
  "2218": "ai",
  "2219": " si",
  "2220": "tics",
  "2221": " peninsular",
  "2222": "ket",
  "2223": " Raj",
  "2224": " imper",
  "2225": "orn",
  "2226": " constitution",
  "2227": " liber",
  "2228": " mant",
  "2229": "28",
  "2230": " amp",
  "2231": "100",
  "2232": " ing",
  "2233": " coali",
  "2234": " Sab",
  "2235": " Sabha",
  "2236": " ten",
  "2237": " sector",
  "2238": " contrib",
  "2239": "col",
  "2240": "cho",
  "2241": " anti",
  "2242": " Ar",
  "2243": "hema",
  "2244": " music",
  "2245": "las",
  "2246": "ारिक",
  "2247": "िप",
  "2248": "ण्�",
  "2249": "ण्ड",
  "2250": "्वीप",
  "2251": "मा",
  "2252": " अरब",
  "2253": " समाज",
  "2254": " अन्त",
  "2255": " स्थाप",
  "2256": " शताब",
  "2257": " शताब्द",
  "2258": " शताब्दी",
  "2259": " चल",
  "2260": " ब्रिट",
  "2261": "दल",
  "2262": " प्रभ",
  "2263": " गई",
  "2264": "क्ति",
  "2265": "ुष",
  "2266": " सि",
  "2267": " नद",
  "2268": "भा",
  "2269": "ंत",
  "2270": " पहले",
  "2271": "िह",
  "2272": " जिसमें",
  "2273": "्तु",
  "2274": " क्षेत्रीय",
  "2275": " ओर",
  "2276": " विकास",
  "2277": " नेतृत्व",
  "2278": " लिये",
  "2279": "न्द्र",
  "2280": " प्रधानमंत्री",
  "2281": " युद्ध",
  "2282": "१९९",
  "2283": " -",
  "2284": " संसद",
  "2285": " बहुम",
  "2286": " वर्षों",
  "2287": "భారతదేశం",
  "2288": " స్థాన",
  "2289": "ెద్ద",
  "2290": " దేశం",
  "2291": "ాఖ",
  "2292": "ిగా",
  "2293": "ండి",
  "2294": "ర్ప",
  "2295": "ిం�",
  "2296": " పు",
  "2297": "ిట",
  "2298": " చే�",
  "2299": "ుకో",
  "2300": " వచ్చింది",
  "2301": " య",
  "2302": "గు",
  "2303": " ప్రభుత్వ",
  "2304": "్స",
  "2305": " సాం",
  "2306": "ించిన",
  "2307": " సభ",
  "2308": "ెస",
  "2309": "ిశ",
  "2310": "దాయ",
  "2311": "ీత",
  "2312": " cual",
  "2313": " lug",
  "2314": " lugar",
  "2315": "ín",
  "2316": " grande",
  "2317": " Las",
  "2318": "adores",
  "2319": " principales",
  "2320": "arios",
  "2321": " desarrol",
  "2322": "quet",
  "2323": "ientos",
  "2324": "zas",
  "2325": " sociales",
  "2326": " vez",
  "2327": " comen",
  "2328": " comenz",
  "2329": " musulman",
  "2330": "asta",
  "2331": " década",
  "2332": " britán",
  "2333": " últim",
  "2334": " Copa",
  "2335": "-larg",
  "2336": "-largest",
  "2337": " independ",
  "2338": "heast",
  "2339": "bar",
  "2340": " Indus",
  "2341": " river",
  "2342": "ving",
  "2343": "alle",
  "2344": "ird",
  "2345": " millennium",
  "2346": " By",
  "2347": " decl",
  "2348": "crip",
  "2349": "ious",
  "2350": " estab",
  "2351": "uslim",
  "2352": " inter",
  "2353": " result",
  "2354": "rew",
  "2355": "val",
  "2356": "ara",
  "2357": " Sik",
  "2358": " centur",
  "2359": " centuries",
  "2360": "ft",
  "2361": "ned",
  "2362": "ial",
  "2363": " rig",
  "2364": " No",
  "2365": " domin",
  "2366": " soci",
  "2367": " billion",
  "2368": "%.",
  "2369": " prote",
  "2370": "cording",
  "2371": ");",
  "2372": "red",
  "2373": " Bhar",
  "2374": " app",
  "2375": "ically",
  "2376": "ke",
  "2377": "wever",
  "2378": " sty",
  "2379": "tes",
  "2380": " tod",
  "2381": " trib",
  "2382": "ments",
  "2383": " main",
  "2384": "ach",
  "2385": "ca",
  "2386": " forest",
  "2387": " comple",
  "2388": " led",
  "2389": " temp",
  "2390": " pat",
  "2391": "very",
  "2392": "ors",
  "2393": " who",
  "2394": " After",
  "2395": "dustri",
  "2396": " served",
  "2397": "193",
  "2398": " cris",
  "2399": " fin",
  "2400": " Plate",
  "2401": "read",
  "2402": "uj",
  "2403": " one",
  "2404": " Constitu",
  "2405": " equ",
  "2406": "osi",
  "2407": " extre",
  "2408": " dist",
  "2409": " sh",
  "2410": "pel",
  "2411": " tro",
  "2412": "pical",
  "2413": "%,",
  "2414": "rig",
  "2415": " her",
  "2416": " election",
  "2417": " presid",
  "2418": "ice",
  "2419": " do",
  "2420": " rest",
  "2421": "22",
  "2422": "tici",
  "2423": " deb",
  "2424": "mi",
  "2425": "oci",
  "2426": " represent",
  "2427": "va",
  "2428": "mbol",
  "2429": " mathema",
  "2430": " �",
  "2431": "ias",
  "2432": " cin",
  "2433": " जब",
  "2434": " जनसं�",
  "2435": " जनसंख्या",
  "2436": "पाल",
  "2437": " भाषा",
  "2438": " एवं",
  "2439": " थे",
  "2440": "म्भ",
  "2441": " मौ",
  "2442": "ुग",
  "2443": " काल",
  "2444": "ः",
  "2445": " ब्रिटिश",
  "2446": "व्य",
  "2447": " जान",
  "2448": "्हें",
  "2449": " आय",
  "2450": " पुर",
  "2451": " भूमिका",
  "2452": " निभ",
  "2453": "िष",
  "2454": "्ण",
  "2455": "रूप",
  "2456": " आद",
  "2457": " स्वतंत्रता",
  "2458": "भग",
  "2459": " कि",
  "2460": " कु�",
  "2461": " कुछ",
  "2462": " कुल",
  "2463": " लोग",
  "2464": " दोनों",
  "2465": " किन",
  "2466": "मिल",
  "2467": "ूर",
  "2468": " रक्षा",
  "2469": " भाग",
  "2470": "ोप",
  "2471": "ैल",
  "2472": " ,",
  "2473": " संय",
  "2474": " सदस",
  "2475": "ायु",
  "2476": "२००",
  "2477": "ाजप",
  "2478": " गठ",
  "2479": " गठब",
  "2480": "ंधन",
  "2481": " साल",
  "2482": " सर्व",
  "2483": "ॉल",
  "2484": "ర్ణ",
  "2485": " కే",
  "2486": " కేంద",
  "2487": "ిహ",
  "2488": " ద్వ",
  "2489": "ిచ",
  "2490": " జర",
  "2491": " జరిగ",
  "2492": " ఆర్�",
  "2493": " సంస్�",
  "2494": " నిర",
  "2495": "ాహ",
  "2496": "ిద",
  "2497": " ఉంట",
  "2498": "రువ",
  "2499": "రువాత",
  "2500": " అయిన",
  "2501": " రెండ",
  "2502": " భారతదేశంలో",
  "2503": "ాచ",
  "2504": " పట్ట",
  "2505": "ాప",
  "2506": "ారం",
  "2507": "ుంది",
  "2508": "ిళ",
  "2509": "వాణ",
  "2510": "వాణా",
  "2511": " మార్గాలు",
  "2512": "ano",
  "2513": " año",
  "2514": " países",
  "2515": " Bengala",
  "2516": " cultura",
  "2517": " X",
  "2518": " crecimiento",
  "2519": " embargo",
  "2520": "idiom",
  "2521": "Los",
  "2522": "ista",
  "2523": "pués",
  "2524": " fueron",
  "2525": "acia",
  "2526": "inos",
  "2527": "engu",
  "2528": " gob",
  "2529": " gobern",
  "2530": " clás",
  "2531": " tradicion",
  "2532": "ró",
  "2533": " trav",
  "2534": " través",
  "2535": " reci",
  "2536": " Gobierno",
  "2537": " hamb",
  "2538": "ús",
  "2539": "úsica",
  "2540": " ministro",
  "2541": " miembros",
  "2542": "vent",
  "2543": "west",
  "2544": "ders",
  "2545": "land",
  "2546": "frica",
  "2547": " made",
  "2548": "verse",
  "2549": " emerged",
  "2550": " third",
  "2551": " arch",
  "2552": " Hinduism",
  "2553": "ex",
  "2554": "ked",
  "2555": " political",
  "2556": "atus",
  "2557": " wom",
  "2558": " women",
  "2559": "dle",
  "2560": " religious",
  "2561": " coast",
  "2562": " Muslim",
  "2563": "mit",
  "2564": "tent",
  "2565": " culture",
  "2566": " Sikh",
  "2567": " ins",
  "2568": "ative",
  "2569": "ace",
  "2570": "acy",
  "2571": " East",
  "2572": " Company",
  "2573": " colon",
  "2574": " Indians",
  "2575": " tech",
  "2576": "com",
  "2577": "ani",
  "2578": " time",
  "2579": " nomin",
  "2580": " habit",
  "2581": "astern",
  "2582": " Sin",
  "2583": " used",
  "2584": "ency",
  "2585": " wide",
  "2586": "ond",
  "2587": " ini",
  "2588": "ants",
  "2589": " animal",
  "2590": " we",
  "2591": "ann",
  "2592": " out",
  "2593": " Mah",
  "2594": " \n",
  "2595": "arn",
  "2596": "23",
  "2597": " roc",
  "2598": "str",
  "2599": " great",
  "2600": "yas",
  "2601": " far",
  "2602": " regional",
  "2603": " defin",
  "2604": " signi",
  "2605": " arti",
  "2606": "gen",
  "2607": " str",
  "2608": " real",
  "2609": " sever",
  "2610": " reform",
  "2611": " following",
  "2612": " dep",
  "2613": " industri",
  "2614": " legisl",
  "2615": "oper",
  "2616": " vi",
  "2617": "xim",
  "2618": "ib",
  "2619": " Dec",
  "2620": " Gh",
  "2621": " Ghats",
  "2622": "′",
  "2623": "25",
  "2624": " include",
  "2625": "ents",
  "2626": "46",
  "2627": "eta",
  "2628": " areas",
  "2629": " Con",
  "2630": " Neh",
  "2631": " Nehru",
  "2632": " civil",
  "2633": " fund",
  "2634": " Nuclear",
  "2635": " growth",
  "2636": " Or",
  "2637": " total",
  "2638": "ports",
  "2639": " cal",
  "2640": " cook",
  "2641": "ensus",
  "2642": " Ori",
  "2643": "ora",
  "2644": " ser",
  "2645": "ram",
  "2646": "ez",
  "2647": "ques",
  "2648": "atura",
  "2649": "mas",
  "2650": " Uni",
  "2651": " Wik",
  "2652": "धिकारिक",
  "2653": " बड़ा",
  "2654": " इंड",
  "2655": "िमालय",
  "2656": " ईसा",
  "2657": " ऋ",
  "2658": " इसी",
  "2659": " उत्प",
  "2660": " रहे",
  "2661": "ारम्भ",
  "2662": " लिया",
  "2663": " संस्कृति",
  "2664": " धी",
  "2665": " अपनी",
  "2666": " प्रभाव",
  "2667": "ोलन",
  "2668": " $",
  "2669": " दर",
  "2670": " सेव",
  "2671": "ोह",
  "2672": "ोत",
  "2673": "इ",
  "2674": "ेक",
  "2675": "ुनिक",
  "2676": " गु�",
  "2677": "ाएँ",
  "2678": " करना",
  "2679": " अपने",
  "2680": " प्रकार",
  "2681": " व्याप",
  "2682": "मन",
  "2683": " वर्ग",
  "2684": " कह",
  "2685": "ेर",
  "2686": "२०",
  "2687": "ूल",
  "2688": "ावा",
  "2689": " पै",
  "2690": " यूर",
  "2691": " काम",
  "2692": " जाते",
  "2693": "-स",
  "2694": "ाँकि",
  "2695": " घोष",
  "2696": " संयुक्त",
  "2697": " प्ल",
  "2698": " प्लेट",
  "2699": "पर",
  "2700": " निर",
  "2701": " अप्र",
  "2702": " पार्टी",
  "2703": "ाजपा",
  "2704": " गठबंधन",
  "2705": " बने",
  "2706": "ूस",
  "2707": " न्यायालय",
  "2708": "िज",
  "2709": " निभाई",
  "2710": "ोव",
  "2711": " हथ",
  "2712": " हथिय",
  "2713": " हथियार",
  "2714": "ाख",
  "2715": " विदेश",
  "2716": " జనాభ",
  "2717": " పెద్ద",
  "2718": " కేంద్ర",
  "2719": " పాల",
  "2720": " ఎక్కువ",
  "2721": " సామ",
  "2722": " ముఖ్య",
  "2723": "ాన్న",
  "2724": "ాన్ని",
  "2725": " అనే",
  "2726": "త్తర",
  "2727": " సర",
  "2728": "్ద",
  "2729": " ఇండ",
  "2730": " బహ",
  "2731": " వివ",
  "2732": "స్తుత",
  "2733": " కొ",
  "2734": "ర్త",
  "2735": "దు",
  "2736": " ను",
  "2737": " బ్ర",
  "2738": "ంప",
  "2739": "ాలను",
  "2740": " చెంద",
  "2741": " వంట",
  "2742": "ాలలో",
  "2743": "రో",
  "2744": "ూప",
  "2745": " ఏర్ప",
  "2746": " ఎన్నో",
  "2747": "ౌక",
  "2748": "కీయ",
  "2749": " ప్రత",
  "2750": " కాంగ",
  "2751": " కాంగ్ర",
  "2752": " కాంగ్రెస",
  "2753": "ెలు",
  "2754": " సాధ",
  "2755": " సంగ",
  "2756": " క్రీడ",
  "2757": " —",
  "2758": " oficial",
  "2759": ";​",
  "2760": " grandes",
  "2761": " budi",
  "2762": "entales",
  "2763": "ino",
  "2764": " independi",
  "2765": " PI",
  "2766": " PIB",
  "2767": "terior",
  "2768": " según",
  "2769": " él",
  "2770": " idiom",
  "2771": " territor",
  "2772": " territorio",
  "2773": " antigu",
  "2774": "ían",
  "2775": "ímbol",
  "2776": " especies",
  "2777": "eci",
  "2778": " urbana",
  "2779": " comercio",
  "2780": " llan",
  "2781": " hacia",
  "2782": "erio",
  "2783": " ej",
  "2784": "entemente",
  "2785": "lamento",
  "2786": " Nacional",
  "2787": " pes",
  "2788": " música",
  "2789": " placa",
  "2790": " tasa",
  "2791": " %),",
  "2792": " shar",
  "2793": " east",
  "2794": " Its",
  "2795": " ago",
  "2796": " occup",
  "2797": "led",
  "2798": " grad",
  "2799": "120",
  "2800": "uropean",
  "2801": " early",
  "2802": "vidi",
  "2803": " supp",
  "2804": " regions",
  "2805": " Jain",
  "2806": "dom",
  "2807": " export",
  "2808": "work",
  "2809": "eign",
  "2810": "185",
  "2811": " righ",
  "2812": " intro",
  "2813": "duced",
  "2814": " movement",
  "2815": " fact",
  "2816": " parliamentary",
  "2817": " multi",
  "2818": " grew",
  "2819": " capit",
  "2820": "64",
  "2821": " literacy",
  "2822": " inform",
  "2823": " disput",
  "2824": "urs",
  "2825": "ild",
  "2826": " mal",
  "2827": " support",
  "2828": " Engl",
  "2829": " English",
  "2830": " deri",
  "2831": "men",
  "2832": " Constitution",
  "2833": " Y",
  "2834": "80",
  "2835": " secon",
  "2836": " second",
  "2837": " diversity",
  "2838": "out",
  "2839": "hen",
  "2840": " feat",
  "2841": "raf",
  "2842": " fig",
  "2843": " found",
  "2844": "-A",
  "2845": "ating",
  "2846": "fied",
  "2847": "ics",
  "2848": " dif",
  "2849": "enti",
  "2850": " religions",
  "2851": " bir",
  "2852": "sive",
  "2853": "cep",
  "2854": "iss",
  "2855": "ax",
  "2856": " mode",
  "2857": " Tamil",
  "2858": "edi",
  "2859": " cultural",
  "2860": "tra",
  "2861": " sho",
  "2862": " they",
  "2863": "emp",
  "2864": "ines",
  "2865": " especially",
  "2866": " pain",
  "2867": " painting",
  "2868": " gro",
  "2869": "cess",
  "2870": " cru",
  "2871": " consider",
  "2872": "ord",
  "2873": " sa",
  "2874": "back",
  "2875": " states",
  "2876": " viol",
  "2877": "roxim",
  "2878": " ancient",
  "2879": " rem",
  "2880": " remain",
  "2881": "can",
  "2882": " Imp",
  "2883": " kil",
  "2884": " Ac",
  "2885": "11",
  "2886": " clim",
  "2887": " majority",
  "2888": " endem",
  "2889": " sal",
  "2890": "uri",
  "2891": " religios",
  "2892": "fore",
  "2893": " Act",
  "2894": "ess",
  "2895": " Sh",
  "2896": " party",
  "2897": " United",
  "2898": "PA",
  "2899": " exc",
  "2900": " dere",
  "2901": " div",
  "2902": " pos",
  "2903": " rates",
  "2904": " estim",
  "2905": "500",
  "2906": " dio",
  "2907": " census",
  "2908": " Hindi",
  "2909": "bic",
  "2910": "..",
  "2911": " cast",
  "2912": "tt",
  "2913": " marri",
  "2914": " scul",
  "2915": " sculp",
  "2916": "aja",
  "2917": " alg",
  "2918": "tico",
  "2919": "get",
  "2920": " pas",
  "2921": " ऑ",
  "2922": "ाद्वीप",
  "2923": "ृष्ट",
  "2924": " अफ",
  "2925": " चीन",
  "2926": " हिमालय",
  "2927": " पर्वत",
  "2928": " सम्प",
  "2929": "ैली",
  "2930": " राजनी",
  "2931": "करण",
  "2932": " गंगा",
  "2933": "र्य",
  "2934": " विस्तृत",
  "2935": " विज",
  "2936": "गर",
  "2937": "िख",
  "2938": " धीरे",
  "2939": " अर्थ",
  "2940": " शुरू",
  "2941": "ादी",
  "2942": "ेज",
  "2943": " रख",
  "2944": " वाल",
  "2945": "ीर",
  "2946": " परंप",
  "2947": "लों",
  "2948": " गए",
  "2949": " आधिकारिक",
  "2950": "ंश",
  "2951": " बड़े",
  "2952": "ाश",
  "2953": " तीस",
  "2954": "ंह",
  "2955": "ृद्ध",
  "2956": " सभ",
  "2957": "्यता",
  "2958": " लगभग",
  "2959": " युग",
  "2960": " आग",
  "2961": " वे",
  "2962": "ोट",
  "2963": " आक",
  "2964": " किन्तु",
  "2965": " अलग",
  "2966": "तर",
  "2967": "्त्र",
  "2968": "्थान",
  "2969": " उस",
  "2970": "ाधिक",
  "2971": " जा",
  "2972": " व्यवस्था",
  "2973": " तमिल",
  "2974": " स्तर",
  "2975": " बड़ी",
  "2976": " बार",
  "2977": "शासित",
  "2978": "ोर",
  "2979": "ाता",
  "2980": " अंग्रेजी",
  "2981": "म्ब",
  "2982": "‍",
  "2983": " गां",
  "2984": " गांधी",
  "2985": " �",
  "2986": " हालाँकि",
  "2987": "अ",
  "2988": "वल",
  "2989": "१९७",
  "2990": " जिसके",
  "2991": "ंट",
  "2992": "ियन",
  "2993": " ऊँ",
  "2994": " पहाड",
  "2995": "ंक",
  "2996": " चार",
  "2997": " होती",
  "2998": "१९८",
  "2999": " बहुमत",
  "3000": " सहयोग",
  "3001": "पालिका",
  "3002": "सभा",
  "3003": " नाग",
  "3004": " केन्द्र",
  "3005": "ेली",
  "3006": "सेना",
  "3007": " डॉल",
  "3008": " डॉलर",
  "3009": " विदेशी",
  "3010": "ाएं",
  "3011": " कर्ज",
  "3012": "भाष",
  "3013": ")\n",
  "3014": "ట్ల",
  "3015": "ాలో",
  "3016": "డు",
  "3017": "ర్ల",
  "3018": " ఉప",
  "3019": " భాగ",
  "3020": "ిజ",
  "3021": " ఉత్తర",
  "3022": " మహ",
  "3023": "ంగ్ల",
  "3024": " సరిహ",
  "3025": " సరిహద్ద",
  "3026": "ుకుంట",
  "3027": "ంక",
  "3028": " గల",
  "3029": " ఇది",
  "3030": " సిం�",
  "3031": " కాలంలో",
  "3032": " ప్రస్తుత",
  "3033": "రి",
  "3034": " చిన్న",
  "3035": "ాబ్ద",
  "3036": "టిక",
  "3037": "లలో",
  "3038": "ిస్తారు",
  "3039": "ండు",
  "3040": " తరువాత",
  "3041": "�త",
  "3042": "డ్డ",
  "3043": "రాలు",
  "3044": "�ృత",
  "3045": "కాల",
  "3046": " శాస్�",
  "3047": " శాస్త",
  "3048": "ిల్లీ",
  "3049": "ల్",
  "3050": "క్రమ",
  "3051": "థ",
  "3052": "ాడ",
  "3053": " మాత",
  "3054": " కార",
  "3055": " భారత్",
  "3056": "�ిక",
  "3057": " రాజకీయ",
  "3058": "్యధిక",
  "3059": "ర్ట",
  "3060": " జాతీయ",
  "3061": " సిన",
  "3062": " సినిమ",
  "3063": "న్",
  "3064": " ట",
  "3065": "ంగాల",
  "3066": "టు",
  "3067": " రవాణా",
  "3068": " సంగీత",
  "3069": " región",
  "3070": " otras",
  "3071": " lleg",
  "3072": "añía",
  "3073": " convirtió",
  "3074": "uvo",
  "3075": " territorios",
  "3076": " Unión",
  "3077": " nive",
  "3078": " pobre",
  "3079": " mujer",
  "3080": " mujeres",
  "3081": "idades",
  "3082": " encuentra",
  "3083": " idiomas",
  "3084": " tamil",
  "3085": "eg",
  "3086": " habl",
  "3087": "tili",
  "3088": " símbol",
  "3089": " cuenta",
  "3090": "rado",
  "3091": " á",
  "3092": "bol",
  "3093": ".,",
  "3094": "tivos",
  "3095": " agrí",
  "3096": " agrícol",
  "3097": " ciudades",
  "3098": " muchas",
  "3099": " llanura",
  "3100": " guer",
  "3101": "óg",
  "3102": "ganización",
  "3103": " política",
  "3104": "ños",
  "3105": " importantes",
  "3106": " segu",
  "3107": " estable",
  "3108": "esti",
  "3109": " ampli",
  "3110": " tie",
  "3111": " tiemp",
  "3112": " tiempo",
  "3113": " desarrollo",
  "3114": "isión",
  "3115": "stas",
  "3116": "ador",
  "3117": " aumento",
  "3118": "tivamente",
  "3119": " poco",
  "3120": " hambr",
  "3121": "unas",
  "3122": " emple",
  "3123": " propi",
  "3124": " zonas",
  "3125": " elecciones",
  "3126": "quier",
  "3127": " presidente",
  "3128": " cinco",
  "3129": " cá",
  "3130": "NC",
  "3131": " partidos",
  "3132": "istas",
  "3133": "osas",
  "3134": "tiene",
  "3135": " Entre",
  "3136": " bos",
  "3137": " official",
  "3138": "oun",
  "3139": " Ara",
  "3140": "utheast",
  "3141": " Bang",
  "3142": "desh",
  "3143": " Sri",
  "3144": " Lank",
  "3145": " Mal",
  "3146": " Andaman",
  "3147": "alley",
  "3148": "400",
  "3149": " Buddhism",
  "3150": " consol",
  "3151": " consolid",
  "3152": " Maury",
  "3153": " Gup",
  "3154": " During",
  "3155": "abil",
  "3156": " king",
  "3157": "oast",
  "3158": "ished",
  "3159": " southern",
  "3160": " created",
  "3161": " tur",
  "3162": " technolog",
  "3163": " ide",
  "3164": " education",
  "3165": " ro",
  "3166": " national",
  "3167": " other",
  "3168": "-s",
  "3169": "ration",
  "3170": " republic",
  "3171": "istic",
  "3172": "ety",
  "3173": " become",
  "3174": "onom",
  "3175": " air",
  "3176": "divers",
  "3177": "cted",
  "3178": "urther",
  "3179": "cha",
  "3180": "ian",
  "3181": " Per",
  "3182": " Persi",
  "3183": " eastern",
  "3184": " well",
  "3185": " ren",
  "3186": "urr",
  "3187": " widely",
  "3188": " earli",
  "3189": " forms",
  "3190": "-p",
  "3191": "inc",
  "3192": " These",
  "3193": " cities",
  "3194": "aro",
  "3195": "acter",
  "3196": " styles",
  "3197": "oral",
  "3198": "osed",
  "3199": " fi",
  "3200": " invol",
  "3201": "uld",
  "3202": "�",
  "3203": "ll",
  "3204": "alled",
  "3205": " based",
  "3206": "dha",
  "3207": " sac",
  "3208": " Bra",
  "3209": " Brah",
  "3210": "ning",
  "3211": "eograph",
  "3212": "sequ",
  "3213": "sequent",
  "3214": "struc",
  "3215": "ert",
  "3216": " respec",
  "3217": "tional",
  "3218": " West",
  "3219": " whose",
  "3220": "ficant",
  "3221": "ars",
  "3222": " Buddhist",
  "3223": " vast",
  "3224": " lead",
  "3225": " sultanate",
  "3226": "though",
  "3227": "ws",
  "3228": " uni",
  "3229": " mand",
  "3230": " sil",
  "3231": " market",
  "3232": "tiles",
  "3233": " commer",
  "3234": " aut",
  "3235": "our",
  "3236": "line",
  "3237": " longer",
  "3238": " National",
  "3239": " There",
  "3240": " intern",
  "3241": " won",
  "3242": " vic",
  "3243": " vict",
  "3244": " elections",
  "3245": " separ",
  "3246": "amm",
  "3247": "70",
  "3248": " lower",
  "3249": " continu",
  "3250": " caus",
  "3251": " Thar",
  "3252": " Western",
  "3253": "35",
  "3254": " dra",
  "3255": " Nar",
  "3256": " union",
  "3257": "ee",
  "3258": " sim",
  "3259": " tropical",
  "3260": " often",
  "3261": "ected",
  "3262": " den",
  "3263": " deci",
  "3264": "bal",
  "3265": " expan",
  "3266": "Go",
  "3267": " Janata",
  "3268": "ody",
  "3269": "31",
  "3270": " av",
  "3271": " fundament",
  "3272": "tates",
  "3273": " execu",
  "3274": " perman",
  "3275": " ling",
  "3276": "ived",
  "3277": "erg",
  "3278": "DP",
  "3279": "mog",
  "3280": " contribu",
  "3281": " pet",
  "3282": "72",
  "3283": "dera",
  "3284": ":\n\n",
  "3285": " camp",
  "3286": "ase",
  "3287": " common",
  "3288": "ayback",
  "3289": "divas",
  "3290": "getari",
  "3291": " propor",
  "3292": " Arch",
  "3293": " अंग्रेज़ी",
  "3294": "फ़",
  "3295": "मह",
  "3296": " दृष्ट",
  "3297": " जबकि",
  "3298": "ांग",
  "3299": " श्री",
  "3300": "द्र",
  "3301": " सी",
  "3302": " हिन्दू",
  "3303": "न्न",
  "3304": " होते",
  "3305": " राजनीतिक",
  "3306": "ुप्त",
  "3307": "दी",
  "3308": "तः",
  "3309": " दिल",
  "3310": " स्थापना",
  "3311": " मिला",
  "3312": " अर्थव्य",
  "3313": " बदल",
  "3314": "१८",
  "3315": " विर",
  "3316": " जाना",
  "3317": " समाप्त",
  "3318": " इसकी",
  "3319": " सू",
  "3320": "द्योगिक",
  "3321": " शिक",
  "3322": "बी",
  "3323": " विव",
  "3324": " विवाद",
  "3325": " ले",
  "3326": "वरी",
  "3327": "त्त",
  "3328": " वर्ण",
  "3329": "�़",
  "3330": " आदि",
  "3331": "तिह",
  "3332": "तिहास",
  "3333": " आधुनिक",
  "3334": " अफ्री",
  "3335": " अफ्रीका",
  "3336": " अभी",
  "3337": " जै",
  "3338": "िन्न",
  "3339": " उत्पाद",
  "3340": " माना",
  "3341": "स्त्र",
  "3342": "स्व",
  "3343": "ांड",
  "3344": "ाँच",
  "3345": " प्रय",
  "3346": " प्रयास",
  "3347": " बनाने",
  "3348": " कृष",
  "3349": " निय",
  "3350": "वीं",
  "3351": " पु",
  "3352": "ांस",
  "3353": " यूरोप",
  "3354": " यूरोपीय",
  "3355": " आप",
  "3356": "फल",
  "3357": "ांति",
  "3358": " आन्द",
  "3359": " अग",
  "3360": "१९५",
  "3361": " बना",
  "3362": "ुध",
  "3363": "ेक्ष",
  "3364": "णा",
  "3365": " पड़ो",
  "3366": " पड़ोसी",
  "3367": "१९६",
  "3368": "वायु",
  "3369": "मी",
  "3370": "णी",
  "3371": " सिन",
  "3372": " बनी",
  "3373": " तर",
  "3374": " जलो",
  "3375": " जलोढ़",
  "3376": " ऋत",
  "3377": " करता",
  "3378": " अप्रैल",
  "3379": " प्रत्य",
  "3380": " मो",
  "3381": "डी",
  "3382": " भाजपा",
  "3383": " समर्थ",
  "3384": " समर्थन",
  "3385": "्यम",
  "3386": " सर्वो",
  "3387": " सर्वोच्च",
  "3388": " अधिकार",
  "3389": "्ठ",
  "3390": " अब",
  "3391": "ियान",
  "3392": " बै",
  "3393": " लाख",
  "3394": " प्रतिश",
  "3395": " प्रतिशत",
  "3396": "भारतीय",
  "3397": " उद्योग",
  "3398": " अमरी",
  "3399": "ంతో",
  "3400": " ప్రాంతాలు",
  "3401": " రహ",
  "3402": " రహద",
  "3403": "లను",
  "3404": "ున",
  "3405": "ాళ",
  "3406": "ల్ల",
  "3407": "ిస్తాన్",
  "3408": "ఫ",
  "3409": "ీప",
  "3410": " సింధ",
  "3411": "రిక",
  "3412": " బహు",
  "3413": " వివిధ",
  "3414": "ించి",
  "3415": " బ్రిట",
  "3416": " ఇండియా",
  "3417": "ుకోవ",
  "3418": "ోర",
  "3419": "ెట",
  "3420": " ఆధ",
  "3421": "ప్పటిక",
  "3422": "ేన",
  "3423": " వార",
  "3424": " పట్టణ",
  "3425": " ప్రము",
  "3426": " ప్రముఖ",
  "3427": " మొదల",
  "3428": "ాత్ర",
  "3429": "�ిల్లీ",
  "3430": "గలు",
  "3431": "ఇ",
  "3432": "్యాయ",
  "3433": "రా�",
  "3434": "‌స",
  "3435": " అత్యధిక",
  "3436": "ిస",
  "3437": "ెబ",
  "3438": "కాలు",
  "3439": "న్ని",
  "3440": "జన",
  "3441": " మూడ",
  "3442": " దేశంలోని",
  "3443": "ాబాద",
  "3444": "అ",
  "3445": " సౌక",
  "3446": " సౌకర్య",
  "3447": "ల్వ",
  "3448": " నడ",
  "3449": " నడిప",
  "3450": "ారులు",
  "3451": " పత",
  "3452": " hindi",
  "3453": " ubic",
  "3454": " oeste",
  "3455": " Pakistán",
  "3456": " comerciales",
  "3457": " hinduismo",
  "3458": "smo",
  "3459": " jain",
  "3460": " diversas",
  "3461": " Compañía",
  "3462": " independiente",
  "3463": " mov",
  "3464": "uest",
  "3465": " tér",
  "3466": " términ",
  "3467": " términos",
  "3468": " ingres",
  "3469": "ü",
  "3470": " actu",
  "3471": " �",
  "3472": " «",
  "3473": "»",
  "3474": " muy",
  "3475": " sigu",
  "3476": " sán",
  "3477": " sáns",
  "3478": " sánscrit",
  "3479": "ectos",
  "3480": " varios",
  "3481": " mit",
  "3482": " utili",
  "3483": " varias",
  "3484": " propios",
  "3485": " fuerza",
  "3486": "oeste",
  "3487": " castas",
  "3488": "ológ",
  "3489": " exist",
  "3490": " tradiciones",
  "3491": "ancia",
  "3492": "cido",
  "3493": " Imperio",
  "3494": " imperio",
  "3495": "anto",
  "3496": " lengu",
  "3497": " occid",
  "3498": " af",
  "3499": "lev",
  "3500": " siglos",
  "3501": "iores",
  "3502": " comenzó",
  "3503": " log",
  "3504": " tier",
  "3505": " sido",
  "3506": "iá",
  "3507": "eces",
  "3508": " esta",
  "3509": "tiva",
  "3510": " indias",
  "3511": "onces",
  "3512": " merc",
  "3513": " manten",
  "3514": "upos",
  "3515": " militares",
  "3516": " product",
  "3517": " productos",
  "3518": " Parlamento",
  "3519": " décadas",
  "3520": " pesar",
  "3521": " crí",
  "3522": "porte",
  "3523": " trab",
  "3524": "adamente",
  "3525": "mara",
  "3526": " baja",
  "3527": " hasta",
  "3528": " últimos",
  "3529": " tres",
  "3530": " INC",
  "3531": " ganó",
  "3532": "atro",
  "3533": " fuerzas",
  "3534": " extrem",
  "3535": " encuentran",
  "3536": " endé",
  "3537": " endém",
  "3538": " west",
  "3539": " Bh",
  "3540": "yan",
  "3541": " Nico",
  "3542": " Nicobar",
  "3543": "lands",
  "3544": " Ind",
  "3545": " Indones",
  "3546": " Indonesia",
  "3547": "-g",
  "3548": "ather",
  "3549": " Civil",
  "3550": " recor",
  "3551": "anted",
  "3552": " Jainism",
  "3553": " here",
  "3554": " rise",
  "3555": " Maurya",
  "3556": " era",
  "3557": " organ",
  "3558": "lief",
  "3559": " kingdom",
  "3560": " kingdoms",
  "3561": " Southeast",
  "3562": " Islam",
  "3563": "oroast",
  "3564": " establ",
  "3565": " medie",
  "3566": " Vi",
  "3567": " left",
  "3568": "itect",
  "3569": " changes",
  "3570": " public",
  "3571": "viol",
  "3572": "mary",
  "3573": " mig",
  "3574": " democra",
  "3575": " nominal",
  "3576": " ann",
  "3577": "60",
  "3578": "74",
  "3579": " technology",
  "3580": " middle",
  "3581": " cost",
  "3582": " increasing",
  "3583": " Kash",
  "3584": " Among",
  "3585": " gen",
  "3586": "ising",
  "3587": " four",
  "3588": " bio",
  "3589": "po",
  "3590": "medi",
  "3591": " Persian",
  "3592": " prov",
  "3593": " term",
  "3594": " Bharat",
  "3595": "sha",
  "3596": " Nor",
  "3597": " thought",
  "3598": " earliest",
  "3599": "nown",
  "3600": "omes",
  "3601": " bar",
  "3602": "tle",
  "3603": " aro",
  "3604": " around",
  "3605": " Mohen",
  "3606": " Mohenjo",
  "3607": "pa",
  "3608": " char",
  "3609": "dis",
  "3610": " ste",
  "3611": " pot",
  "3612": " figures",
  "3613": " vill",
  "3614": " ol",
  "3615": "soci",
  "3616": "ross",
  "3617": " plain",
  "3618": " times",
  "3619": " emplo",
  "3620": " employ",
  "3621": "ight",
  "3622": " however",
  "3623": "300",
  "3624": " differ",
  "3625": "arna",
  "3626": " eth",
  "3627": " Buddha",
  "3628": " conduct",
  "3629": " birth",
  "3630": " empire",
  "3631": "bs",
  "3632": " subsequent",
  "3633": " rock",
  "3634": "diment",
  "3635": " tax",
  "3636": " devo",
  "3637": " ass",
  "3638": "ature",
  "3639": "eras",
  "3640": " along",
  "3641": " Pand",
  "3642": " mak",
  "3643": "ences",
  "3644": " significant",
  "3645": "mbers",
  "3646": " every",
  "3647": "aries",
  "3648": " leading",
  "3649": " dev",
  "3650": " prac",
  "3651": " practic",
  "3652": "lus",
  "3653": "ues",
  "3654": "reg",
  "3655": "tain",
  "3656": " group",
  "3657": " rec",
  "3658": " aff",
  "3659": "ength",
  "3660": " crucial",
  "3661": " further",
  "3662": " Dal",
  "3663": " off",
  "3664": "alth",
  "3665": " reb",
  "3666": " unit",
  "3667": " lim",
  "3668": "ped",
  "3669": " indus",
  "3670": " industry",
  "3671": " victori",
  "3672": " secul",
  "3673": " secular",
  "3674": " liberal",
  "3675": " ge",
  "3676": " spread",
  "3677": " This",
  "3678": "au",
  "3679": "-b",
  "3680": " now",
  "3681": "kh",
  "3682": "itu",
  "3683": " low",
  "3684": " mi",
  "3685": " According",
  "3686": " territories",
  "3687": " influenc",
  "3688": " influenced",
  "3689": " win",
  "3690": "39",
  "3691": " medic",
  "3692": " desc",
  "3693": " extin",
  "3694": " lea",
  "3695": "key",
  "3696": " endang",
  "3697": " endangered",
  "3698": "pen",
  "3699": " For",
  "3700": " five",
  "3701": "oli",
  "3702": "aw",
  "3703": " held",
  "3704": " until",
  "3705": " Janu",
  "3706": " January",
  "3707": "ah",
  "3708": " declar",
  "3709": " Sing",
  "3710": " Singh",
  "3711": " Am",
  "3712": " coalition",
  "3713": " sing",
  "3714": " formed",
  "3715": " min",
  "3716": " extern",
  "3717": "lec",
  "3718": "resid",
  "3719": "ele",
  "3720": "De",
  "3721": " Lok",
  "3722": " Rajya",
  "3723": " fundamental",
  "3724": " States",
  "3725": " executive",
  "3726": "cil",
  "3727": " cab",
  "3728": " three",
  "3729": " courts",
  "3730": " contra",
  "3731": " GDP",
  "3732": " glo",
  "3733": "42",
  "3734": "harma",
  "3735": " dest",
  "3736": " last",
  "3737": "med",
  "3738": " families",
  "3739": " bre",
  "3740": " developed",
  "3741": "ched",
  "3742": "lugu",
  "3743": "Rel",
  "3744": " Pre",
  "3745": " Ker",
  "3746": " Kerala",
  "3747": "29",
  "3748": "chool",
  "3749": " traditional",
  "3750": "ables",
  "3751": " seg",
  "3752": " sculpture",
  "3753": "lic",
  "3754": " traditions",
  "3755": " ",
  "3756": " don",
  "3757": "ero",
  "3758": " inst",
  "3759": "ici",
  "3760": " dances",
  "3761": " worn",
  "3762": " sari",
  "3763": " gar",
  "3764": " Wayback",
  "3765": " Mach",
  "3766": " Machine",
  "3767": "edia",
  "3768": " उपमह",
  "3769": " उपमहाद्वीप",
  "3770": " दृष्टि",
  "3771": " बंग",
  "3772": " चु",
  "3773": " बौ",
  "3774": " बौद्ध",
  "3775": " गुप्त",
  "3776": "उ",
  "3777": "जन",
  "3778": " तट",
  "3779": "स्ल",
  "3780": "स्लिम",
  "3781": " दिल्ल",
  "3782": " दिल्ली",
  "3783": " सल",
  "3784": " सल्त",
  "3785": " सल्तन",
  "3786": " सल्तनत",
  "3787": " वीं",
  "3788": "ंबे",
  "3789": " बनाई",
  "3790": " पंज",
  "3791": " पंजाब",
  "3792": " इंडिया",
  "3793": " विस्तार",
  "3794": " अर्थव्यवस्था",
  "3795": "ंस",
  "3796": "ोध",
  "3797": " आधार",
  "3798": " बढ़कर",
  "3799": " शुरु�",
  "3800": " शुरुआ",
  "3801": "्षर",
  "3802": " प्रौ",
  "3803": " प्रौद्योगिक",
  "3804": " प्रौद्योगिकी",
  "3805": " अन्तर",
  "3806": " संगीत",
  "3807": "ात्म",
  "3808": " परंपर",
  "3809": " देखा",
  "3810": " आव",
  "3811": " निव",
  "3812": " जिसका",
  "3813": " प्रच",
  "3814": " प्रचल",
  "3815": " वर्त",
  "3816": " वर्तमान",
  "3817": "वर्ष",
  "3818": " घाट",
  "3819": "नेक",
  "3820": "पूर्ण",
  "3821": " पहु�",
  "3822": " पहुँ",
  "3823": "्ञ",
  "3824": "तम",
  "3825": " जीव",
  "3826": " आज",
  "3827": " विकस",
  "3828": " विकसित",
  "3829": " आस",
  "3830": " विभिन्न",
  "3831": " निर्�",
  "3832": "ौह",
  "3833": "-प",
  "3834": " प्रारम्भ",
  "3835": "ोटे",
  "3836": " छोड़",
  "3837": " लोगों",
  "3838": "दा",
  "3839": "र्श",
  "3840": " उभ",
  "3841": " हिस",
  "3842": " हिस्स",
  "3843": " उच्च",
  "3844": "शासन",
  "3845": "ला",
  "3846": " उसके",
  "3847": " तो",
  "3848": " कोई",
  "3849": " मूल",
  "3850": " राजधान",
  "3851": " राजधानी",
  "3852": "ंदिर",
  "3853": "ियत",
  "3854": "टन",
  "3855": " किये",
  "3856": " पुर्त",
  "3857": " पुर्तग",
  "3858": " फ्र",
  "3859": " व्यापार",
  "3860": " लड़",
  "3861": "ास्त",
  "3862": " जनता",
  "3863": " बाह",
  "3864": " हर",
  "3865": "ायक",
  "3866": " प्रस",
  "3867": " आन्दोलन",
  "3868": " सामाज",
  "3869": " सामाजिक",
  "3870": " संघर्ष",
  "3871": "दार",
  "3872": " सिंह",
  "3873": "१५",
  "3874": " जनवरी",
  "3875": "पेक्ष",
  "3876": "तां",
  "3877": "तांत्र",
  "3878": "तांत्रिक",
  "3879": " केवल",
  "3880": " रही",
  "3881": "झ",
  "3882": " जलवायु",
  "3883": "ौर",
  "3884": "२४",
  "3885": " जह",
  "3886": " जहाँ",
  "3887": " नदियाँ",
  "3888": " ढ",
  "3889": " कहते",
  "3890": " किस",
  "3891": " नव",
  "3892": "ेल",
  "3893": " पूर्वी",
  "3894": "िबंध",
  "3895": " निम",
  "3896": ");\n",
  "3897": " जून",
  "3898": " मानस",
  "3899": " मानसून",
  "3900": "बर",
  "3901": "ियां",
  "3902": "्याद",
  "3903": "२०१",
  "3904": " राजन",
  "3905": " राजनै",
  "3906": " राजनैतिक",
  "3907": " जीत",
  "3908": "जी",
  "3909": " सरकारें",
  "3910": " ऐ",
  "3911": " जी",
  "3912": "रात",
  "3913": " माध",
  "3914": " माध्यम",
  "3915": " मंत्र",
  "3916": " अलावा",
  "3917": " अभियान",
  "3918": "दारी",
  "3919": " अमेर",
  "3920": " अमेरिका",
  "3921": "िष्ठ",
  "3922": " पर्य",
  "3923": "75",
  "3924": " मिलियन",
  "3925": "మీ",
  "3926": "ీర్ణ",
  "3927": "�ామ",
  "3928": "పాల",
  "3929": " కలిగ",
  "3930": "క్త",
  "3931": "ముద",
  "3932": " అనేక",
  "3933": " చైన",
  "3934": "ాల్",
  "3935": "్క",
  "3936": " జాత",
  "3937": " ప్రాంతాల",
  "3938": "ాటు",
  "3939": " శత",
  "3940": " శతాబ్ద",
  "3941": " శతాబ్దం",
  "3942": " నుండి",
  "3943": "ిష",
  "3944": " చేస",
  "3945": " స్వాత",
  "3946": " స్వాతంత్ర",
  "3947": " జరిగిన",
  "3948": "తంత్ర",
  "3949": "�ిక",
  "3950": " అను",
  "3951": " అభ",
  "3952": "క్షర",
  "3953": "్లను",
  "3954": "ుప",
  "3955": " మొత్త",
  "3956": " మొత్తం",
  "3957": "ేద",
  "3958": " పండు",
  "3959": " ఎక్కువగా",
  "3960": " ఉంటాయి",
  "3961": "నుక",
  "3962": "రత",
  "3963": "ర్ష",
  "3964": "ినది",
  "3965": "దేశం",
  "3966": " పూ",
  "3967": "ఆ",
  "3968": " రెండు",
  "3969": "రిత్ర",
  "3970": " ప్రాచ",
  "3971": "ాశ",
  "3972": "ర్గ",
  "3973": "ాండ",
  "3974": " సార",
  "3975": " ఖ",
  "3976": "లతో",
  "3977": " ఐ",
  "3978": "ిస్థ",
  "3979": "రం",
  "3980": "ష్ట",
  "3981": "ిద్�",
  "3982": "ిద్ధ",
  "3983": " సర్వ",
  "3984": " తన",
  "3985": "మంత్ర",
  "3986": " నిర్వ",
  "3987": " నిర్వహ",
  "3988": " ఆర్ధిక",
  "3989": "కారం",
  "3990": " రాష్ట్రప",
  "3991": "రాష్ట్ర",
  "3992": " పద్ధ",
  "3993": "క్",
  "3994": "�్య",
  "3995": " చేయ",
  "3996": " కోర్ట",
  "3997": " కాంగ్రెసు",
  "3998": " ప్రతిప",
  "3999": " వాత",
  "4000": " వాతావ",
  "4001": " వాతావరణ",
  "4002": " వాతావరణం",
  "4003": " జనాభా",
  "4004": " జాబ",
  "4005": " జాబిత",
  "4006": " ప్రస్తుతం",
  "4007": " పరిశ",
  "4008": "ించే",
  "4009": " నగ",
  "4010": "స్ల",
  "4011": "ిడ",
  "4012": " తమ",
  "4013": " తమిళ",
  "4014": " రైల్వ",
  "4015": "ుగా",
  "4016": " మన",
  "4017": " రహదారులు",
  "4018": " బె",
  "4019": " బెంగాల",
  "4020": " వెబ",
  "4021": "),​",
  "4022": " ingl",
  "4023": " inglés",
  "4024": " habitantes",
  "4025": " Su",
  "4026": " plan",
  "4027": " largo",
  "4028": " ciudad",
  "4029": " Indias",
  "4030": " Orientales",
  "4031": " estuvo",
  "4032": " república",
  "4033": " terc",
  "4034": " tercera",
  "4035": " rá",
  "4036": " ráp",
  "4037": " alber",
  "4038": " fl",
  "4039": " uno",
  "4040": "miti",
  "4041": " desigual",
  "4042": " gana",
  "4043": " renta",
  "4044": " solo",
  "4045": "forme",
  "4046": " oficiales",
  "4047": " him",
  "4048": " sánscrito",
  "4049": " rí",
  "4050": " Constitución",
  "4051": " recon",
  "4052": " símbolos",
  "4053": "puest",
  "4054": " mismo",
  "4055": " estatus",
  "4056": " humanos",
  "4057": " conoci",
  "4058": " habían",
  "4059": " hace",
  "4060": "ueb",
  "4061": " alim",
  "4062": "amiento",
  "4063": "istán",
  "4064": "dose",
  "4065": " artes",
  "4066": " regiones",
  "4067": "édic",
  "4068": " indo",
  "4069": "eros",
  "4070": "ió",
  "4071": " modelo",
  "4072": " había",
  "4073": " redu",
  "4074": " tanto",
  "4075": " militar",
  "4076": "ensa",
  "4077": " literatura",
  "4078": "onal",
  "4079": " dent",
  "4080": " dentro",
  "4081": " familia",
  "4082": " administración",
  "4083": " clásica",
  "4084": " regionales",
  "4085": "ética",
  "4086": " agrícola",
  "4087": " nuevas",
  "4088": " tradicionales",
  "4089": "cias",
  "4090": " económicos",
  "4091": " cuando",
  "4092": " ya",
  "4093": " musulmanes",
  "4094": " condu",
  "4095": " sultanato",
  "4096": " realiz",
  "4097": "unque",
  "4098": " homb",
  "4099": " hombres",
  "4100": " después",
  "4101": " entonces",
  "4102": " bajo",
  "4103": "sión",
  "4104": " empres",
  "4105": " europe",
  "4106": " costa",
  "4107": " posterior",
  "4108": "zo",
  "4109": " británico",
  "4110": " cambi",
  "4111": " cambios",
  "4112": "idas",
  "4113": "gos",
  "4114": "entos",
  "4115": " ay",
  "4116": " Según",
  "4117": "iendo",
  "4118": " trabajo",
  "4119": "tuvo",
  "4120": " llam",
  "4121": " Estados",
  "4122": " papel",
  "4123": " importante",
  "4124": " mundial",
  "4125": "endencia",
  "4126": ".​​\n",
  "4127": "ecutivo",
  "4128": " partido",
  "4129": " cámara",
  "4130": " consiste",
  "4131": "endo",
  "4132": ").​",
  "4133": " coalición",
  "4134": " cuatro",
  "4135": " concent",
  "4136": " grupos",
  "4137": " tienen",
  "4138": " cordi",
  "4139": " Pa",
  "4140": "ráfica",
  "4141": " además",
  "4142": " personas",
  "4143": " dó",
  "4144": " dól",
  "4145": " dólares",
  "4146": " ni",
  "4147": " Crí",
  "4148": " Críquet",
  "4149": " Repu",
  "4150": " Republic",
  "4151": "bian",
  "4152": " Sea",
  "4153": " Myan",
  "4154": " Myanmar",
  "4155": " near",
  "4156": " Lanka",
  "4157": " Africa",
  "4158": " Their",
  "4159": " pred",
  "4160": " predomin",
  "4161": " diverse",
  "4162": " marg",
  "4163": " Valley",
  "4164": " recorded",
  "4165": " Dra",
  "4166": " Dravidi",
  "4167": " Dravidian",
  "4168": " within",
  "4169": " heredi",
  "4170": "ave",
  "4171": " Gupta",
  "4172": " flo",
  "4173": " writ",
  "4174": "ined",
  "4175": "touch",
  "4176": "ability",
  "4177": " scrip",
  "4178": "tian",
  "4179": " established",
  "4180": " resulting",
  "4181": "etwork",
  "4182": " medieval",
  "4183": "jay",
  "4184": "anag",
  "4185": "ject",
  "4186": " rich",
  "4187": " colonial",
  "4188": " rights",
  "4189": " took",
  "4190": " influence",
  "4191": " factor",
  "4192": " partition",
  "4193": "-m",
  "4194": " fast",
  "4195": " reduced",
  "4196": "ality",
  "4197": " Kashm",
  "4198": " Kashmir",
  "4199": "ls",
  "4200": "diversity",
  "4201": " wild",
  "4202": "life",
  "4203": " traditionally",
  "4204": " refer",
  "4205": " histor",
  "4206": " Gree",
  "4207": " Greek",
  "4208": " '",
  "4209": "lied",
  "4210": " curr",
  "4211": "sta",
  "4212": " Hindust",
  "4213": "ring",
  "4214": " extant",
  "4215": "iens",
  "4216": " Ho",
  "4217": " However",
  "4218": " known",
  "4219": " about",
  "4220": "vid",
  "4221": "700",
  "4222": "omestic",
  "4223": " gra",
  "4224": " cat",
  "4225": "190",
  "4226": "-daro",
  "4227": "avi",
  "4228": "avira",
  "4229": " features",
  "4230": " work",
  "4231": " olde",
  "4232": " oldest",
  "4233": " composed",
  "4234": "peak",
  "4235": "han",
  "4236": "ling",
  "4237": " place",
  "4238": " when",
  "4239": "ining",
  "4240": " agriculture",
  "4241": " ref",
  "4242": " wo",
  "4243": " regist",
  "4244": " called",
  "4245": " conte",
  "4246": "ured",
  "4247": " conducted",
  "4248": " lay",
  "4249": " history",
  "4250": " his",
  "4251": "dop",
  "4252": "miss",
  "4253": " numer",
  "4254": "ade",
  "4255": " greater",
  "4256": "tas",
  "4257": " rene",
  "4258": " renew",
  "4259": " flow",
  "4260": "ering",
  "4261": " Chol",
  "4262": " Pall",
  "4263": " Pallav",
  "4264": "ously",
  "4265": " fav",
  "4266": " consist",
  "4267": " growing",
  "4268": " agricultural",
  "4269": " show",
  "4270": "urg",
  "4271": " development",
  "4272": " sm",
  "4273": " small",
  "4274": "tiz",
  "4275": " numbers",
  "4276": "emple",
  "4277": "nam",
  "4278": "ili",
  "4279": " Asian",
  "4280": " nom",
  "4281": " repe",
  "4282": "ays",
  "4283": " Although",
  "4284": " elites",
  "4285": " vis",
  "4286": " artis",
  "4287": " indigen",
  "4288": " indigenous",
  "4289": " bu",
  "4290": "wards",
  "4291": " again",
  "4292": " superior",
  "4293": " bal",
  "4294": " id",
  "4295": " Ak",
  "4296": " emper",
  "4297": "cies",
  "4298": " am",
  "4299": " Ex",
  "4300": " commercial",
  "4301": "lit",
  "4302": " process",
  "4303": "pr",
  "4304": " European",
  "4305": "ably",
  "4306": "ods",
  "4307": " mater",
  "4308": "urta",
  "4309": "oin",
  "4310": "hous",
  "4311": "ech",
  "4312": " invas",
  "4313": " sum",
  "4314": " directly",
  "4315": " gradual",
  "4316": "ard",
  "4317": " decades",
  "4318": "pay",
  "4319": " consu",
  "4320": " provi",
  "4321": " War",
  "4322": " sel",
  "4323": "operation",
  "4324": " enac",
  "4325": " enacted",
  "4326": " All",
  "4327": "India's",
  "4328": "conom",
  "4329": " transform",
  "4330": "atis",
  "4331": " plate",
  "4332": " approxim",
  "4333": " approximately",
  "4334": " Gond",
  "4335": " Gondw",
  "4336": " Gondwana",
  "4337": " continental",
  "4338": " upper",
  "4339": "ets",
  "4340": " continued",
  "4341": " Plateau",
  "4342": " constitu",
  "4343": " original",
  "4344": "ction",
  "4345": " To",
  "4346": " che",
  "4347": " surv",
  "4348": " Guj",
  "4349": "arat",
  "4350": "harkh",
  "4351": "harkhand",
  "4352": "44",
  "4353": " latitu",
  "4354": "aksh",
  "4355": " vol",
  "4356": "aba",
  "4357": "soon",
  "4358": " Oc",
  "4359": " clima",
  "4360": " ret",
  "4361": " disp",
  "4362": " nat",
  "4363": " exch",
  "4364": " contr",
  "4365": " tig",
  "4366": " enc",
  "4367": " reserv",
  "4368": " Ram",
  "4369": "vention",
  "4370": "Government",
  "4371": " leader",
  "4372": " Indira",
  "4373": "den",
  "4374": " body",
  "4375": " Fron",
  "4376": "liance",
  "4377": " just",
  "4378": " member",
  "4379": " single",
  "4380": " external",
  "4381": " Democ",
  "4382": "DA",
  "4383": "gres",
  "4384": " Man",
  "4385": " Modi",
  "4386": " abs",
  "4387": "ute",
  "4388": " foreign",
  "4389": " hous",
  "4390": "tives",
  "4391": " defini",
  "4392": " pan",
  "4393": " promul",
  "4394": " promulg",
  "4395": " Union",
  "4396": " Minist",
  "4397": "ordin",
  "4398": " court",
  "4399": " jur",
  "4400": " juris",
  "4401": " jurisdic",
  "4402": "ital",
  "4403": " relations",
  "4404": "eas",
  "4405": "lifer",
  "4406": " Intern",
  "4407": " At",
  "4408": "ergy",
  "4409": " Sup",
  "4410": " global",
  "4411": " crisis",
  "4412": "vest",
  "4413": " contribut",
  "4414": "porter",
  "4415": " exports",
  "4416": " before",
  "4417": " estimated",
  "4418": " pharma",
  "4419": " pharmace",
  "4420": " pharmaceu",
  "4421": " pharmaceutical",
  "4422": "reasing",
  "4423": " cooking",
  "4424": " resid",
  "4425": "volu",
  "4426": " compar",
  "4427": "ortal",
  "4428": " sex",
  "4429": "ale",
  "4430": " ban",
  "4431": " important",
  "4432": " comprom",
  "4433": "chedul",
  "4434": "\".",
  "4435": " Ass",
  "4436": " Assam",
  "4437": "04",
  "4438": " impro",
  "4439": " school",
  "4440": "900",
  "4441": " gu",
  "4442": " below",
  "4443": " entr",
  "4444": " divor",
  "4445": "iva",
  "4446": " inno",
  "4447": " innov",
  "4448": " mathematics",
  "4449": "\",",
  "4450": "uk",
  "4451": "das",
  "4452": "-dram",
  "4453": "-dramas",
  "4454": "adu",
  "4455": " fes",
  "4456": " Tod",
  "4457": "olly",
  "4458": "ollywo",
  "4459": "ollywood",
  "4460": "loth",
  "4461": " wa",
  "4462": " waist",
  "4463": " commonly",
  "4464": " kame",
  "4465": " kameez",
  "4466": " wear",
  "4467": " cooked",
  "4468": " meat",
  "4469": " vegetari",
  "4470": " tando",
  "4471": "Se",
  "4472": " kho",
  "4473": " gol",
  "4474": " Fact",
  "4475": " Factbo",
  "4476": " Factbook",
  "4477": " Wikim",
  "4478": " Wikimedia",
  "4479": "ey",
  "4480": "पूर्व",
  "4481": " श्रील",
  "4482": " श्रीलं",
  "4483": " श्रीलंका",
  "4484": "ूर्ण",
  "4485": " फैली",
  "4486": "चना",
  "4487": "ीकरण",
  "4488": " मौर्य",
  "4489": "शील",
  "4490": " इस्ल",
  "4491": " इस्लाम",
  "4492": " पश्चिमी",
  "4493": " जमा",
  "4494": " मुस्लिम",
  "4495": " विजय",
  "4496": " लंबे",
  "4497": " वाली",
  "4498": "ूत",
  "4499": "शाली",
  "4500": " अह",
  "4501": "िंस",
  "4502": " विभाज",
  "4503": " अध",
  "4504": " जिन्हें",
  "4505": " संघीय",
  "4506": " पुरुष",
  "4507": " बढ़ती",
  "4508": " शिक्ष",
  "4509": " विशेष",
  "4510": "ाफ",
  "4511": " कश",
  "4512": " कश्म",
  "4513": " कश्मीर",
  "4514": " लेकर",
  "4515": "ागत",
  "4516": " करते",
  "4517": " किए",
  "4518": " सिंध",
  "4519": " सिंधु",
  "4520": " भर",
  "4521": " रत",
  "4522": " प्रक",
  "4523": "रान",
  "4524": "  ",
  "4525": "र्ग",
  "4526": " इतिहास",
  "4527": " समृद्ध",
  "4528": " सभ्यता",
  "4529": " अनेक",
  "4530": " पहुँच",
  "4531": " अवश",
  "4532": " अवशेष",
  "4533": " जीवन",
  "4534": " शह",
  "4535": " शहरी",
  "4536": "ोहन",
  "4537": " जैसे",
  "4538": " शहर",
  "4539": " यहाँ",
  "4540": " आगमन",
  "4541": "ुड़",
  "4542": "ंथ",
  "4543": " मैदानी",
  "4544": " जाति",
  "4545": " छोटे",
  "4546": " उनके",
  "4547": " पूरे",
  "4548": " अपना",
  "4549": " अश",
  "4550": " परिण",
  "4551": " परिणाम",
  "4552": " परिणामस्व",
  "4553": " परिणामस्वरूप",
  "4554": " राजव",
  "4555": " राजवंश",
  "4556": " प्रशासन",
  "4557": " प्रण",
  "4558": " प्रणाली",
  "4559": "्ञान",
  "4560": "ांस्कृत",
  "4561": "ांस्कृतिक",
  "4562": " उसे",
  "4563": " उन्हें",
  "4564": " तुल",
  "4565": " क्रम",
  "4566": "ये",
  "4567": " कृषि",
  "4568": " उनकी",
  "4569": "१०",
  "4570": " मार",
  "4571": " फ्रांस",
  "4572": "ेन",
  "4573": "च्�",
  "4574": "च्छ",
  "4575": "राज",
  "4576": " इसमें",
  "4577": " सफल",
  "4578": " वास्त",
  "4579": " वास्तव",
  "4580": "ंत्रण",
  "4581": " ‘",
  "4582": "’",
  "4583": " होना",
  "4584": " इंदिर",
  "4585": " इंदिरा",
  "4586": " घोषणा",
  "4587": " दी",
  "4588": " इसे",
  "4589": " सदस्य",
  "4590": " परी",
  "4591": " परीक्ष",
  "4592": " परीक्षण",
  "4593": "भू",
  "4594": " गति",
  "4595": "माल",
  "4596": " ऊँची",
  "4597": "ुट",
  "4598": " सहायक",
  "4599": " करती",
  "4600": " मिश",
  "4601": " पाया",
  "4602": " पूरा",
  "4603": " तीन",
  "4604": "्यात",
  "4605": "ष्ण",
  "4606": "टिबंध",
  "4607": "टिबंधीय",
  "4608": "ाइन",
  "4609": " नम",
  "4610": "ुष्क",
  "4611": " निम्न",
  "4612": "सम",
  "4613": " ऋतु",
  "4614": "ंबर",
  "4615": "क्ट",
  "4616": " शक्त",
  "4617": " ज़",
  "4618": " शुरुआत",
  "4619": " नेहर",
  "4620": "ृत्य",
  "4621": " आम",
  "4622": "र्च",
  "4623": " बाहरी",
  "4624": " किसी",
  "4625": " पी",
  "4626": " कार्यकाल",
  "4627": " एन",
  "4628": " गुज",
  "4629": " गुजरात",
  "4630": " सश",
  "4631": "ेड",
  "4632": " विध",
  "4633": " राज्यसभा",
  "4634": " सदस्यों",
  "4635": " जिनमें",
  "4636": " नागरिक",
  "4637": " मंत्रिम",
  "4638": " मंत्रिमण्ड",
  "4639": " मंत्रिमण्डल",
  "4640": " इसका",
  "4641": " प्रत्येक",
  "4642": "ाधिकार",
  "4643": "ौहार",
  "4644": " हस्त",
  "4645": " तन",
  "4646": " तनाव",
  "4647": " सोव",
  "4648": " सोवियत",
  "4649": " संबंधों",
  "4650": " सामरिक",
  "4651": " शांति",
  "4652": " प्रदान",
  "4653": " सक्र",
  "4654": " सक्रिय",
  "4655": " भागी",
  "4656": " शक्ति",
  "4657": " नौ",
  "4658": " नौसेना",
  "4659": " रूस",
  "4660": " तरह",
  "4661": " समझ",
  "4662": "ियर",
  "4663": " बज",
  "4664": " बजट",
  "4665": "83",
  "4666": "%)",
  "4667": "PI",
  "4668": " आयात",
  "4669": " ची",
  "4670": " स्ट",
  "4671": " अमरीकी",
  "4672": " डाल",
  "4673": " डालर",
  "4674": " पर्यटन",
  "4675": " भाषाएँ",
  "4676": "२२",
  "4677": " भील",
  "4678": " झ",
  "4679": " उपयोग",
  "4680": " भाषाएं",
  "4681": "भाषा",
  "4682": "हिन्द",
  "4683": "हिन्दी",
  "4684": " दिव",
  "4685": " लोकप्र",
  "4686": " लोकप्रिय",
  "4687": " हॉ",
  "4688": " हॉकी",
  "4689": " टेली",
  "4690": " टेलीव",
  "4691": " टेलीविज",
  "4692": " सिने",
  "4693": " పై",
  "4694": " పైగా",
  "4695": " వై",
  "4696": " అతి",
  "4697": "ాస్వామ",
  "4698": "ాస్వామ్య",
  "4699": " రాష్ట్రాలు",
  "4700": " కేంద్రపాల",
  "4701": " కేంద్రపాలిత",
  "4702": " కలిగి",
  "4703": "మె",
  "4704": "రీ",
  "4705": " దేశాలలో",
  "4706": " ఒకట",
  "4707": "ఖండ",
  "4708": "ములో",
  "4709": "ిత్రక",
  "4710": "యాలు",
  "4711": " దక్షిణాన",
  "4712": " పశ",
  "4713": " పశ్చ",
  "4714": " పశ్చిమ",
  "4715": "ాదేశ",
  "4716": " భూ",
  "4717": " ఆఫ",
  "4718": "ీవ",
  "4719": "్గ",
  "4720": " ద్వీప",
  "4721": " పుట్ట",
  "4722": " సంఘ",
  "4723": " సామ్ర",
  "4724": " సామ్రాజ",
  "4725": " రాజ్యాలు",
  "4726": " బ్రిటిష",
  "4727": "స్ట",
  "4728": "ెన",
  "4729": "ుకోవడ",
  "4730": "ీష",
  "4731": " గాం",
  "4732": "ాయక",
  "4733": " ఆధార",
  "4734": " ఆర్థిక",
  "4735": "ేగ",
  "4736": "ేగంగా",
  "4737": " అభివ",
  "4738": " అభివృ",
  "4739": " అభివృద్ధ",
  "4740": " అభివృద్ధి",
  "4741": "ుతున్న",
  "4742": "క్షరాస",
  "4743": "క్షరాస్య",
  "4744": "క్షరాస్యత",
  "4745": " అవ",
  "4746": " పో",
  "4747": " వంటి",
  "4748": "ర్క",
  "4749": "ర్కొ",
  "4750": "ర్లు",
  "4751": "ట్లు",
  "4752": " భారతదేశానికి",
  "4753": "ప్పటికీ",
  "4754": "యో",
  "4755": "లస",
  "4756": "ష్�",
  "4757": "ష్ణ",
  "4758": " గో",
  "4759": "ంటే",
  "4760": " దేశంలో",
  "4761": " విశ",
  "4762": "ుతో",
  "4763": " రూప",
  "4764": " పొ",
  "4765": "వు",
  "4766": " సంవత",
  "4767": " సంవత్స",
  "4768": "పూ",
  "4769": "ెహ",
  "4770": " విధ",
  "4771": " వారస",
  "4772": " వారసత్వ",
  "4773": "ేవ",
  "4774": " యు",
  "4775": "్యులు",
  "4776": "ోళ",
  "4777": " శాస్త్రం",
  "4778": "ేత",
  "4779": "రుష",
  "4780": "న్నాయి",
  "4781": " ఫ",
  "4782": "డి",
  "4783": "ితి",
  "4784": "మన",
  "4785": " ఆక్రమ",
  "4786": "ాలతో",
  "4787": " కూడిన",
  "4788": " లక్ష",
  "4789": " ప్రధానమంత్ర",
  "4790": "ర్జ",
  "4791": "ణంగా",
  "4792": " ప్రకారం",
  "4793": " రాష్ట్రపతి",
  "4794": " పద",
  "4795": "మైనది",
  "4796": " కార్య",
  "4797": " లోక్",
  "4798": " సంఖ్య",
  "4799": " సంక",
  "4800": "ిని",
  "4801": " అని",
  "4802": "ూచ",
  "4803": "స్",
  "4804": " ఘ",
  "4805": " వహ",
  "4806": " చరిత్ర",
  "4807": "త్ర",
  "4808": "మై",
  "4809": "ాగా",
  "4810": " మాత్రం",
  "4811": "ంచి",
  "4812": " సంప",
  "4813": " సంప్ర",
  "4814": " సంప్రదాయ",
  "4815": " పాకిస్థ",
  "4816": "మ్మ",
  "4817": " ప్రజల",
  "4818": "ాదన",
  "4819": " జాబితా",
  "4820": " పాత్ర",
  "4821": " పరిశ్రమ",
  "4822": "వే",
  "4823": " మూడు",
  "4824": "దర",
  "4825": "ాబాద్",
  "4826": " ఉన్నారు",
  "4827": "%),",
  "4828": " కుటు",
  "4829": " కుటుంబ",
  "4830": "ాలకు",
  "4831": " భాషలు",
  "4832": " అధికారిక",
  "4833": " సంస్కృత",
  "4834": " రకాల",
  "4835": " సర్వీ",
  "4836": " సర్వీస",
  "4837": " రైళ",
  "4838": " పాక్",
  "4839": " నడిపించ",
  "4840": "టం",
  "4841": "ిస్తున్న",
  "4842": " రో",
  "4843": "లం",
  "4844": "ిక్",
  "4845": " సాంప్ర",
  "4846": " సాంప్రదాయ",
  "4847": " సంగీతం",
  "4848": " చెందిన",
  "4849": " సినిమా",
  "4850": " బెంగాలీ",
  "4851": " సాధించ",
  "4852": " క్య",
  "4853": "ినాలు",
  "4854": " వెబ్",
  "4855": " Rep",
  "4856": " República",
  "4857": " sober",
  "4858": "ita",
  "4859": " Í",
  "4860": " Ín",
  "4861": " Índi",
  "4862": " kilóm",
  "4863": " kilómet",
  "4864": " kilómetros",
  "4865": "lad",
  "4866": " cer",
  "4867": " sij",
  "4868": " religiones",
  "4869": " XV",
  "4870": "III",
  "4871": " independencia",
  "4872": " marc",
  "4873": " movimiento",
  "4874": " parlament",
  "4875": " reformas",
  "4876": " rápido",
  "4877": " const",
  "4878": "chos",
  "4879": " pose",
  "4880": " sociedad",
  "4881": " alberga",
  "4882": " difer",
  "4883": "áb",
  "4884": " proteg",
  "4885": "ratado",
  "4886": " permiti",
  "4887": "ría",
  "4888": " élite",
  "4889": " todo",
  "4890": " bengal",
  "4891": " bengalí",
  "4892": ".[",
  "4893": "cita",
  "4894": " requ",
  "4895": " requer",
  "4896": " requerida",
  "4897": " denomin",
  "4898": " Estado",
  "4899": " anim",
  "4900": " animales",
  "4901": " unión",
  "4902": " común",
  "4903": " Á",
  "4904": " África",
  "4905": " donde",
  "4906": "ruct",
  "4907": " primera",
  "4908": "ció",
  "4909": " formas",
  "4910": " escrit",
  "4911": " historiadores",
  "4912": "izado",
  "4913": " noroeste",
  "4914": "arqu",
  "4915": " campes",
  "4916": "yó",
  "4917": " ocup",
  "4918": " mes",
  "4919": " meseta",
  "4920": " Decán",
  "4921": " así",
  "4922": " tan",
  "4923": " peque",
  "4924": "édicos",
  "4925": " cuales",
  "4926": "ñan",
  "4927": " todas",
  "4928": "cios",
  "4929": " amb",
  "4930": " áreas",
  "4931": "yes",
  "4932": "estión",
  "4933": " llev",
  "4934": " reinos",
  "4935": "teriores",
  "4936": " esc",
  "4937": " arqu",
  "4938": " arquitect",
  "4939": " arquitectura",
  "4940": " También",
  "4941": " intent",
  "4942": " aún",
  "4943": " controlar",
  "4944": " mucho",
  "4945": " igual",
  "4946": "encias",
  "4947": " lenguas",
  "4948": "jeron",
  "4949": " ef",
  "4950": " políticos",
  "4951": " er",
  "4952": " veces",
  "4953": " ejér",
  "4954": " ejérci",
  "4955": " budistas",
  "4956": "Des",
  "4957": " utiliz",
  "4958": "ám",
  "4959": " élites",
  "4960": " fuerte",
  "4961": " tecnolog",
  "4962": " tecnología",
  "4963": " principalmente",
  "4964": "ambio",
  "4965": " prá",
  "4966": " prác",
  "4967": " casi",
  "4968": " económica",
  "4969": "arias",
  "4970": " recono",
  "4971": " estas",
  "4972": "car",
  "4973": " europeas",
  "4974": " hac",
  "4975": "oment",
  "4976": " conver",
  "4977": " converti",
  "4978": " manera",
  "4979": " educación",
  "4980": "ológicos",
  "4981": " fer",
  "4982": " centro",
  "4983": " Congres",
  "4984": " Congreso",
  "4985": " Indio",
  "4986": " agricultores",
  "4987": " proporcion",
  "4988": " hambruna",
  "4989": " ayud",
  "4990": " industria",
  "4991": " propiedad",
  "4992": " cuar",
  "4993": " ning",
  "4994": " seguido",
  "4995": "arse",
  "4996": "operación",
  "4997": " obtuvo",
  "4998": " esp",
  "4999": " relacion",
  "5000": " noreste",
  "5001": " naciones",
  "5002": " recientes",
  "5003": " eleg",
  "5004": " mandato",
  "5005": " ejecutivo",
  "5006": "sejo",
  "5007": " incluyendo",
  "5008": "quierda",
  "5009": " formó",
  "5010": " comunic",
  "5011": " comunicación",
  "5012": " medios",
  "5013": "ím",
  "5014": " nivel",
  "5015": " están",
  "5016": " relaciones",
  "5017": " guerra",
  "5018": " dismin",
  "5019": " disminu",
  "5020": " Paqu",
  "5021": " Paquistán",
  "5022": " Organización",
  "5023": " equip",
  "5024": " lingü",
  "5025": " lingüís",
  "5026": "rafía",
  "5027": " cordill",
  "5028": "erto",
  "5029": " contiene",
  "5030": " Andamán",
  "5031": " todos",
  "5032": "ífer",
  "5033": " existen",
  "5034": " endémicas",
  "5035": " bosques",
  "5036": " rur",
  "5037": " rurales",
  "5038": " %,",
  "5039": " últimas",
  "5040": " té",
  "5041": "edio",
  "5042": " días",
  "5043": " musulmana",
  "5044": " menu",
  "5045": " menudo",
  "5046": "rimon",
  "5047": " populares",
  "5048": " cele",
  "5049": " celeb",
  "5050": "ticias",
  "5051": " danza",
  "5052": " obras",
  "5053": " críquet",
  "5054": " area",
  "5055": " populous",
  "5056": " independence",
  "5057": "racy",
  "5058": "cean",
  "5059": " Arabian",
  "5060": " Bay",
  "5061": " bor",
  "5062": " Nep",
  "5063": " Bangla",
  "5064": " Bangladesh",
  "5065": " Islands",
  "5066": " share",
  "5067": " isol",
  "5068": " margins",
  "5069": " basin",
  "5070": " gradually",
  "5071": " Civilisation",
  "5072": "aic",
  "5073": "-E",
  "5074": "-European",
  "5075": " northwest",
  "5076": " hy",
  "5077": "mn",
  "5078": "ings",
  "5079": "isen",
  "5080": "arly",
  "5081": " gave",
  "5082": " loose",
  "5083": "-k",
  "5084": "tivity",
  "5085": " archit",
  "5086": " architec",
  "5087": " architecture",
  "5088": " status",
  "5089": "touchability",
  "5090": " belief",
  "5091": " Mid",
  "5092": " Middle",
  "5093": " cultures",
  "5094": "uda",
  "5095": " Z",
  "5096": "oroastri",
  "5097": " armies",
  "5098": " plains",
  "5099": " Sultan",
  "5100": " Vijay",
  "5101": " Vijayanag",
  "5102": " Vijayanagara",
  "5103": " Sikhism",
  "5104": " institution",
  "5105": " religion",
  "5106": " expans",
  "5107": "rad",
  "5108": "anding",
  "5109": " sover",
  "5110": " sovereign",
  "5111": " sovereignty",
  "5112": " slow",
  "5113": " introduced",
  "5114": "192",
  "5115": " primary",
  "5116": " loss",
  "5117": "ced",
  "5118": "comp",
  "5119": " plural",
  "5120": "-e",
  "5121": " society",
  "5122": "361",
  "5123": " capita",
  "5124": " pover",
  "5125": " poverty",
  "5126": " ine",
  "5127": " inequ",
  "5128": " inequality",
  "5129": " disputes",
  "5130": "aces",
  "5131": " maln",
  "5132": " malnut",
  "5133": " malnutri",
  "5134": " leve",
  "5135": " mega",
  "5136": " wildlife",
  "5137": " supported",
  "5138": " protected",
  "5139": "tym",
  "5140": "mediately",
  "5141": "ν",
  "5142": "ν�",
  "5143": "νδ",
  "5144": " extens",
  "5145": "the",
  "5146": "ārat",
  "5147": "ˈ",
  "5148": "ː",
  "5149": " ep",
  "5150": " name",
  "5151": " originally",
  "5152": " North",
  "5153": " gain",
  "5154": " currency",
  "5155": "assing",
  "5156": "Hist",
  "5157": "An",
  "5158": "omo",
  "5159": " sap",
  "5160": " reac",
  "5161": " reached",
  "5162": " like",
  "5163": " initi",
  "5164": " Bal",
  "5165": "inclu",
  "5166": " animals",
  "5167": "eb",
  "5168": "urred",
  "5169": " Har",
  "5170": " character",
  "5171": " stand",
  "5172": " seals",
  "5173": " written",
  "5174": " arts",
  "5175": " town",
  "5176": " today",
  "5177": " Ved",
  "5178": " associ",
  "5179": "—w",
  "5180": "-Ary",
  "5181": "-Aryan",
  "5182": " across",
  "5183": " setting",
  "5184": " ir",
  "5185": " prepar",
  "5186": " dri",
  "5187": " bro",
  "5188": " broad",
  "5189": " being",
  "5190": " parts",
  "5191": "amma",
  "5192": " would",
  "5193": "ters",
  "5194": "ṇ",
  "5195": "bh",
  "5196": " range",
  "5197": " urbanisation",
  "5198": " tak",
  "5199": " those",
  "5200": "ressed",
  "5201": " heredit",
  "5202": "iving",
  "5203": " could",
  "5204": " these",
  "5205": " back",
  "5206": " exten",
  "5207": " extensive",
  "5208": " Ash",
  "5209": " Ashok",
  "5210": " Ashoka",
  "5211": " bri",
  "5212": " excep",
  "5213": "ep",
  "5214": " notable",
  "5215": " texts",
  "5216": " speak",
  "5217": " Kal",
  "5218": " adop",
  "5219": " polic",
  "5220": "elf",
  "5221": "are",
  "5222": " forests",
  "5223": "By",
  "5224": " administration",
  "5225": " rather",
  "5226": " assert",
  "5227": " refle",
  "5228": " Sang",
  "5229": " Sangam",
  "5230": " Cholas",
  "5231": " Ka",
  "5232": " Kaver",
  "5233": " Kaveri",
  "5234": " Pandyas",
  "5235": " Va",
  "5236": " six",
  "5237": " Pallavas",
  "5238": " conserv",
  "5239": "aced",
  "5240": " partic",
  "5241": " particular",
  "5242": " age",
  "5243": "600",
  "5244": " lands",
  "5245": "ditional",
  "5246": " classes",
  "5247": " resurg",
  "5248": "yal",
  "5249": " capital",
  "5250": " appe",
  "5251": " appear",
  "5252": " anoth",
  "5253": " another",
  "5254": " eff",
  "5255": "une",
  "5256": " merch",
  "5257": " sometim",
  "5258": " sometimes",
  "5259": "After",
  "5260": "-w",
  "5261": " event",
  "5262": "rup",
  "5263": " laws",
  "5264": " sav",
  "5265": " devast",
  "5266": "ening",
  "5267": " strong",
  "5268": " came",
  "5269": " then",
  "5270": "anced",
  "5271": " administra",
  "5272": " practices",
  "5273": " inclus",
  "5274": " Es",
  "5275": " tribal",
  "5276": " identi",
  "5277": " Akbar",
  "5278": "ung",
  "5279": "ms",
  "5280": " policies",
  "5281": " reven",
  "5282": " revenues",
  "5283": " enter",
  "5284": " textiles",
  "5285": "her",
  "5286": "puts",
  "5287": " coll",
  "5288": "abor",
  "5289": " recog",
  "5290": " late",
  "5291": " increasingly",
  "5292": " bl",
  "5293": " compan",
  "5294": " companies",
  "5295": " adv",
  "5296": " strength",
  "5297": " manu",
  "5298": " manuf",
  "5299": " goods",
  "5300": " Many",
  "5301": " severe",
  "5302": " having",
  "5303": "184",
  "5304": " Lord",
  "5305": " rail",
  "5306": " railw",
  "5307": " Europe",
  "5308": "ellion",
  "5309": " safe",
  "5310": "guard",
  "5311": "188",
  "5312": "ush",
  "5313": "alf",
  "5314": " marked",
  "5315": "mers",
  "5316": " fam",
  "5317": "ks",
  "5318": " industrial",
  "5319": " provided",
  "5320": "rid",
  "5321": "-operation",
  "5322": " decade",
  "5323": " particip",
  "5324": " Jamm",
  "5325": " Jammu",
  "5326": "theast",
  "5327": " territorial",
  "5328": "ustr",
  "5329": "ustrali",
  "5330": " supercontin",
  "5331": " crust",
  "5332": " Euras",
  "5333": "one",
  "5334": " sti",
  "5335": "ibet",
  "5336": "idly",
  "5337": " sediment",
  "5338": "-G",
  "5339": " makes",
  "5340": " Desert",
  "5341": " remaining",
  "5342": "ives",
  "5343": "pur",
  "5344": " Jharkhand",
  "5345": " Deccan",
  "5346": " flan",
  "5347": " contains",
  "5348": " Himalayan",
  "5349": " rivers",
  "5350": "anti",
  "5351": " Brahma",
  "5352": " Brahmaput",
  "5353": " Brahmaputra",
  "5354": " drain",
  "5355": "ort",
  "5356": " Kosi",
  "5357": " kilom",
  "5358": " kilomet",
  "5359": " kilometres",
  "5360": " bel",
  "5361": " belong",
  "5362": " consists",
  "5363": "43",
  "5364": " lat",
  "5365": " latter",
  "5366": "agos",
  "5367": "ivo",
  "5368": " summer",
  "5369": " simil",
  "5370": " moist",
  "5371": "aden",
  "5372": " cause",
  "5373": " present",
  "5374": " employed",
  "5375": "tri",
  "5376": " contain",
  "5377": " endemic",
  "5378": " mamm",
  "5379": " mammals",
  "5380": " plant",
  "5381": " displ",
  "5382": "ayed",
  "5383": "ught",
  "5384": " exchange",
  "5385": "till",
  "5386": "king",
  "5387": "45",
  "5388": " reptiles",
  "5389": "hibi",
  "5390": " threat",
  "5391": "ened",
  "5392": "tically",
  "5393": " recent",
  "5394": " respon",
  "5395": " added",
  "5396": " Bios",
  "5397": "sar",
  "5398": " Party",
  "5399": " right",
  "5400": " Jaw",
  "5401": " Jawa",
  "5402": " Jawahar",
  "5403": " Jawaharl",
  "5404": " Jawaharlal",
  "5405": " offic",
  "5406": " office",
  "5407": " chos",
  "5408": " chosen",
  "5409": " She",
  "5410": " defe",
  "5411": "content",
  "5412": " vo",
  "5413": " opp",
  "5414": "ji",
  "5415": " ministers",
  "5416": " retur",
  "5417": " oper",
  "5418": " Rajiv",
  "5419": " Front",
  "5420": " Chand",
  "5421": " minor",
  "5422": " governments",
  "5423": " follow",
  "5424": " Bi",
  "5425": "-C",
  "5426": "resident",
  "5427": " UPA",
  "5428": " Constituent",
  "5429": " Asse",
  "5430": " Assemb",
  "5431": " Assembly",
  "5432": " describ",
  "5433": "erci",
  "5434": " constitutional",
  "5435": " head",
  "5436": " elected",
  "5437": " representa",
  "5438": " village",
  "5439": "Ar",
  "5440": "fol",
  "5441": "folio",
  "5442": " subordin",
  "5443": " judi",
  "5444": " supre",
  "5445": " tri",
  "5446": " Ter",
  "5447": " Westmin",
  "5448": " Westmins",
  "5449": " Westminster",
  "5450": " bo",
  "5451": " becom",
  "5452": " becoming",
  "5453": " Non",
  "5454": " went",
  "5455": " Sovi",
  "5456": " test",
  "5457": " weap",
  "5458": " weapons",
  "5459": "round",
  "5460": " signed",
  "5461": "ither",
  "5462": " Treat",
  "5463": " Treaty",
  "5464": "-P",
  "5465": "crimin",
  "5466": " use",
  "5467": "redi",
  "5468": "Sin",
  "5469": " Col",
  "5470": " restric",
  "5471": " energy",
  "5472": "Econom",
  "5473": " domestic",
  "5474": " nation",
  "5475": "chas",
  "5476": " aver",
  "5477": " average",
  "5478": "mograph",
  "5479": "mographics",
  "5480": " fall",
  "5481": "ail",
  "5482": " regul",
  "5483": " trade",
  "5484": " calend",
  "5485": "uring",
  "5486": "�",
  "5487": "₹",
  "5488": ").\n",
  "5489": "reen",
  "5490": " gas",
  "5491": "62",
  "5492": "63",
  "5493": " residents",
  "5494": " report",
  "5495": "54",
  "5496": " where",
  "5497": " rati",
  "5498": " fem",
  "5499": " Fe",
  "5500": "ticide",
  "5501": " stu",
  "5502": "pped",
  "5503": "53",
  "5504": "abad",
  "5505": "anguages",
  "5506": " compromise",
  "5507": "ii",
  "5508": " formal",
  "5509": "cheduled",
  "5510": " oth",
  "5511": " others",
  "5512": " val",
  "5513": "annada",
  "5514": "ayal",
  "5515": "ayalam",
  "5516": "ipuri",
  "5517": "Relig",
  "5518": "after",
  "5519": " fre",
  "5520": "...",
  "5521": " express",
  "5522": " fa",
  "5523": " Ni",
  "5524": "82",
  "5525": "93",
  "5526": " schools",
  "5527": " Pri",
  "5528": "uber",
  "5529": "ubercul",
  "5530": "uberculos",
  "5531": "uberculosis",
  "5532": "HO",
  "5533": "140",
  "5534": " lab",
  "5535": " patri",
  "5536": " very",
  "5537": " marriages",
  "5538": "anged",
  "5539": " natal",
  "5540": " band",
  "5541": " influences",
  "5542": " style",
  "5543": "rana",
  "5544": "ple",
  "5545": " different",
  "5546": " sites",
  "5547": "anta",
  "5548": " bron",
  "5549": " manus",
  "5550": " manuscrip",
  "5551": " considera",
  "5552": " considerable",
  "5553": "day",
  "5554": " folk",
  "5555": " ver",
  "5556": " mathematical",
  "5557": " transmit",
  "5558": " transmitted",
  "5559": " contributions",
  "5560": " neg",
  "5561": " trig",
  "5562": " fun",
  "5563": " examp",
  "5564": " example",
  "5565": "rin",
  "5566": "vis",
  "5567": " instru",
  "5568": "ile",
  "5569": "az",
  "5570": " cine",
  "5571": " promin",
  "5572": "hau",
  "5573": " Pra",
  "5574": " Pradesh",
  "5575": "angra",
  "5576": " pi",
  "5577": " cloth",
  "5578": "ulder",
  "5579": "alwar",
  "5580": "amas",
  "5581": " kurta",
  "5582": " nar",
  "5583": " chur",
  "5584": " churid",
  "5585": " churidars",
  "5586": "tton",
  "5587": " je",
  "5588": " dish",
  "5589": " dishes",
  "5590": "isi",
  "5591": " hoc",
  "5592": " hockey",
  "5593": " Archived",
  "5594": " News",
  "5595": " Open",
  "5596": "गोल",
  "5597": "-पूर्व",
  "5598": " महास",
  "5599": " महासाग",
  "5600": " महासागर",
  "5601": " माल",
  "5602": " मालद",
  "5603": " मालदीव",
  "5604": " इंडो",
  "5605": "ेशिया",
  "5606": " सीमा",
  "5607": " बंगाल",
  "5608": " सम्पूर्ण",
  "5609": " तब",
  "5610": " चुकी",
  "5611": " जैन",
  "5612": "प्रारम्भ",
  "5613": "प्रारम्भिक",
  "5614": " साम्राज्यों",
  "5615": " जन्म",
  "5616": " भरा",
  "5617": " सेन",
  "5618": " सेनाओं",
  "5619": " उत्त",
  "5620": " उत्तरी",
  "5621": " लगात",
  "5622": " लगातार",
  "5623": " अत्य",
  "5624": " अन्ततः",
  "5625": "ग्र",
  "5626": "-धी",
  "5627": "-धीरे",
  "5628": " ईस्ट",
  "5629": " कंप",
  "5630": " जिसने",
  "5631": "्रभ",
  "5632": "्रभु",
  "5633": " मज",
  "5634": "बूत",
  "5635": " प्रभावशाली",
  "5636": "वादी",
  "5637": " आंद",
  "5638": " आंदोलन",
  "5639": " अहिंस",
  "5640": " विरोध",
  "5641": "ुत",
  "5642": "121",
  "5643": "76",
  "5644": " प्रति",
  "5645": " साक",
  "5646": " साक्षर",
  "5647": " साक्षरता",
  "5648": " पुरुषों",
  "5649": " तेज",
  "5650": " सूचना",
  "5651": " सेवाओं",
  "5652": "ेख",
  "5653": " प्रग",
  "5654": "िल्म",
  "5655": " शिक्षा",
  "5656": " परंपरागत",
  "5657": " निवास",
  "5658": "त्ति",
  "5659": "वत",
  "5660": " वंश",
  "5661": "ेव",
  "5662": " मत",
  "5663": " आंत",
  "5664": " आंतरिक",
  "5665": " प्रकाश",
  "5666": " हिन्दुस",
  "5667": " हिन्दुस्तान",
  "5668": " भूमि",
  "5669": " प्रचलित",
  "5670": "द्वीप",
  "5671": " घाटी",
  "5672": " चर",
  "5673": " शाम",
  "5674": " शामिल",
  "5675": " मानव",
  "5676": " प्राचीनतम",
  "5677": "ाना",
  "5678": " आते",
  "5679": " मे",
  "5680": "गढ़",
  "5681": " आसप",
  "5682": " आसपास",
  "5683": " निर्भ",
  "5684": " निर्भर",
  "5685": "दों",
  "5686": "ैदिक",
  "5687": "-पश्चिम",
  "5688": "-आ",
  "5689": " अवध",
  "5690": " अवधि",
  "5691": "छ",
  "5692": " सम्म",
  "5693": " जिन्ह",
  "5694": " धर्मों",
  "5695": " उद",
  "5696": " मध्यम",
  "5697": " छोड़कर",
  "5698": " सभी",
  "5699": " तीसरी",
  "5700": " उभरा",
  "5701": " स्थापित",
  "5702": " क्षेत्रों",
  "5703": "वी",
  "5704": "्रम",
  "5705": " आगे",
  "5706": " साह",
  "5707": " साहित",
  "5708": " साहित्य",
  "5709": "ोंने",
  "5710": " चौ",
  "5711": "ारण",
  "5712": " विज्ञान",
  "5713": "र्शन",
  "5714": " सांस्कृतिक",
  "5715": "ुक",
  "5716": " चाह",
  "5717": " शासक",
  "5718": " पड़ा",
  "5719": " तुलना",
  "5720": " बढ़ने",
  "5721": " सामान",
  "5722": " स्थानीय",
  "5723": " होने",
  "5724": " पहली",
  "5725": " बनाया",
  "5726": " पुन",
  "5727": "घ",
  "5728": "ोड",
  "5729": " मल",
  "5730": " सकता",
  "5731": "ठित",
  "5732": " आकर्म",
  "5733": " आकर्मण",
  "5734": "ीक",
  "5735": "कारी",
  "5736": " गै",
  "5737": " गैर",
  "5738": "मु",
  "5739": " विशाल",
  "5740": "१७",
  "5741": " उठ",
  "5742": " विद्र",
  "5743": " विद्रोह",
  "5744": " करव",
  "5745": " भारतीयों",
  "5746": " ये",
  "5747": " बल",
  "5748": "ोली",
  "5749": "ूट",
  "5750": " दर्ज",
  "5751": " अच्छ",
  "5752": "ंच",
  "5753": " हत्य",
  "5754": " हत्या",
  "5755": " बोल",
  "5756": " सदी",
  "5757": "टल",
  "5758": " गत",
  "5759": "ांत",
  "5760": "�ाष",
  "5761": "ोस",
  "5762": " अगस्त",
  "5763": "१९४",
  "5764": "२६",
  "5765": " बहु�",
  "5766": "ुधार",
  "5767": "दाय",
  "5768": "-अ",
  "5769": "लग",
  "5770": "निर",
  "5771": "निरपेक्ष",
  "5772": "ुण",
  "5773": " गुट",
  "5774": " विकासशील",
  "5775": "ायें",
  "5776": " ऊपर",
  "5777": "ियाई",
  "5778": " गो",
  "5779": " हिस्सा",
  "5780": "ियस",
  "5781": "ओ",
  "5782": " अवस",
  "5783": " पठ",
  "5784": " पठार",
  "5785": " जाने",
  "5786": "िशील",
  "5787": " ऊँच",
  "5788": " ऊँचाई",
  "5789": " पहाड़",
  "5790": "ाचल",
  "5791": " मील",
  "5792": " फुट",
  "5793": " जिसकी",
  "5794": "पु",
  "5795": " नदियों",
  "5796": "टी",
  "5797": " मिश्र",
  "5798": "र्ध",
  "5799": " पहाड़ी",
  "5800": " सत",
  "5801": " सतप",
  "5802": " सतपुड़",
  "5803": " सतपुड़ा",
  "5804": "ारे",
  "5805": " छह",
  "5806": " कटिबंधीय",
  "5807": " वर्णन",
  "5808": " सकते",
  "5809": " ठ",
  "5810": " मही",
  "5811": "िग",
  "5812": "४०",
  "5813": "ौट",
  "5814": "रल",
  "5815": " इल",
  "5816": " अक्ट",
  "5817": " अक्टू",
  "5818": " अक्टूबर",
  "5819": "�़",
  "5820": "नाड",
  "5821": " लोकतांत्रिक",
  "5822": " सरकारों",
  "5823": " संसदीय",
  "5824": " ज़्याद",
  "5825": " केंद्रीय",
  "5826": "पंथ",
  "5827": "पंथी",
  "5828": " नर",
  "5829": "ेंद्र",
  "5830": " मोदी",
  "5831": " पार्टियों",
  "5832": " बडी",
  "5833": " मनम",
  "5834": " मनमोहन",
  "5835": "न्ध",
  "5836": " घोषित",
  "5837": " नेहरू",
  "5838": " पाई",
  "5839": "गी",
  "5840": " चली",
  "5841": " मोर्च",
  "5842": "ेय",
  "5843": " पाँच",
  "5844": " चलाया",
  "5845": " बनने",
  "5846": "दन",
  "5847": " संच",
  "5848": " प्रदेशों",
  "5849": " न्यायपालिका",
  "5850": " कार्यपालिका",
  "5851": " लोकसभा",
  "5852": " दूस",
  "5853": " सारी",
  "5854": " पास",
  "5855": " नियुक्त",
  "5856": " स्थिति",
  "5857": "्श",
  "5858": " माम",
  "5859": "नन",
  "5860": "ेक्षा",
  "5861": "द्यप",
  "5862": "द्यपि",
  "5863": " वास्तविक",
  "5864": " नगर",
  "5865": "वि�",
  "5866": " सौहार",
  "5867": " सौहार्द",
  "5868": " रखा",
  "5869": " इज",
  "5870": "िएश",
  "5871": "िएशन",
  "5872": " पुल",
  "5873": " पुलिस",
  "5874": "ंती",
  "5875": " सेवा",
  "5876": " बैठ",
  "5877": " बैठक",
  "5878": " भागीदारी",
  "5879": " सशस्त्र",
  "5880": " वायु",
  "5881": "�्ध",
  "5882": "ैनिक",
  "5883": " कमांड",
  "5884": " कमांडर",
  "5885": "नियों",
  "5886": " ऑपर",
  "5887": " ऑपरेश",
  "5888": " ऑपरेशन",
  "5889": "ीति",
  "5890": " विम",
  "5891": " विमान",
  "5892": " समझौ",
  "5893": "रिकी",
  "5894": "र्ट",
  "5895": " क्रय",
  "5896": " अमे",
  "5897": " वृद्ध",
  "5898": " वृद्धि",
  "5899": "इन",
  "5900": " चीफ",
  "5901": " ऑफ",
  "5902": " स्टाफ",
  "5903": " पुर्तगाली",
  "5904": " निर्यात",
  "5905": " समू",
  "5906": " समूह",
  "5907": "ियो",
  "5908": "२५",
  "5909": "ीण",
  "5910": "ीपी",
  "5911": " बहुमूल",
  "5912": " बहुमूल्य",
  "5913": " रत्न",
  "5914": "चित",
  "5915": " अति",
  "5916": " संख्या",
  "5917": " कप",
  "5918": "ड़ा",
  "5919": "साय",
  "5920": "33",
  "5921": " राजस",
  "5922": " राजस्थान",
  "5923": " अनुसू",
  "5924": " झार",
  "5925": " झारख",
  "5926": " असम",
  "5927": " कामक",
  "5928": " कामकाज",
  "5929": " राजभाषा",
  "5930": " करे",
  "5931": " ईद",
  "5932": "ंजन",
  "5933": "सन्द",
  "5934": "ాతో",
  "5935": " మొదటి",
  "5936": " స్థానంలో",
  "5937": "కి",
  "5938": " విస్త",
  "5939": " ప్రజాస్వామ్య",
  "5940": " పాలన",
  "5941": " సమాఖ",
  "5942": " సమాఖ్య",
  "5943": " సైన",
  "5944": " ఒకటిగా",
  "5945": " ముఖ్యమైన",
  "5946": "ియాలో",
  "5947": "ేల",
  "5948": "టర్ల",
  "5949": " సముద",
  "5950": " ఉపఖండ",
  "5951": "ుకొ",
  "5952": "ారిత్రక",
  "5953": " వాణ",
  "5954": " వాణిజ",
  "5955": " వాణిజ్య",
  "5956": " హిమ",
  "5957": " హిమాల",
  "5958": "రే�",
  "5959": " బంగ",
  "5960": " పాకిస్తాన్",
  "5961": "ార్",
  "5962": " బంగ్ల",
  "5963": " బంగ్లాదేశ",
  "5964": " బంగ్లాదేశ్",
  "5965": " నే�",
  "5966": " నేప",
  "5967": " ఆఫ్�",
  "5968": " ఆఫ్ఘ",
  "5969": " పంచ",
  "5970": " శ్రీ",
  "5971": "ేస",
  "5972": "గ్గ",
  "5973": " సింధు",
  "5974": " నాగ",
  "5975": " నాగరిక",
  "5976": " నాగరికత",
  "5977": " జన్మ",
  "5978": " బహుళ",
  "5979": " వైవ",
  "5980": " వైవిధ",
  "5981": "ిల్",
  "5982": "ాగం",
  "5983": "యింది",
  "5984": " కంప",
  "5985": " కంపెన",
  "5986": " పరిప",
  "5987": " పరిపాల",
  "5988": " కింద",
  "5989": "ైట",
  "5990": "ాత్మ",
  "5991": " గాంధ",
  "5992": " గాంధీ",
  "5993": " స్వతంత్ర",
  "5994": " దేశంగా",
  "5995": "ెట్",
  "5996": "సర",
  "5997": " వేగంగా",
  "5998": "ినీ",
  "5999": " నాలు",
  "6000": " నాలుగు",
  "6001": "చ్చు",
  "6002": " వీ",
  "6003": " వీట",
  "6004": " వీటిలో",
  "6005": " జంబ",
  "6006": " జంబూ",
  "6007": " ఇవ",
  "6008": "బడిన",
  "6009": " ప్రదేశ",
  "6010": " లేద",
  "6011": " లేదా",
  "6012": " వచ్చిన",
  "6013": " రాజు",
  "6014": " మీ",
  "6015": "మారు",
  "6016": " హిందూదేశం",
  "6017": "నులు",
  "6018": "ీషు",
  "6019": "ేయ",
  "6020": " వల",
  "6021": " పొంద",
  "6022": " గు",
  "6023": " గుర్త",
  "6024": "మే",
  "6025": " ప్రాచీన",
  "6026": " మొట్ట",
  "6027": " మొట్టమ",
  "6028": " మొట్టమొ",
  "6029": " మొట్టమొద",
  "6030": " మొట్టమొదటి",
  "6031": " ఏర్పడ్డ",
  "6032": " క్ర",
  "6033": ".పూ",
  "6034": " నియ",
  "6035": "�ృతి",
  "6036": "దే",
  "6037": " సాంస్�",
  "6038": " సాంస్కృత",
  "6039": " సాంస్కృతిక",
  "6040": " చేసింది",
  "6041": "బడింది",
  "6042": "ాల్లో",
  "6043": "స్వత",
  "6044": " గణ",
  "6045": "గోళ",
  "6046": " మొదలైన",
  "6047": " సహ",
  "6048": "స్ర",
  "6049": " ఢిల్లీ",
  "6050": "ెట్ట",
  "6051": "్స్",
  "6052": " ఇంగ్ల",
  "6053": "పా",
  "6054": " వ్యాప",
  "6055": "లంప",
  "6056": " తిర",
  "6057": " స్వాతంత్ర్య",
  "6058": " భాగం",
  "6059": "వరి",
  "6060": " ఏర్పడ",
  "6061": "�ిన్న",
  "6062": "ులకు",
  "6063": " దేశానికి",
  "6064": " కారణంగా",
  "6065": " రాజ్యాంగ",
  "6066": " న్యాయ",
  "6067": "్యవస్థ",
  "6068": " నిర్వహణ",
  "6069": " ద్వార",
  "6070": " ద్వారా",
  "6071": "మల",
  "6072": "ుతుంది",
  "6073": " రాష్ట్రాల",
  "6074": " పద్ధత",
  "6075": "ేజ",
  "6076": " సంకీర్ణ",
  "6077": "బడ్డ",
  "6078": " మంత్ర",
  "6079": " ఉంటుంది",
  "6080": "చే",
  "6081": "భారతదేశపు",
  "6082": " వ్యవస్థలో",
  "6083": "ుకుంటారు",
  "6084": " సూచ",
  "6085": "వార",
  "6086": " ఇవి",
  "6087": "క్షం",
  "6088": " దాద",
  "6089": " దాదాప",
  "6090": "్ళ",
  "6091": "ల్ప",
  "6092": " ఎన్నిక",
  "6093": " కలిస",
  "6094": "ల్లో",
  "6095": "ేష",
  "6096": " పేర్కొ",
  "6097": " నుంచి",
  "6098": " మతాలు",
  "6099": " కుల",
  "6100": " సంప్రదాయాలు",
  "6101": " కూడుకు",
  "6102": " మై",
  "6103": " పీ",
  "6104": " పీ�",
  "6105": " పీఠ",
  "6106": "ైప",
  "6107": "భారతదేశంలో",
  "6108": " కొన్ని",
  "6109": " ఉండ",
  "6110": "కొ",
  "6111": "నాలు",
  "6112": " కాశ",
  "6113": " కాశ్మ",
  "6114": " కాశ్మీ",
  "6115": " ప్రభుత్వం",
  "6116": " శాస్త్ర",
  "6117": " శాస్త్రీయ",
  "6118": "పడ",
  "6119": "ూల",
  "6120": " తక్కువ",
  "6121": " పరిశ్రమలు",
  "6122": " సినిమాలు",
  "6123": "ళి",
  "6124": "ృత",
  "6125": " డ",
  "6126": " పట్టణాలు",
  "6127": " కల్ప",
  "6128": " మంది",
  "6129": " రంగ",
  "6130": "జనాభ",
  "6131": "జనాభా",
  "6132": " భిన్న",
  "6133": " వర్గ",
  "6134": "ీక",
  "6135": " నగరాలు",
  "6136": " ముంబ",
  "6137": "వె",
  "6138": "వెనుక",
  "6139": "వెనుకటి",
  "6140": " పురుష",
  "6141": "గణ",
  "6142": " సంబ",
  "6143": " సంబం�",
  "6144": " సంబంధ",
  "6145": " కార్యక్రమ",
  "6146": " జరు",
  "6147": " జరుప",
  "6148": " పండుగలు",
  "6149": "ానం",
  "6150": " హిందీ",
  "6151": " తెలు",
  "6152": " తెలుగు",
  "6153": " కన్న",
  "6154": " కన్నడ",
  "6155": " తమిళం",
  "6156": "భారతదేశంలోని",
  "6157": "ఢిల్లీ",
  "6158": "ూరు",
  "6159": "ెన్న",
  "6160": " ప్రార",
  "6161": " ప్రారం�",
  "6162": " ప్రారంభ",
  "6163": " రైల్వే",
  "6164": "ోర్",
  "6165": " ఇస్ల",
  "6166": " ఇస్లామ",
  "6167": " ఇస్లామాబాద్",
  "6168": " పాకిస్థాన్",
  "6169": "‌ల",
  "6170": " దక్షిణాస",
  "6171": " దక్షిణాసియా",
  "6172": " సర్వీసులు",
  "6173": "ాలనే",
  "6174": " ప్రతిపాదన",
  "6175": " రైళ్లను",
  "6176": " శాఖ",
  "6177": "మేన",
  "6178": "ిపు",
  "6179": " నిర్మ",
  "6180": "డ్డు",
  "6181": " గ్ర",
  "6182": " కేవ",
  "6183": " కేవలం",
  "6184": "ిద్ధి",
  "6185": " చాల",
  "6186": " చాలా",
  "6187": " పరంగా",
  "6188": " భావ",
  "6189": " సాంప్రదాయిక",
  "6190": " కథ",
  "6191": " ఆహ",
  "6192": " పతకాలు",
  "6193": " క్యాల",
  "6194": " క్యాలెండ",
  "6195": " క్యాలెండర్",
  "6196": "ెలవు",
  "6197": "దినాలు",
  "6198": "విద",
  "6199": "SB",
  "6200": "SBN",
  "6201": "‌సై",
  "6202": "‌సైటు",
  "6203": "timo",
  "6204": "igo",
  "6205": " golf",
  "6206": " golfo",
  "6207": " lín",
  "6208": "ea",
  "6209": " coster",
  "6210": " Banglad",
  "6211": " Bangladés",
  "6212": " cerca",
  "6213": " islas",
  "6214": "ueva",
  "6215": "ombay",
  "6216": " histó",
  "6217": " histórica",
  "6218": " rique",
  "6219": " comercial",
  "6220": " budismo",
  "6221": " jainismo",
  "6222": " islam",
  "6223": " forma",
  "6224": " anex",
  "6225": " principios",
  "6226": " Unido",
  "6227": " nación",
  "6228": " tras",
  "6229": " luch",
  "6230": " marcada",
  "6231": " violencia",
  "6232": " encab",
  "6233": " encabez",
  "6234": " ocho",
  "6235": " democracia",
  "6236": " económicas",
  "6237": " economías",
  "6238": " niveles",
  "6239": " pobreza",
  "6240": "abe",
  "6241": " derechos",
  "6242": " rico",
  "6243": " religioso",
  "6244": " diferentes",
  "6245": " Tratado",
  "6246": " mantener",
  "6247": " puest",
  "6248": "tig",
  "6249": " aire",
  "6250": " caracter",
  "6251": " actualmente",
  "6252": " cali",
  "6253": " rica",
  "6254": "ientes",
  "6255": " marat",
  "6256": "ología",
  "6257": " nombre",
  "6258": "iene",
  "6259": " (/",
  "6260": "ocen",
  "6261": " himno",
  "6262": " significa",
  "6263": " diversos",
  "6264": " ár",
  "6265": " árbol",
  "6266": " tigre",
  "6267": " primeros",
  "6268": " conocidos",
  "6269": "atan",
  "6270": " unos",
  "6271": " apar",
  "6272": " prueb",
  "6273": " pruebas",
  "6274": " construc",
  "6275": " construcción",
  "6276": "enamiento",
  "6277": " hoy",
  "6278": " desarroll",
  "6279": " flore",
  "6280": "rada",
  "6281": " basán",
  "6282": " basándose",
  "6283": "tió",
  "6284": " producción",
  "6285": " antiguas",
  "6286": " consideran",
  "6287": " creó",
  "6288": " campesinos",
  "6289": " ind",
  "6290": " agricultura",
  "6291": " finales",
  "6292": " alre",
  "6293": " alreded",
  "6294": " alrededor",
  "6295": " VI",
  "6296": " pequeños",
  "6297": " convirtieron",
  "6298": " adqu",
  "6299": " ense",
  "6300": " atra",
  "6301": " clas",
  "6302": " clases",
  "6303": " creci",
  "6304": "vieron",
  "6305": "olí",
  "6306": "ticamente",
  "6307": " ah",
  "6308": " ahora",
  "6309": "idional",
  "6310": " occidental",
  "6311": " afir",
  "6312": " impuest",
  "6313": " impuestos",
  "6314": " encon",
  "6315": " encontr",
  "6316": "rocin",
  "6317": "iencia",
  "6318": "má",
  "6319": " edad",
  "6320": " Cu",
  "6321": " Cuando",
  "6322": " expandi",
  "6323": " expandir",
  "6324": " expandirse",
  "6325": " der",
  "6326": " derro",
  "6327": " derrot",
  "6328": " tierras",
  "6329": " Durante",
  "6330": "cionales",
  "6331": " toda",
  "6332": " ciudadanos",
  "6333": " comenzaron",
  "6334": " partes",
  "6335": " otra",
  "6336": " efectos",
  "6337": " asiá",
  "6338": " muchos",
  "6339": " ellos",
  "6340": " textos",
  "6341": "ería",
  "6342": " finalmente",
  "6343": " condujo",
  "6344": "lám",
  "6345": " leyes",
  "6346": " costu",
  "6347": " costumb",
  "6348": " costumbres",
  "6349": " sold",
  "6350": " soldados",
  "6351": " llegó",
  "6352": " gobernantes",
  "6353": " nuev",
  "6354": " cambio",
  "6355": "ivas",
  "6356": "vit",
  "6357": " especialmente",
  "6358": " bien",
  "6359": " hici",
  "6360": " hicieron",
  "6361": " rela",
  "6362": " paz",
  "6363": " recientemente",
  "6364": " costas",
  "6365": "teg",
  "6366": "untos",
  "6367": " estos",
  "6368": " acces",
  "6369": " acceso",
  "6370": " económico",
  "6371": " refor",
  "6372": " reforma",
  "6373": " nomb",
  "6374": " vig",
  "6375": " rebe",
  "6376": " rebeli",
  "6377": " rebelión",
  "6378": " esti",
  "6379": " estilo",
  "6380": " tierra",
  "6381": " algun",
  "6382": " algunos",
  "6383": "iente",
  "6384": "bios",
  "6385": "unda",
  "6386": " mitad",
  "6387": " Hu",
  "6388": " hambrunas",
  "6389": " empleo",
  "6390": " canal",
  "6391": " alimentos",
  "6392": " situ",
  "6393": " situación",
  "6394": " permaneci",
  "6395": " periodi",
  "6396": " hacer",
  "6397": " británicos",
  "6398": " Dav",
  "6399": " Davis",
  "6400": " eran",
  "6401": " ella",
  "6402": " Guer",
  "6403": " Guerra",
  "6404": " aproxim",
  "6405": " aproximadamente",
  "6406": " millón",
  "6407": " cooperación",
  "6408": " legisla",
  "6409": " Todos",
  "6410": " democrá",
  "6411": " Cor",
  "6412": " Corte",
  "6413": " Supre",
  "6414": " Suprema",
  "6415": " influencia",
  "6416": " pel",
  "6417": " pelí",
  "6418": " películ",
  "6419": " películas",
  "6420": " logrado",
  "6421": " Consejo",
  "6422": " miembro",
  "6423": " directamente",
  "6424": " alta",
  "6425": " seis",
  "6426": " representando",
  "6427": " comunidad",
  "6428": " tribun",
  "6429": " tribunales",
  "6430": " debido",
  "6431": " Fr",
  "6432": " Frente",
  "6433": " iz",
  "6434": " izquierda",
  "6435": " ree",
  "6436": " reeleg",
  "6437": " reelegido",
  "6438": "dio",
  "6439": " concentración",
  "6440": " propiet",
  "6441": " respectivamente",
  "6442": " ON",
  "6443": " principal",
  "6444": " armadas",
  "6445": "asiá",
  "6446": "rama",
  "6447": "fera",
  "6448": " mantiene",
  "6449": " extran",
  "6450": " uso",
  "6451": "uerdo",
  "6452": "erech",
  "6453": "erechos",
  "6454": " medio",
  "6455": " Ley",
  "6456": " dividi",
  "6457": " geog",
  "6458": " alto",
  "6459": " ríos",
  "6460": " desi",
  "6461": " desierto",
  "6462": "ende",
  "6463": " cordilleras",
  "6464": " Estas",
  "6465": " occidentales",
  "6466": " extremos",
  "6467": "ecen",
  "6468": " pant",
  "6469": " dese",
  "6470": " desemb",
  "6471": " desemboc",
  "6472": " desembocan",
  "6473": " extremadamente",
  "6474": "áticos",
  "6475": "ña",
  "6476": " jun",
  "6477": " junio",
  "6478": " hú",
  "6479": " húmed",
  "6480": " húmedo",
  "6481": " presenta",
  "6482": " mam",
  "6483": " mamífer",
  "6484": " mamíferos",
  "6485": " aves",
  "6486": " cubi",
  "6487": " bosque",
  "6488": " ampliamente",
  "6489": "uchas",
  "6490": " mas",
  "6491": " ganado",
  "6492": " silvest",
  "6493": " silvestre",
  "6494": " mercado",
  "6495": " agu",
  "6496": " agua",
  "6497": " quím",
  "6498": " químicos",
  "6499": " petró",
  "6500": " petróle",
  "6501": " petróleo",
  "6502": " billones",
  "6503": " promedio",
  "6504": " aunque",
  "6505": "Según",
  "6506": ".​​\n\n",
  "6507": "atos",
  "6508": " barri",
  "6509": "chado",
  "6510": " Otr",
  "6511": " familias",
  "6512": "lengu",
  "6513": " clásicas",
  "6514": " télugu",
  "6515": " tradicional",
  "6516": "rimonio",
  "6517": " estil",
  "6518": " estilos",
  "6519": "estas",
  "6520": "portes",
  "6521": " deporte",
  "6522": " Jue",
  "6523": " Juegos",
  "6524": " Prem",
  "6525": "út",
  "6526": "útbol",
  "6527": " Archiv",
  "6528": " Archivado",
  "6529": " democracy",
  "6530": " Ocean",
  "6531": " southwest",
  "6532": " borders",
  "6533": " Nepal",
  "6534": "time",
  "6535": " Tha",
  "6536": " Thail",
  "6537": " Thailand",
  "6538": "Mo",
  "6539": "Modern",
  "6540": " humans",
  "6541": "rived",
  "6542": " occupation",
  "6543": " isolation",
  "6544": " hun",
  "6545": " hunter",
  "6546": "-gather",
  "6547": "-gatherers",
  "6548": " highly",
  "6549": "ett",
  "6550": "ettled",
  "6551": " evol",
  "6552": " archaic",
  "6553": " diff",
  "6554": " diffused",
  "6555": " hymn",
  "6556": " hymns",
  "6557": "exist",
  "6558": "existing",
  "6559": " suppl",
  "6560": " supplanted",
  "6561": " arisen",
  "6562": "laim",
  "6563": "laiming",
  "6564": " Early",
  "6565": "-kn",
  "6566": "-knit",
  "6567": " flour",
  "6568": " crea",
  "6569": " creativity",
  "6570": " untouchability",
  "6571": " exported",
  "6572": " Chr",
  "6573": " Chris",
  "6574": " Christian",
  "6575": " Christianity",
  "6576": " Zoroastri",
  "6577": " Zoroastrian",
  "6578": " Zoroastrianism",
  "6579": " coasts",
  "6580": "nd",
  "6581": " overran",
  "6582": " Sultanate",
  "6583": " drew",
  "6584": " network",
  "6585": "asting",
  "6586": "hered",
  "6587": " expansion",
  "6588": " relative",
  "6589": " peace",
  "6590": " expanding",
  "6591": " turned",
  "6592": "rown",
  "6593": " ideas",
  "6594": " nationalist",
  "6595": " nonviol",
  "6596": " nonviolent",
  "6597": " ending",
  "6598": " independent",
  "6599": "-major",
  "6600": "-majority",
  "6601": " dominion",
  "6602": "-scal",
  "6603": "-scale",
  "6604": "pre",
  "6605": " migration",
  "6606": " govern",
  "6607": " democratic",
  "6608": " multil",
  "6609": " multiling",
  "6610": "thn",
  "6611": "thnic",
  "6612": " income",
  "6613": " annually",
  "6614": "-grow",
  "6615": "-growing",
  "6616": " information",
  "6617": " neigh",
  "6618": " neighbo",
  "6619": " unres",
  "6620": " unresol",
  "6621": " unresolved",
  "6622": "-ec",
  "6623": "-econom",
  "6624": "-economic",
  "6625": "alleng",
  "6626": " gender",
  "6627": " child",
  "6628": " levels",
  "6629": " pollu",
  "6630": " pollution",
  "6631": " megadi",
  "6632": " megadiverse",
  "6633": " biodiversity",
  "6634": " hots",
  "6635": " hotspo",
  "6636": " hotspots",
  "6637": "wed",
  "6638": "Etym",
  "6639": "Etymolog",
  "6640": "Etymology",
  "6641": " immediately",
  "6642": " Cl",
  "6643": " Class",
  "6644": " Classical",
  "6645": "-de",
  "6646": " historical",
  "6647": "�",
  "6648": "Ἰ",
  "6649": "Ἰνδ",
  "6650": "ί",
  "6651": " Ancient",
  "6652": " Acha",
  "6653": " Achae",
  "6654": " Achaemen",
  "6655": " Old",
  "6656": " provin",
  "6657": " Sindh",
  "6658": " Sindhu",
  "6659": ",\"",
  "6660": "pecific",
  "6661": " Asians",
  "6662": "'.\n",
  "6663": "Bh",
  "6664": " [",
  "6665": "ˈb",
  "6666": "ˈb�",
  "6667": "ˈbʱ",
  "6668": "etry",
  "6669": " applied",
  "6670": " gained",
  "6671": "Hin",
  "6672": " mean",
  "6673": " meaning",
  "6674": "-day",
  "6675": " enti",
  "6676": "History",
  "6677": "Ancient",
  "6678": "ased",
  "6679": "och",
  "6680": " data",
  "6681": " anat",
  "6682": " anatom",
  "6683": " Homo",
  "6684": " sapiens",
  "6685": " vary",
  "6686": " only",
  "6687": "sil",
  "6688": "sils",
  "6689": "vidence",
  "6690": " Me",
  "6691": " Meh",
  "6692": " Mehr",
  "6693": " Mehrg",
  "6694": " Mehrgar",
  "6695": " Mehrgarh",
  "6696": "istan",
  "6697": "including",
  "6698": "mped",
  "6699": " cattle",
  "6700": " occurred",
  "6701": "250",
  "6702": " Harap",
  "6703": " Harappa",
  "6704": " Dh",
  "6705": " Dhol",
  "6706": " Dholavira",
  "6707": "iw",
  "6708": "akh",
  "6709": "igar",
  "6710": " characteristic",
  "6711": " included",
  "6712": " standar",
  "6713": " standardis",
  "6714": " standardised",
  "6715": " script",
  "6716": " works",
  "6717": " stat",
  "6718": "ettes",
  "6719": " Network",
  "6720": " towns",
  "6721": " villages",
  "6722": "astoral",
  "6723": " associated",
  "6724": " what",
  "6725": " nex",
  "6726": " next",
  "6727": " sw",
  "6728": "ested",
  "6729": " imple",
  "6730": " settle",
  "6731": " settlement",
  "6732": " involved",
  "6733": " ens",
  "6734": " creating",
  "6735": " family",
  "6736": "-di",
  "6737": "vide",
  "6738": " mainly",
  "6739": " chap",
  "6740": "ini",
  "6741": " oral",
  "6742": "tell",
  "6743": "pic",
  "6744": " contemp",
  "6745": " contempor",
  "6746": " forti",
  "6747": " fortified",
  "6748": " varna",
  "6749": "-mill",
  "6750": " ethical",
  "6751": " systems",
  "6752": " Mahavira",
  "6753": "-viol",
  "6754": "-violence",
  "6755": " sacri",
  "6756": "xed",
  "6757": " hereditary",
  "6758": " living",
  "6759": "ronic",
  "6760": " beg",
  "6761": " begin",
  "6762": " beginning",
  "6763": " beginnings",
  "6764": "dro",
  "6765": " geograph",
  "6766": " foun",
  "6767": " grand",
  "6768": " brief",
  "6769": " briefly",
  "6770": " hubs",
  "6771": " produced",
  "6772": " Fol",
  "6773": " Following",
  "6774": " adopted",
  "6775": " subsequently",
  "6776": " policy",
  "6777": " dh",
  "6778": " dhamma",
  "6779": "mission",
  "6780": " edi",
  "6781": " edict",
  "6782": " edicts",
  "6783": " promo",
  "6784": " welf",
  "6785": " welfare",
  "6786": " kill",
  "6787": "mental",
  "6788": " historians",
  "6789": " complex",
  "6790": " Plain",
  "6791": " model",
  "6792": " Guptas",
  "6793": " devotion",
  "6794": " rit",
  "6795": " ritual",
  "6796": " flowering",
  "6797": " literature",
  "6798": " reve",
  "6799": " peninsul",
  "6800": " ruled",
  "6801": " Cheras",
  "6802": " respective",
  "6803": " valley",
  "6804": " Sim",
  "6805": " Simultan",
  "6806": " Simultane",
  "6807": " Simultaneously",
  "6808": " gods",
  "6809": "akti",
  "6810": " extensively",
  "6811": "Medi",
  "6812": " able",
  "6813": "ently",
  "6814": " clear",
  "6815": " cleared",
  "6816": " make",
  "6817": " way",
  "6818": " ruling",
  "6819": " They",
  "6820": " imit",
  "6821": "yalty",
  "6822": " temples",
  "6823": " patron",
  "6824": " citiz",
  "6825": " citizens",
  "6826": " Temple",
  "6827": " vario",
  "6828": " various",
  "6829": " siz",
  "6830": "here",
  "6831": "went",
  "6832": " effec",
  "6833": " Laos",
  "6834": " Br",
  "6835": " Camb",
  "6836": " Cambo",
  "6837": " Viet",
  "6838": " Vietnam",
  "6839": "sia",
  "6840": " merchants",
  "6841": " semin",
  "6842": "aval",
  "6843": " united",
  "6844": "city",
  "6845": " repeated",
  "6846": " repeatedly",
  "6847": "-western",
  "6848": " eventually",
  "6849": " Islamic",
  "6850": " largely",
  "6851": " own",
  "6852": " cust",
  "6853": " custom",
  "6854": "ongol",
  "6855": " sc",
  "6856": " artist",
  "6857": " artists",
  "6858": " artisans",
  "6859": "cre",
  "6860": "iding",
  "6861": "haiv",
  "6862": " buil",
  "6863": " building",
  "6864": " portion",
  "6865": " rulers",
  "6866": "bil",
  "6867": " warri",
  "6868": " warriors",
  "6869": " did",
  "6870": "stead",
  "6871": " paci",
  "6872": "che",
  "6873": " bon",
  "6874": " bonds",
  "6875": "-f",
  "6876": " emperor",
  "6877": " taxes",
  "6878": "regul",
  "6879": " larger",
  "6880": " markets",
  "6881": " maintain",
  "6882": " literary",
  "6883": " coher",
  "6884": " groups",
  "6885": " Mar",
  "6886": "athas",
  "6887": " Rajputs",
  "6888": " Sikhs",
  "6889": " ambi",
  "6890": " advers",
  "6891": " exper",
  "6892": " commerce",
  "6893": " imperial",
  "6894": " faci",
  "6895": " facilit",
  "6896": " enab",
  "6897": " affa",
  "6898": " affair",
  "6899": " affairs",
  "6900": "—s",
  "6901": " presence",
  "6902": " coastal",
  "6903": "osts",
  "6904": " resour",
  "6905": " resources",
  "6906": " advanced",
  "6907": " company",
  "6908": "176",
  "6909": " side",
  "6910": " access",
  "6911": "182",
  "6912": " materi",
  "6913": " materials",
  "6914": " ons",
  "6915": " onset",
  "6916": " severely",
  "6917": "iled",
  "6918": " consci",
  "6919": " aren",
  "6920": " appoin",
  "6921": " Dalhous",
  "6922": " Dalhousie",
  "6923": "eneral",
  "6924": " ess",
  "6925": " essenti",
  "6926": " essential",
  "6927": " demar",
  "6928": " demarc",
  "6929": " railways",
  "6930": " introduc",
  "6931": " Dis",
  "6932": "ection",
  "6933": " percep",
  "6934": "-st",
  "6935": "-sty",
  "6936": "-style",
  "6937": " reforms",
  "6938": " princes",
  "6939": " rebellion",
  "6940": " Proc",
  "6941": " unitary",
  "6942": " limited",
  "6943": " feud",
  "6944": " feudal",
  "6945": " safeguard",
  "6946": " against",
  "6947": " half",
  "6948": " farmers",
  "6949": " depend",
  "6950": " dependent",
  "6951": " desp",
  "6952": "ucture",
  "6953": "orne",
  "6954": " generated",
  "6955": " cro",
  "6956": " food",
  "6957": " consump",
  "6958": " consumption",
  "6959": " cri",
  "6960": " relief",
  "6961": " self",
  "6962": "-r",
  "6963": "-co",
  "6964": " Mahat",
  "6965": " Mahatma",
  "6966": " victories",
  "6967": " II",
  "6968": " final",
  "6969": " push",
  "6970": " advent",
  "6971": " liberalisation",
  "6972": " transformed",
  "6973": " persist",
  "6974": " violence",
  "6975": "axal",
  "6976": " insur",
  "6977": " insurgen",
  "6978": " Northeast",
  "6979": "Geograph",
  "6980": "Geography",
  "6981": " acco",
  "6982": " accoun",
  "6983": " bul",
  "6984": " bulk",
  "6985": "ying",
  "6986": " tect",
  "6987": "onic",
  "6988": "-Australi",
  "6989": "-Australian",
  "6990": " geolog",
  "6991": " supercontinent",
  "6992": "-east",
  "6993": "af",
  "6994": " spreading",
  "6995": "-west",
  "6996": " Te",
  "6997": " obst",
  "6998": " she",
  "6999": "zon",
  "7000": " layer",
  "7001": " subduc",
  "7002": " Tibet",
  "7003": "ick",
  "7004": " rap",
  "7005": " rapidly",
  "7006": "-Gange",
  "7007": "-Gangetic",
  "7008": " abo",
  "7009": " above",
  "7010": " Araval",
  "7011": " Aravalli",
  "7012": " extend",
  "7013": " extends",
  "7014": " lies",
  "7015": " survives",
  "7016": " Sat",
  "7017": " Satp",
  "7018": " Satpura",
  "7019": " Vin",
  "7020": " Vindh",
  "7021": " Vindhya",
  "7022": " ranges",
  "7023": " chains",
  "7024": " Gujarat",
  "7025": " coal",
  "7026": " Cho",
  "7027": " Chota",
  "7028": " Nag",
  "7029": " Nagpur",
  "7030": " Eastern",
  "7031": " country's",
  "7032": " fash",
  "7033": "68",
  "7034": "97",
  "7035": "orig",
  "7036": "origin",
  "7037": " subst",
  "7038": " substanti",
  "7039": " substantially",
  "7040": " Yam",
  "7041": " Yamuna",
  "7042": " extreme",
  "7043": " extremely",
  "7044": " gradi",
  "7045": "osition",
  "7046": " prevent",
  "7047": " God",
  "7048": " Godav",
  "7049": " Godavari",
  "7050": " Mahana",
  "7051": " Mahanadi",
  "7052": " Kr",
  "7053": " Krish",
  "7054": " Krishn",
  "7055": " Narm",
  "7056": " Narmada",
  "7057": " Tap",
  "7058": " Tapti",
  "7059": " coastline",
  "7060": " meas",
  "7061": "517",
  "7062": " length",
  "7063": "94",
  "7064": " Laksh",
  "7065": " Lakshad",
  "7066": " Lakshadwe",
  "7067": " Lakshadweep",
  "7068": "graph",
  "7069": " shores",
  "7070": " marsh",
  "7071": " marshy",
  "7072": " Rann",
  "7073": " Kut",
  "7074": " Kutch",
  "7075": " Sund",
  "7076": " Sundar",
  "7077": " Sundarban",
  "7078": " Sundarbans",
  "7079": " delta",
  "7080": " shared",
  "7081": " coral",
  "7082": " atol",
  "7083": " volcan",
  "7084": "limate",
  "7085": " strongly",
  "7086": " winds",
  "7087": "eep",
  "7088": " loc",
  "7089": " similar",
  "7090": " latitudes",
  "7091": " role",
  "7092": "cting",
  "7093": " June",
  "7094": " Octo",
  "7095": " October",
  "7096": " climatic",
  "7097": " wet",
  "7098": " dry",
  "7099": " subtro",
  "7100": " subtropical",
  "7101": " hum",
  "7102": "tan",
  "7103": "atures",
  "7104": " °",
  "7105": " gl",
  "7106": " glaci",
  "7107": " proj",
  "7108": "ections",
  "7109": "Bio",
  "7110": "Biodiversity",
  "7111": " countri",
  "7112": " countries",
  "7113": " bi",
  "7114": "ological",
  "7115": " habitat",
  "7116": "tile",
  "7117": " fish",
  "7118": "aps",
  "7119": " endemism",
  "7120": " dense",
  "7121": " dens",
  "7122": " decidu",
  "7123": " deciduous",
  "7124": " thorn",
  "7125": " tre",
  "7126": " astr",
  "7127": "ux",
  "7128": "ision",
  "7129": " Eurasia",
  "7130": " Still",
  "7131": " zo",
  "7132": " zoog",
  "7133": "eographic",
  "7134": " pass",
  "7135": " vul",
  "7136": " threatened",
  "7137": "172",
  "7138": "-des",
  "7139": "hari",
  "7140": " extinct",
  "7141": " carri",
  "7142": " dic",
  "7143": " diclo",
  "7144": " diclof",
  "7145": " diclofen",
  "7146": " diclofenac",
  "7147": " open",
  "7148": " black",
  "7149": " blackb",
  "7150": " blackbuc",
  "7151": " blackbuck",
  "7152": " cheeta",
  "7153": " cheetah",
  "7154": " response",
  "7155": " Project",
  "7156": " amend",
  "7157": " amendments",
  "7158": " eigh",
  "7159": "phere",
  "7160": " Res",
  "7161": " Reserv",
  "7162": " Ramsar",
  "7163": "Poli",
  "7164": "Politics",
  "7165": " recogn",
  "7166": " parties",
  "7167": "gener",
  "7168": "\")",
  "7169": " Bharati",
  "7170": " Bharatiya",
  "7171": "BJP",
  "7172": " centre",
  "7173": " remained",
  "7174": " comfor",
  "7175": " comfort",
  "7176": " comfortable",
  "7177": " died",
  "7178": " Bah",
  "7179": " Shast",
  "7180": " Shastri",
  "7181": "akistan",
  "7182": " soon",
  "7183": " Pe",
  "7184": "lar",
  "7185": " declared",
  "7186": "ending",
  "7187": " Emerg",
  "7188": " Emergency",
  "7189": " voted",
  "7190": " lasted",
  "7191": "orar",
  "7192": " returned",
  "7193": " assass",
  "7194": " assassin",
  "7195": " assassinated",
  "7196": " suc",
  "7197": " alliance",
  "7198": " Chandra",
  "7199": " Lankan",
  "7200": " separati",
  "7201": " organisation",
  "7202": " intervention",
  "7203": " Naras",
  "7204": " Narasim",
  "7205": " Narasimha",
  "7206": " Ra",
  "7207": " Rao",
  "7208": "-y",
  "7209": "-year",
  "7210": " followed",
  "7211": " Vaj",
  "7212": " Vajpay",
  "7213": " Vajpayee",
  "7214": " short",
  "7215": " due",
  "7216": " lac",
  "7217": " Democra",
  "7218": " Democratic",
  "7219": " Alliance",
  "7220": "NDA",
  "7221": "-Cong",
  "7222": "-Congress",
  "7223": " NDA",
  "7224": " defeated",
  "7225": " Progres",
  "7226": "UPA",
  "7227": " Manmo",
  "7228": " Manmohan",
  "7229": " President",
  "7230": " Narend",
  "7231": " Narendra",
  "7232": " absol",
  "7233": " uncom",
  "7234": " uncommon",
  "7235": " Government",
  "7236": " fr",
  "7237": " frame",
  "7238": " framework",
  "7239": " exerci",
  "7240": " exercis",
  "7241": " legislature",
  "7242": " houses",
  "7243": " deleg",
  "7244": " delegates",
  "7245": " direc",
  "7246": "ayat",
  "7247": " commit",
  "7248": " committe",
  "7249": " il",
  "7250": "Artic",
  "7251": " distinc",
  "7252": " Common",
  "7253": " Commonwe",
  "7254": " Commonwealth",
  "7255": " president",
  "7256": " seats",
  "7257": " house",
  "7258": " vice",
  "7259": " Coun",
  "7260": "aded",
  "7261": "mented",
  "7262": "tier",
  "7263": " compr",
  "7264": " comprising",
  "7265": " supreme",
  "7266": "hief",
  "7267": " jurisdiction",
  "7268": " involving",
  "7269": " down",
  "7270": "vene",
  "7271": " any",
  "7272": " action",
  "7273": "cher",
  "7274": "cherry",
  "7275": " Cap",
  "7276": " Capital",
  "7277": " Territ",
  "7278": " Reor",
  "7279": " city",
  "7280": " blo",
  "7281": "Un",
  "7282": "Fore",
  "7283": "Foreign",
  "7284": " played",
  "7285": " wars",
  "7286": " close",
  "7287": " Soviet",
  "7288": " arms",
  "7289": " suppli",
  "7290": "Ch",
  "7291": "59",
  "7292": " produ",
  "7293": " produce",
  "7294": " additional",
  "7295": "-Pro",
  "7296": "-Prolifer",
  "7297": "-Proliferation",
  "7298": " discrimin",
  "7299": "atory",
  "7300": "terr",
  "7301": "ateg",
  "7302": " civilian",
  "7303": " agree",
  "7304": " rece",
  "7305": " International",
  "7306": " Ag",
  "7307": " Agency",
  "7308": " Rus",
  "7309": " Fran",
  "7310": " Can",
  "7311": "Economy",
  "7312": " economies",
  "7313": "PP",
  "7314": " annual",
  "7315": " exce",
  "7316": " historically",
  "7317": "ides",
  "7318": "idesp",
  "7319": "idespread",
  "7320": "side",
  "7321": " emph",
  "7322": " emphas",
  "7323": "lows",
  "7324": " Tra",
  "7325": " Organ",
  "7326": " Organiz",
  "7327": " Organization",
  "7328": " service",
  "7329": " highest",
  "7330": " contributed",
  "7331": "32",
  "7332": " sto",
  "7333": " nin",
  "7334": " ninth",
  "7335": " exporter",
  "7336": " several",
  "7337": " Some",
  "7338": "203",
  "7339": "passing",
  "7340": " includes",
  "7341": " manufact",
  "7342": " producer",
  "7343": " dem",
  "7344": " top",
  "7345": " biote",
  "7346": " biotech",
  "7347": " ₹",
  "7348": "Indi",
  "7349": "Indian",
  "7350": " gig",
  "7351": " gigaw",
  "7352": " gigawat",
  "7353": " gigawatts",
  "7354": " renewable",
  "7355": " green",
  "7356": " greenhous",
  "7357": " greenhouse",
  "7358": " emiss",
  "7359": " emissions",
  "7360": " carb",
  "7361": " Inc",
  "7362": " Increasing",
  "7363": " elect",
  "7364": "Demographics",
  "7365": "422",
  "7366": " brough",
  "7367": " brought",
  "7368": " decreasing",
  "7369": " prev",
  "7370": " post",
  "7371": "49",
  "7372": " live",
  "7373": " births",
  "7374": " whereas",
  "7375": "41",
  "7376": " according",
  "7377": " females",
  "7378": " males",
  "7379": " foe",
  "7380": " foeticide",
  "7381": " stud",
  "7382": " study",
  "7383": " dy",
  "7384": "27",
  "7385": "81",
  "7386": " Mu",
  "7387": " Mumb",
  "7388": " Mumbai",
  "7389": "Languages",
  "7390": " break",
  "7391": "down",
  "7392": " speakers",
  "7393": "adai",
  "7394": " sole",
  "7395": "fficial",
  "7396": " international",
  "7397": " numerals",
  "7398": " resol",
  "7399": " artic",
  "7400": " obl",
  "7401": " oblig",
  "7402": " Ur",
  "7403": " Urdu",
  "7404": "use",
  "7405": " scheduled",
  "7406": "arati",
  "7407": "miri",
  "7408": " Punjabi",
  "7409": "dhi",
  "7410": "onk",
  "7411": "onkani",
  "7412": "ithili",
  "7413": "ogri",
  "7414": " Sant",
  "7415": "Religion",
  "7416": " Hindus",
  "7417": " Muslims",
  "7418": " Iran",
  "7419": "'í",
  "7420": " (\"",
  "7421": " expression",
  "7422": "orshi",
  "7423": "orship",
  "7424": "79",
  "7425": "veral",
  "7426": "yi",
  "7427": " San",
  "7428": " percent",
  "7429": " percentage",
  "7430": " poin",
  "7431": " points",
  "7432": "91",
  "7433": " Bihar",
  "7434": "189",
  "7435": "ka",
  "7436": "191",
  "7437": " priv",
  "7438": " colleg",
  "7439": " colleges",
  "7440": " affir",
  "7441": "vant",
  "7442": "ealth",
  "7443": " tuberculosis",
  "7444": " pul",
  "7445": " dise",
  "7446": " disease",
  "7447": " breat",
  "7448": " breath",
  "7449": " breathing",
  "7450": " WHO",
  "7451": " limit",
  "7452": " smo",
  "7453": "Culture",
  "7454": "Al",
  "7455": " bott",
  "7456": " bottom",
  "7457": " therefore",
  "7458": "cast",
  "7459": "castes",
  "7460": " jatis",
  "7461": " endo",
  "7462": " endog",
  "7463": "amy",
  "7464": " marry",
  "7465": "aste",
  "7466": " formally",
  "7467": " related",
  "7468": " segreg",
  "7469": " parents",
  "7470": " divorce",
  "7471": " less",
  "7472": "ousand",
  "7473": " legal",
  "7474": " obs",
  "7475": " visit",
  "7476": " married",
  "7477": " reco",
  "7478": " usually",
  "7479": " carved",
  "7480": " seal",
  "7481": " excav",
  "7482": " excavated",
  "7483": " best",
  "7484": "irtu",
  "7485": " thereafter",
  "7486": " prob",
  "7487": " probably",
  "7488": "Over",
  "7489": " figure",
  "7490": " preci",
  "7491": " give",
  "7492": " Shiva",
  "7493": " either",
  "7494": " cut",
  "7495": " Aj",
  "7496": " Ajanta",
  "7497": " Kar",
  "7498": "lora",
  "7499": " generally",
  "7500": "iling",
  "7501": " artistic",
  "7502": " saw",
  "7503": " dominance",
  "7504": " Cav",
  "7505": " Caves",
  "7506": "800",
  "7507": " But",
  "7508": " bronz",
  "7509": " Nat",
  "7510": " paintings",
  "7511": "vive",
  "7512": " ple",
  "7513": " everyday",
  "7514": " Cal",
  "7515": " Calc",
  "7516": " Calcut",
  "7517": "Mat",
  "7518": "ba",
  "7519": " Ve",
  "7520": " Vedic",
  "7521": "yth",
  "7522": "agore",
  "7523": ".)",
  "7524": " orally",
  "7525": " manuscript",
  "7526": "abh",
  "7527": "arā",
  "7528": " mathematici",
  "7529": " mathematicians",
  "7530": " concep",
  "7531": " cosine",
  "7532": " series",
  "7533": " Hindustani",
  "7534": " Carna",
  "7535": " Carnatic",
  "7536": " improvis",
  "7537": " ele",
  "7538": " fil",
  "7539": " Modern",
  "7540": " pop",
  "7541": "Dance",
  "7542": " contex",
  "7543": " Aca",
  "7544": " Academ",
  "7545": " crit",
  "7546": " criter",
  "7547": " eight",
  "7548": " \n\n",
  "7549": "nat",
  "7550": "yam",
  "7551": "aras",
  "7552": " Chhau",
  "7553": " Odi",
  "7554": " Odisha",
  "7555": " Yaksh",
  "7556": " Yakshag",
  "7557": " Yakshagana",
  "7558": "dition",
  "7559": " Utt",
  "7560": " Uttar",
  "7561": " Nadu",
  "7562": " Nav",
  "7563": "divasi",
  "7564": "-cent",
  "7565": "-century",
  "7566": " asp",
  "7567": " Bollywood",
  "7568": " shoulder",
  "7569": " comb",
  "7570": "irt",
  "7571": "-body",
  "7572": " garment",
  "7573": "—co",
  "7574": " dho",
  "7575": " dhoti",
  "7576": " shalwar",
  "7577": "yj",
  "7578": "yjamas",
  "7579": " tun",
  "7580": "yp",
  "7581": "ypically",
  "7582": " narrow",
  "7583": " pants",
  "7584": "ams",
  "7585": " occas",
  "7586": " occasions",
  "7587": " sports",
  "7588": " jack",
  "7589": " jackets",
  "7590": " groom",
  "7591": " sport",
  "7592": "wan",
  "7593": "isine",
  "7594": " cere",
  "7595": " cereal",
  "7596": " savo",
  "7597": " savoury",
  "7598": " steam",
  "7599": " steamed",
  "7600": " bread",
  "7601": "ake",
  "7602": " spic",
  "7603": " garlic",
  "7604": " vegetarian",
  "7605": " feature",
  "7606": " techni",
  "7607": " simple",
  "7608": " marina",
  "7609": " partially",
  "7610": " conce",
  "7611": " tandoori",
  "7612": " tandoor",
  "7613": " kabad",
  "7614": " kabaddi",
  "7615": " gill",
  "7616": " gilli",
  "7617": "-dand",
  "7618": "-danda",
  "7619": " adi",
  "7620": " Chess",
  "7621": " Champ",
  "7622": "ricket",
  "7623": " Cup",
  "7624": " Cups",
  "7625": " fiel",
  "7626": " med",
  "7627": "Re",
  "7628": "Refer",
  "7629": "Bi",
  "7630": "Bibl",
  "7631": "Biblio",
  "7632": " Dire",
  "7633": " Direct",
  "7634": " Directory",
  "7635": " Gov",
  "7636": "Pu",
  "7637": "Pubs",
  "7638": " Lib",
  "7639": " Libr",
  "7640": " Libraries",
  "7641": " BB",
  "7642": " BBC",
  "7643": " Atlas",
  "7644": "Stre",
  "7645": "Street",
  "7646": "Map",
  "7647": " लिप",
  "7648": " रिप",
  "7649": " इण्ड",
  "7650": " इण्डिया",
  "7651": "वाँ",
  "7652": "गान",
  "7653": " नेपाल",
  "7654": " बांग",
  "7655": " बांग्ल",
  "7656": " बांग्लाद",
  "7657": " बांग्लादेश",
  "7658": " म्य",
  "7659": " इंडोन",
  "7660": " इंडोनेशिया",
  "7661": "ाड़ी",
  "7662": " यहां",
  "7663": "ेद",
  "7664": " बे",
  "7665": "सिन",
  "7666": " ईसाई",
  "7667": " यहू",
  "7668": " यहूदी",
  "7669": " पारसी",
  "7670": " तटों",
  "7671": " मैदानों",
  "7672": "ाचार",
  "7673": " मध्यकाल",
  "7674": " विजयन",
  "7675": " विजयनगर",
  "7676": " चलने",
  "7677": " सिख",
  "7678": "निव",
  "7679": "निवेश",
  "7680": " सम्प्रभु",
  "7681": "१८५",
  "7682": " जिसे",
  "7683": "्वों",
  "7684": " विभाजित",
  "7685": " अधिर",
  "7686": " अधिराज्य",
  "7687": "245",
  "7688": " एवम",
  "7689": " महिल",
  "7690": " तेज़ी",
  "7691": " उल",
  "7692": " अद",
  "7693": " प्रगति",
  "7694": " फ़",
  "7695": " वै",
  "7696": "श्व",
  "7697": "ाती",
  "7698": " ग़",
  "7699": " ग़री",
  "7700": " ग़रीबी",
  "7701": " रखने",
  "7702": " वाला",
  "7703": "-च",
  "7704": "-चीन",
  "7705": " बाल",
  "7706": "ोषण",
  "7707": "ष्ट",
  "7708": "षण",
  "7709": " इत्य",
  "7710": " इत्याद",
  "7711": " इत्यादि",
  "7712": " सामने",
  "7713": " वन",
  "7714": " जंग",
  "7715": " जंगलों",
  "7716": " जग",
  "7717": " जगह",
  "7718": "रक्ष",
  "7719": " महात्म",
  "7720": " महात्मा",
  "7721": " गाँ",
  "7722": " कल",
  "7723": " त्र",
  "7724": " संगम",
  "7725": "|\n\n",
  "7726": "नाम",
  "7727": "्पत्ति",
  "7728": " नदी",
  "7729": " वर्णित",
  "7730": "देव",
  "7731": " बेट",
  "7732": " बेटे",
  "7733": " सम्र",
  "7734": " सम्राट",
  "7735": " भरत",
  "7736": " शब",
  "7737": " शब्द",
  "7738": " अन्तर्ग",
  "7739": " अन्तर्गत",
  "7740": " नामों",
  "7741": " भारतवर्ष",
  "7742": " आर्य",
  "7743": "ावर्त",
  "7744": "प्राचीन",
  "7745": " संग्र",
  "7746": " संग्राम",
  "7747": " महत",
  "7748": " महत्व",
  "7749": " महत्वपूर्ण",
  "7750": " पुराना",
  "7751": " प्रमाण",
  "7752": " देखने",
  "7753": " प्रथ",
  "7754": " प्रथम",
  "7755": " स्थाई",
  "7756": "रुप",
  "7757": "रों",
  "7758": " पाल",
  "7759": " चरम",
  "7760": " शहरों",
  "7761": " उत्पादन",
  "7762": " ग्र",
  "7763": " रच",
  "7764": "वैदिक",
  "7765": " कुलीन",
  "7766": "ाही",
  "7767": " सम्मिल",
  "7768": " सम्मिलित",
  "7769": " जिन्हे",
  "7770": "नप",
  "7771": " शहरीकरण",
  "7772": " उदय",
  "7773": "ित्व",
  "7774": " आया",
  "7775": " आधारित",
  "7776": " अनु",
  "7777": " आकर्ष",
  "7778": " आकर्षित",
  "7779": " त्य",
  "7780": " आदर्श",
  "7781": " मग",
  "7782": " मगध",
  "7783": " हिस्सों",
  "7784": "िपत्य",
  "7785": " राजाओं",
  "7786": " सतर",
  "7787": " क्यों",
  "7788": " क्योंकि",
  "7789": " अशोक",
  "7790": " आक्रम",
  "7791": " आक्रमण",
  "7792": " जिनके",
  "7793": " यून",
  "7794": "ानी",
  "7795": " कहल",
  "7796": " प्राय",
  "7797": " प्रायद्वीप",
  "7798": " चोल",
  "7799": " पांड",
  "7800": " चौथ",
  "7801": "हद",
  "7802": " निर्ध",
  "7803": " भक्ति",
  "7804": " प्रचलन",
  "7805": " कला",
  "7806": "१२०",
  "7807": " उत्थान",
  "7808": " कन्न",
  "7809": "क्क",
  "7810": " चाल",
  "7811": " चालुक",
  "7812": " चालुक्यों",
  "7813": " हरा",
  "7814": " हार",
  "7815": "ुद",
  "7816": " उनका",
  "7817": " सक्ष",
  "7818": " सक्षम",
  "7819": " दुस",
  "7820": " जारी",
  "7821": " नये",
  "7822": " बां",
  "7823": " बांट",
  "7824": " सामान्य",
  "7825": "कों",
  "7826": " इसने",
  "7827": "मार",
  "7828": "ैंड",
  "7829": " पैम",
  "7830": " पैमाने",
  "7831": "िवाज",
  "7832": "१३",
  "7833": " पत",
  "7834": " प्रश",
  "7835": " मजबूत",
  "7836": " परंपरा",
  "7837": " प्रभावित",
  "7838": " पुर्तगाल",
  "7839": " सहित",
  "7840": " उन्ह",
  "7841": " उन्होंने",
  "7842": " आत",
  "7843": " फाय",
  "7844": " फायदा",
  "7845": " उठाया",
  "7846": " हालां",
  "7847": " हालांकि",
  "7848": " अंग्रेजों",
  "7849": " आए",
  "7850": " करवाने",
  "7851": "ाकर",
  "7852": "जोर",
  "7853": " कामय",
  "7854": " कामयाब",
  "7855": " देव",
  "7856": " देते",
  "7857": " अशांति",
  "7858": " फैल",
  "7859": " नीच",
  "7860": " विभाजन",
  "7861": " वालों",
  "7862": " माता",
  "7863": " फिर",
  "7864": "ुओं",
  "7865": " देखो",
  "7866": " आपके",
  "7867": " भाई",
  "7868": " देखते",
  "7869": " असफल",
  "7870": " स्वतन",
  "7871": " स्वतन्त्र",
  "7872": " स्वतन्त्रता",
  "7873": " अधिकां",
  "7874": " अधिकांश",
  "7875": " नियंत्रण",
  "7876": "आध",
  "7877": "आधुनिक",
  "7878": "िमान",
  "7879": " स्वरूप",
  "7880": "म्बे",
  "7881": " प्राप्ति",
  "7882": " अहिंसाव",
  "7883": " अहिंसावादी",
  "7884": " चला",
  "7885": " नेतृत्",
  "7886": "‍व",
  "7887": "राष्ट्र",
  "7888": " संब",
  "7889": " संबोध",
  "7890": " संबोधित",
  "7891": "िवादी",
  "7892": " निर्माता",
  "7893": "ाथ",
  "7894": " सु�",
  "7895": " पूर्ण",
  "7896": "-सम",
  "7897": "-समय",
  "7898": "्प्र",
  "7899": " शिकार",
  "7900": " धर्मनिरपेक्ष",
  "7901": " जनतांत्रिक",
  "7902": " तत",
  "7903": " तत्क",
  "7904": " तत्काल",
  "7905": " तत्कालीन",
  "7906": " आपात",
  "7907": " आपातकाल",
  "7908": " अक्ष",
  "7909": " अक्षुण",
  "7910": " अक्षुण्ण",
  "7911": " राष्ट्रों",
  "7912": "मानों",
  "7913": " सामना",
  "7914": "ाइय",
  "7915": " गये",
  "7916": " सूची",
  "7917": "-आक",
  "7918": "-आकृत",
  "7919": " गोंड",
  "7920": "ार्क",
  "7921": "ार्कट",
  "7922": "ार्कटिका",
  "7923": " सेमी",
  "7924": " यूरेश",
  "7925": " यूरेशियन",
  "7926": " अवसाद",
  "7927": " ति�",
  "7928": "�्�",
  "7929": "�्ब",
  "7930": " द्र",
  "7931": " सिन्ध",
  "7932": " सिन्धु",
  "7933": "-ग",
  "7934": "-गंगा",
  "7935": "./",
  "7936": " गतिशील",
  "7937": " पर्वतमाल",
  "7938": " पर्वतमाला",
  "7939": " पर्वतश",
  "7940": " पर्वतश्रे",
  "7941": " पर्वतश्रेणी",
  "7942": " संसार",
  "7943": " चोट",
  "7944": "०००",
  "7945": "स्ट",
  "7946": "२९",
  "7947": "२८",
  "7948": " ब्रह",
  "7949": " ब्रह्म",
  "7950": " ब्रह्मपु",
  "7951": " ब्रह्मपुत्र",
  "7952": " तल",
  "7953": " प्रव",
  "7954": " पेट",
  "7955": " कंक",
  "7956": " कंकड",
  "7957": " मिश्रित",
  "7958": " भाब",
  "7959": " भाबर",
  "7960": " तराई",
  "7961": " विल",
  "7962": " दल",
  "7963": " नवीन",
  "7964": " पुराने",
  "7965": " बा�",
  "7966": " बाढ",
  "7967": " बाढ़",
  "7968": " कहीं",
  "7969": "ूने",
  "7970": " नई",
  "7971": " कड़",
  "7972": "ांतर",
  "7973": " वि",
  "7974": " विंध",
  "7975": " विंध्य",
  "7976": " विंध्याचल",
  "7977": " पहाड़ियाँ",
  "7978": " नर्म",
  "7979": " नर्मदा",
  "7980": " बहती",
  "7981": " मै",
  "7982": " किनारे",
  "7983": "कोप",
  "7984": "कोपेन",
  "7985": " वर्गीकरण",
  "7986": " उष्ण",
  "7987": " अल्प",
  "7988": " जैसी",
  "7989": "ोत्तर",
  "7990": " शुष्क",
  "7991": "उष्ण",
  "7992": "शुष्क",
  "7993": " मर",
  "7994": "्थल",
  "7995": " मानी",
  "7996": " परन",
  "7997": " परन्तु",
  "7998": " मौसम",
  "7999": " विभाग",
  "8000": "ात्मक",
  "8001": " निम्नवत",
  "8002": " लिख",
  "8003": ":\n",
  "8004": " दिस",
  "8005": " दिसंबर",
  "8006": " महीने",
  "8007": " औस",
  "8008": " औसत",
  "8009": " ताप",
  "8010": " तापमान",
  "8011": " डिग",
  "8012": " डिग्री",
  "8013": " सेल",
  "8014": " सेल्स",
  "8015": " सेल्सियस",
  "8016": "-mon",
  "8017": "-monsoon",
  "8018": "३२",
  "8019": " सित",
  "8020": " सार",
  "8021": " वर्षा",
  "8022": " वस्त",
  "8023": "ौटना",
  "8024": " इनका",
  "8025": " क्रमश",
  "8026": " क्रमशः",
  "8027": " साफ़",
  "8028": " शांत",
  "8029": " तमिलनाड",
  "8030": " तमिलनाडु",
  "8031": " मुम्ब",
  "8032": " मुम्बई",
  "8033": "राजनी",
  "8034": "राजनीति",
  "8035": " लोकत",
  "8036": " शक्तियों",
  "8037": " वाले",
  "8038": " मान्यता",
  "8039": "-प्र",
  "8040": " पार्टियां",
  "8041": " ज़्यादा",
  "8042": "भाजपा",
  "8043": " नीत",
  "8044": " नरेंद्र",
  "8045": "ामपंथी",
  "8046": " दौर",
  "8047": "गण",
  "8048": "५२",
  "8049": " जव",
  "8050": " जवाह",
  "8051": " जवाहरल",
  "8052": " जवाहरलाल",
  "8053": " मृत्य",
  "8054": " मृत्यु",
  "8055": "्त्री",
  "8056": " बनीं",
  "8057": "ाज़",
  "8058": "गठित",
  "8059": " केब",
  "8060": " मंत्री",
  "8061": "नव",
  "8062": " मोर्चा",
  "8063": " परंत",
  "8064": " परंतु",
  "8065": " वक्त",
  "8066": " आई",
  "8067": " ना",
  "8068": " बिह",
  "8069": "डीए",
  "8070": " ऐसी",
  "8071": " उभरी",
  "8072": " यूप",
  "8073": " यूपी",
  "8074": " यूपीए",
  "8075": " नया",
  "8076": "कॉ",
  "8077": " ऐसे",
  "8078": "्टर",
  "8079": " शैली",
  "8080": " संचाल",
  "8081": " संचालित",
  "8082": " रूपरे",
  "8083": " रूपरेख",
  "8084": " रूपरेखा",
  "8085": " सरकारी",
  "8086": " ढाँच",
  "8087": " ढाँचा",
  "8088": "-फ़",
  "8089": "ेडेर",
  "8090": "ेडेरल",
  "8091": "ायिका",
  "8092": " सदन",
  "8093": "सदन",
  "8094": " अथ",
  "8095": " अथव",
  "8096": " अथवा",
  "8097": "५४",
  "8098": " विधि",
  "8099": "ातर",
  "8100": " दूसरे",
  "8101": " सभा",
  "8102": " पद",
  "8103": " नियुक्ति",
  "8104": " राष्ट्रप",
  "8105": " राष्ट्रपति",
  "8106": " प्राव",
  "8107": " प्रावधान",
  "8108": " योग",
  "8109": " योग्य",
  "8110": " अनिव",
  "8111": " अनिवार",
  "8112": " अनिवार्य",
  "8113": " उत्तरदाय",
  "8114": " न्यायाधिकार",
  "8115": "्शन",
  "8116": " न्यायालयों",
  "8117": "नो",
  "8118": " हनन",
  "8119": " इलावा",
  "8120": " अपेक्षा",
  "8121": " केन्द्रशासित",
  "8122": "टा",
  "8123": "त्री",
  "8124": " यद्यपि",
  "8125": " केंद्रशासित",
  "8126": " दाद",
  "8127": " दादरा",
  "8128": " हव",
  "8129": " हवेली",
  "8130": " दमन",
  "8131": " द्वीप",
  "8132": " सौहार्दपूर्ण",
  "8133": " बनाए",
  "8134": " निरपेक्ष",
  "8135": " अग्र",
  "8136": " अग्रणी",
  "8137": " संक्ष",
  "8138": " संक्षिप",
  "8139": " संक्षिप्त",
  "8140": " हस्तक्ष",
  "8141": " हस्तक्षे",
  "8142": " हस्तक्षेप",
  "8143": " युद्धों",
  "8144": " बढ़ोत",
  "8145": " आपू",
  "8146": " आपूर्त",
  "8147": " आपूर्तिक",
  "8148": " आपूर्तिकर्त",
  "8149": " आपूर्तिकर्ता",
  "8150": " इजर",
  "8151": " इजराय",
  "8152": " इजरायल",
  "8153": " संगठ",
  "8154": " संगठन",
  "8155": " एशियाई",
  "8156": " एस",
  "8157": " एसोस",
  "8158": " एसोसिएशन",
  "8159": " कर्म",
  "8160": " कर्मियों",
  "8161": " महाद्वीप",
  "8162": " महाद्वीपों",
  "8163": " पैंती",
  "8164": " पैंतीस",
  "8165": " अभियानों",
  "8166": " बहुप",
  "8167": " बहुपक्ष",
  "8168": " बहुपक्षीय",
  "8169": " मंच",
  "8170": " मंचों",
  "8171": " खास",
  "8172": " खासकर",
  "8173": " शिख",
  "8174": " शिखर",
  "8175": " घन",
  "8176": " घनिष्ठ",
  "8177": "लगभग",
  "8178": " सैनिक",
  "8179": " सैनिकों",
  "8180": " बलों",
  "8181": " ज्याद",
  "8182": " नीति",
  "8183": "द्द",
  "8184": " जाप",
  "8185": " जापान",
  "8186": " निवेश",
  "8187": "हाल",
  "8188": " असैनिक",
  "8189": " समझौते",
  "8190": " हस्ताक",
  "8191": " हस्ताक्षर",
  "8192": " ऊर्ज",
  "8193": " ऊर्जा",
  "8194": "एस",
  "8195": "एसजी",
  "8196": " छूट",
  "8197": "डम",
  "8198": " केन्द्रीय",
  "8199": " आवंट",
  "8200": " रूपए",
  "8201": " राश",
  "8202": " राशि",
  "8203": " सकल",
  "8204": " घरे",
  "8205": " घरेल",
  "8206": " घरेलू",
  "8207": " SI",
  "8208": "ोर्ट",
  "8209": " मामले",
  "8210": " अमेरिकी",
  "8211": " वार",
  "8212": " वार्ष",
  "8213": " वार्षिक",
  "8214": " पैस",
  "8215": " शाख",
  "8216": " आयातक",
  "8217": " अंत",
  "8218": " अंतिम",
  "8219": " रै",
  "8220": " रैंक",
  "8221": " “",
  "8222": "”",
  "8223": " दिए",
  "8224": " अपन",
  "8225": " रिय",
  "8226": " रियास",
  "8227": " रियासत",
  "8228": " रियासतों",
  "8229": " शेष",
  "8230": " अधिकारी",
  "8231": " वर",
  "8232": " वरिष्ठ",
  "8233": " वायुसेना",
  "8234": "-इन",
  "8235": "-ची",
  "8236": "-चीफ",
  "8237": "ियम",
  "8238": " राम",
  "8239": " गोव",
  "8240": " गोवा",
  "8241": " बढ़ा",
  "8242": " प्रदर्शन",
  "8243": " कार्र",
  "8244": " कार्रव",
  "8245": " कार्रवाई",
  "8246": " सिय",
  "8247": " सियाच",
  "8248": " सियाचिन",
  "8249": " ग्ल",
  "8250": " ग्लेश",
  "8251": " ग्लेशियर",
  "8252": " पत्र",
  "8253": "नेट",
  "8254": " कंपनियों",
  "8255": " साझ",
  "8256": " साझे",
  "8257": " साझेदारी",
  "8258": " लड़ाक",
  "8259": " लड़ाकू",
  "8260": "ॉक",
  "8261": "ीड",
  "8262": "१६",
  "8263": " टी",
  "8264": "द्रा",
  "8265": "वें",
  "8266": " क्रयश",
  "8267": " क्रयशक्ति",
  "8268": " तीसरे",
  "8269": " तीव",
  "8270": " तीव्र",
  "8271": " प्रतिव",
  "8272": " मात",
  "8273": " मात्र",
  "8274": " बैंक",
  "8275": " मध्यमव",
  "8276": " मध्यमवर्ग",
  "8277": " सुधार",
  "8278": "डीपी",
  "8279": "्टव",
  "8280": "्टवेय",
  "8281": "्टवेयर",
  "8282": " नागरिकों",
  "8283": " आने",
  "8284": " आवश",
  "8285": " आवश्य",
  "8286": " आवश्यक",
  "8287": " स्र",
  "8288": " स्रोत",
  "8289": "गार",
  "8290": " देता",
  "8291": " करोड",
  "8292": " अमरीका",
  "8293": "िंग",
  "8294": " रसाय",
  "8295": " रसायन",
  "8296": " तेल",
  "8297": " मश",
  "8298": " मशीन",
  "8299": "ज़",
  "8300": "िसम",
  "8301": "कालिक",
  "8302": "कुल",
  "8303": "‍य",
  "8304": "१४",
  "8305": " स्त्र",
  "8306": "१००",
  "8307": "६६",
  "8308": "७९",
  "8309": "२३",
  "8310": "३७",
  "8311": "३८",
  "8312": " मध्यप्र",
  "8313": " मध्यप्रद",
  "8314": " मध्यप्रदेश",
  "8315": " ।\n",
  "8316": " मुख्यरूप",
  "8317": " महार",
  "8318": " महाराष्ट्र",
  "8319": " रेज",
  "8320": " रेजिम",
  "8321": " रेजिमें",
  "8322": " रेजिमेंट",
  "8323": "नाग",
  "8324": " नागा",
  "8325": " उड़",
  "8326": " उड़ीस",
  "8327": " उड़ीसा",
  "8328": " समान",
  "8329": " भाषी",
  "8330": " इस्त",
  "8331": " इस्ते",
  "8332": " इस्तेमाल",
  "8333": " दर्ज़",
  "8334": " वज",
  "8335": " वजह",
  "8336": " आठ",
  "8337": " आठवीं",
  "8338": " अनुसूची",
  "8339": " करेगी",
  "8340": " पारंप",
  "8341": " पारंपरिक",
  "8342": " मूल्यों",
  "8343": " मनाए",
  "8344": " दिवाली",
  "8345": " होली",
  "8346": " दशह",
  "8347": " दशहरा",
  "8348": " नृत्य",
  "8349": " ओड",
  "8350": " प्रसि�",
  "8351": " प्रसिद्ध",
  "8352": " कर्�",
  "8353": " कर्न",
  "8354": " कर्नाट",
  "8355": " कर्नाटक",
  "8356": " झारखंड",
  "8357": " क्रिक",
  "8358": " क्रिकेट",
  "8359": "ुच",
  "8360": " दिवस",
  "8361": " टेलीविज़",
  "8362": " टेलीविज़न",
  "8363": " फिल्म",
  "8364": " सिनेमा",
  "8365": " सिनेम",
  "8366": " टेलीविजन",
  "8367": " प्रसारण",
  "8368": " उपग्र",
  "8369": " उपग्रह",
  "8370": " मनोर",
  "8371": " मनोरंजन",
  "8372": "ानप",
  "8373": "ानपान",
  "8374": "ाहारी",
  "8375": " पसन्द",
  "8376": " కోట్ల",
  "8377": " జనాభాతో",
  "8378": " ప్రపంచంలో",
  "8379": "263",
  "8380": "ేచ",
  "8381": "ాయుత",
  "8382": " పార్ల",
  "8383": " పార్లమె",
  "8384": " పార్లమెంట",
  "8385": " సైనిక",
  "8386": " సామర్�",
  "8387": " సామర్థ",
  "8388": " సామర్థ్యం",
  "8389": " అణ",
  "8390": " ప్రాంతీయ",
  "8391": " శక్త",
  "8392": " వేల",
  "8393": " కిలో",
  "8394": " కిలోమీ",
  "8395": " కిలోమీటర్ల",
  "8396": " కిలోమీటర్లకు",
  "8397": " సముద్ర",
  "8398": " సముద్రత",
  "8399": " సముద్రతీ",
  "8400": " భాగాన్ని",
  "8401": " కూడుకొ",
  "8402": " చారిత్రక",
  "8403": " ఉత్తరాన",
  "8404": " మహాస",
  "8405": " మహాసముద",
  "8406": " మహాసముద్రం",
  "8407": " పశ్చిమాన",
  "8408": " తూ",
  "8409": " తూర్ప",
  "8410": "ాతం",
  "8411": " చైనా",
  "8412": " నేపాల్",
  "8413": " భూట",
  "8414": " భూటాన్",
  "8415": " సరిహద్దుల",
  "8416": "లంక",
  "8417": " ఇండో",
  "8418": "రలో",
  "8419": "దేశాలు",
  "8420": " బౌ",
  "8421": " బౌద్ధ",
  "8422": " సిక",
  "8423": " సిక్క",
  "8424": "లకు",
  "8425": "ిచ్చ",
  "8426": "భా�",
  "8427": "భాష",
  "8428": " జాతి",
  "8429": " ఏప్ర",
  "8430": " ఏప్రిల్",
  "8431": " చైనాన",
  "8432": " చైనాను",
  "8433": " దాట",
  "8434": "ౌర్య",
  "8435": " సామ్రాజ్య",
  "8436": "వర్త",
  "8437": " పాలనలో",
  "8438": " పలు",
  "8439": " రాజ్యాలుగా",
  "8440": "ిపో",
  "8441": "ిపోయింది",
  "8442": " బ్రిటిష్",
  "8443": " ఈస్ట",
  "8444": " ఈస్ట్",
  "8445": " కంపెనీ",
  "8446": " పరిపాలన",
  "8447": " కిందకు",
  "8448": " నే",
  "8449": "ెడ",
  "8450": "ెడ్",
  "8451": "ింగ",
  "8452": "మ్",
  "8453": " మహాత్మ",
  "8454": " మహాత్మా",
  "8455": " నాయక",
  "8456": " నాయకత్వ",
  "8457": " స్వాతంత్ర్యం",
  "8458": " అహ",
  "8459": " తర్వ",
  "8460": " తర్వాత",
  "8461": " ఆవ",
  "8462": "్భ",
  "8463": " సంస్క",
  "8464": " సంస్కరణ",
  "8465": " చెందుతున్న",
  "8466": " ఒకటి",
  "8467": "ాహార",
  "8468": "ంటున్న",
  "8469": " పేర్లు",
  "8470": " చెప్ప",
  "8471": " మొదట",
  "8472": " వేద",
  "8473": "ార్థ",
  "8474": " ఉపయో",
  "8475": " ఉపయోగ",
  "8476": "ఉ",
  "8477": " మే",
  "8478": " కృ",
  "8479": " కృష్ణ",
  "8480": " గోద",
  "8481": " గోదావ",
  "8482": "రేడ",
  "8483": "రేడు",
  "8484": "్లు",
  "8485": " కనుక",
  "8486": " దీన",
  "8487": "భరత",
  "8488": " మీద",
  "8489": " మీదగా",
  "8490": " ఇత",
  "8491": " విశ్వ",
  "8492": "తరువాత",
  "8493": " సింధూ",
  "8494": " సింధూన",
  "8495": " పూర్వ",
  "8496": "కులు",
  "8497": "ిలిచ",
  "8498": " రూపాం",
  "8499": " రూపాంతర",
  "8500": " చెంది",
  "8501": " వలన",
  "8502": "ాము",
  "8503": "ింప",
  "8504": " పొందిన",
  "8505": " అవి",
  "8506": " హిందూస్త",
  "8507": "్యమైన",
  "8508": "ుగ",
  "8509": " శిల",
  "8510": " నివ",
  "8511": "ారాల",
  "8512": " ఏర్పడ్డాయి",
  "8513": "ోల",
  "8514": " స్థావ",
  "8515": " స్థావరాలు",
  "8516": " ప్రాంతాల్లో",
  "8517": " ఆస",
  "8518": " సంస్కృతి",
  "8519": " చెందాయి",
  "8520": " సామ్రాజ్యం",
  "8521": " విల",
  "8522": " విలువ",
  "8523": " తరువాతి",
  "8524": " పల్ల",
  "8525": "వులు",
  "8526": "గువ",
  "8527": " పాలించ",
  "8528": " పాలించారు",
  "8529": " కళ",
  "8530": " కళలు",
  "8531": " సారస్వత",
  "8532": " సారస్వతం",
  "8533": " సాంక",
  "8534": " సాంకేత",
  "8535": " సాంకేతిక",
  "8536": " తత్వ",
  "8537": " మొదలైనవి",
  "8538": " సహస్ర",
  "8539": " సహస్రాబ్ద",
  "8540": " మొగలు",
  "8541": " అయినా",
  "8542": " ముఖ్యంగా",
  "8543": "రెండ",
  "8544": "ర్చ",
  "8545": " ఐరో",
  "8546": " ఐరోపా",
  "8547": " ఇక్క",
  "8548": " బ్రిటిషు",
  "8549": " తిరు",
  "8550": " తిరుగు",
  "8551": " తిరుగుబ",
  "8552": " తిరుగుబాటు",
  "8553": " సమరం",
  "8554": " సు",
  "8555": " ఆగ",
  "8556": " సిద్ధ",
  "8557": " జనవరి",
  "8558": " గణతంత్ర",
  "8559": " రాజ్యంగా",
  "8560": " జాతులు",
  "8561": " విభిన్న",
  "8562": "ర్షణ",
  "8563": " చవ",
  "8564": " లౌక",
  "8565": " లౌకిక",
  "8566": " లక్షణ",
  "8567": " కాప",
  "8568": " కాపాడ",
  "8569": " కాపాడుకుంట",
  "8570": " కాపాడుకుంటూ",
  "8571": " అప్ప",
  "8572": " ప్రధానమంత్రి",
  "8573": " ఇంద",
  "8574": " మాత్రమ",
  "8575": " మాత్రమే",
  "8576": "ౌర",
  "8577": " వాట",
  "8578": "ాదం",
  "8579": " యుద్ధ",
  "8580": " సభ్య",
  "8581": " పరీ",
  "8582": " పరీక్ష",
  "8583": " నిర్వహించింది",
  "8584": " మరో",
  "8585": " రాజ్యాంగం",
  "8586": " అధికారం",
  "8587": " లె",
  "8588": "వ్యవస్థ",
  "8589": "వుతుంది",
  "8590": " పదవి",
  "8591": "రాష్ట్రప",
  "8592": " ఎల",
  "8593": " ఎలక",
  "8594": " ఎలక్ట",
  "8595": " ఎలక్టోర",
  "8596": " ఎలక్టోరల్",
  "8597": " కాలేజ",
  "8598": " సంవత్సర",
  "8599": "పర",
  "8600": " ఎన్నుకో",
  "8601": " ఎన్నుకోబడ",
  "8602": " ఎన్నుకోబడత",
  "8603": " ఎన్నుకోబడతారు",
  "8604": "‌సభ",
  "8605": " సభ్యులు",
  "8606": "ిచే",
  "8607": " నియమ",
  "8608": " నియమించ",
  "8609": "ారిగా",
  "8610": " శాస",
  "8611": " శాసన",
  "8612": " పద్ధతి",
  "8613": " సభను",
  "8614": " అంట",
  "8615": " ప్రజలు",
  "8616": " ప్రత్య",
  "8617": "ుప్రీ",
  "8618": "ుప్రీం",
  "8619": " కోర్టు",
  "8620": "ేట",
  "8621": " కోర్టులు",
  "8622": " హై",
  "8623": "కో",
  "8624": " రిట",
  "8625": "్లలో",
  "8626": "ారి",
  "8627": " రకాలు",
  "8628": " జో",
  "8629": " వ్యవస్థకు",
  "8630": "దుగా",
  "8631": "ిత్వ",
  "8632": " అతిప",
  "8633": " అతిపెద్ద",
  "8634": " దాదాపు",
  "8635": "రాజ",
  "8636": " జనత",
  "8637": " జనతా",
  "8638": " ఐక",
  "8639": " ఐక్య",
  "8640": " ఓ",
  "8641": " ప్రభుత్వాన్ని",
  "8642": " ఇట",
  "8643": " ఇటీవ",
  "8644": " ఇటీవల",
  "8645": "పై",
  "8646": "ును",
  "8647": "ోత",
  "8648": " సార్వ",
  "8649": " సార్వత్ర",
  "8650": " సార్వత్రిక",
  "8651": " కలిసి",
  "8652": "న్నీ",
  "8653": "ాలే",
  "8654": " ఎన్నికల్లో",
  "8655": " కాంగ్రెస్",
  "8656": " స్థానాలను",
  "8657": " గెలు",
  "8658": " గెలుచ",
  "8659": " గెలుచుకోవడ",
  "8660": " గెలుచుకోవడం",
  "8661": "ౌగోళ",
  "8662": "ౌగోళిక",
  "8663": "నవ",
  "8664": "ఘ",
  "8665": " ఆన",
  "8666": " కులాలు",
  "8667": " ఏక",
  "8668": " ఈశ",
  "8669": " ఈశాన",
  "8670": " ఈశాన్య",
  "8671": " హిమాలయ",
  "8672": " పర్వ",
  "8673": " కూడుకుని",
  "8674": "వంత",
  "8675": " కూడి",
  "8676": " థ",
  "8677": " ఎడ",
  "8678": " పూర్త",
  "8679": " పూర్తిగా",
  "8680": "క్కను",
  "8681": " పీఠభ",
  "8682": " పీఠభూ",
  "8683": " పీఠభూమ",
  "8684": " కను",
  "8685": " కనుమ",
  "8686": " కనుమలు",
  "8687": "దులు",
  "8688": " గంగ",
  "8689": "పుత",
  "8690": "దేశపు",
  "8691": " నెల",
  "8692": " నెలకొ",
  "8693": " కలు",
  "8694": "రాష్ట్రాలు",
  "8695": " బడ",
  "8696": " జమ్మ",
  "8697": " జమ్మూ",
  "8698": " లకు",
  "8699": "ార్క",
  "8700": "ార్క్",
  "8701": "లే",
  "8702": "లేదు",
  "8703": "ానీ",
  "8704": "త్రి",
  "8705": "ూడండి",
  "8706": "ఆర్�",
  "8707": "ఆర్ధిక",
  "8708": " ఆధారపడ",
  "8709": " ఆధారపడిన",
  "8710": " వ్యవ",
  "8711": "ాదాయ",
  "8712": "ాదాయంలో",
  "8713": " కంటే",
  "8714": "ెట్ర",
  "8715": "ిశ్ర",
  "8716": " గత",
  "8717": "ాఫ",
  "8718": "ెస్",
  "8719": "ట్",
  "8720": " రంగాల",
  "8721": " ప్రపంచంలోని",
  "8722": "టా",
  "8723": "ర్శ",
  "8724": " విద",
  "8725": "ేశీ",
  "8726": " అమె",
  "8727": " అమెరిక",
  "8728": " అమెరికా",
  "8729": ".�",
  "8730": " వ్యాపార",
  "8731": " అధ",
  "8732": " సామాజ",
  "8733": " సామాజిక",
  "8734": "ీకరణ",
  "8735": " ముంబై",
  "8736": "ాంబ",
  "8737": "‌క",
  "8738": "‌కాత",
  "8739": "‌కాతా",
  "8740": "ద్ర",
  "8741": "01",
  "8742": " అక్షరాస్యత",
  "8743": " మహిళ",
  "8744": "101",
  "8745": " స్త",
  "8746": " స్త్రీ",
  "8747": " స్త్రీలు",
  "8748": " జనగణ",
  "8749": " రెండో",
  "8750": " ముస్ల",
  "8751": " ముస్లి",
  "8752": " ముస్లిం",
  "8753": "�ీ",
  "8754": "స్తులు",
  "8755": " కార్యక్రమాలు",
  "8756": " భక్త",
  "8757": " ఉత",
  "8758": " జరుపుకుంటారు",
  "8759": "లీ",
  "8760": " భాషా",
  "8761": " భాషలను",
  "8762": " ఇంగ్లీషు",
  "8763": "165",
  "8764": "ాబాదు",
  "8765": "ప్రాచ",
  "8766": "ప్రాచీన",
  "8767": " భార",
  "8768": " సౌకర్యాలు",
  "8769": " సౌకర్యాలలో",
  "8770": "తిని",
  "8771": "దేశంలో",
  "8772": " నిడ",
  "8773": " నిడివ",
  "8774": "న్ల",
  "8775": "జిత",
  "8776": "�ాక",
  "8777": "�ాకా",
  "8778": "-ఢిల్లీ",
  "8779": "-ల",
  "8780": "-లాహ",
  "8781": "-లాహోర్",
  "8782": " ప్రారంభించ",
  "8783": " ప్రతిపాదనకు",
  "8784": " రైల్వేశ",
  "8785": " రైల్వేశాఖ",
  "8786": "ంజ",
  "8787": "నీ",
  "8788": "తే",
  "8789": "కూ",
  "8790": "చ్చని",
  "8791": " నిపు",
  "8792": " నిపుణ",
  "8793": " నిపుణులు",
  "8794": " సూచించిన",
  "8795": " సూచించినట్లు",
  "8796": "చన",
  "8797": "ెహ్ర",
  "8798": "ికలు",
  "8799": " ప్రయో",
  "8800": " ప్రయోజన",
  "8801": " నె",
  "8802": " మనదేశం",
  "8803": "ెల్ల",
  "8804": "కర",
  "8805": "మేనని",
  "8806": " ఉండటం",
  "8807": " ఒకే�",
  "8808": "మూల",
  "8809": " రోడ్డు",
  "8810": "ాయు",
  "8811": " జరిగే",
  "8812": " విమ",
  "8813": " విమాన",
  "8814": "ప్పటికినీ",
  "8815": " నగర",
  "8816": "ండా",
  "8817": " ఇతరదేశ",
  "8818": " అంత",
  "8819": " అంతర్జ",
  "8820": " అంతర్జాతీయ",
  "8821": "జల",
  "8822": " ముడి",
  "8823": " ఖన",
  "8824": " ఖనిజ",
  "8825": " ఖనిజాలు",
  "8826": "మతి",
  "8827": " విష",
  "8828": " విషయాలు",
  "8829": " ప్రపంచములో",
  "8830": "�క",
  "8831": "సం�",
  "8832": "మహ",
  "8833": " మర",
  "8834": " సమాజ",
  "8835": "ులతో",
  "8836": " భావిస్తారు",
  "8837": " చిర",
  "8838": " పవ",
  "8839": " పవిత్ర",
  "8840": "ాటక",
  "8841": " ప్రజాద",
  "8842": " ప్రజాదరణ",
  "8843": "డిస్�",
  "8844": " ప్రస",
  "8845": " ప్రసిద్ధి",
  "8846": " రచ",
  "8847": " రచయ",
  "8848": " రచయిత",
  "8849": " సాధించిన",
  "8850": "డైన",
  "8851": "నా�",
  "8852": "నాథ",
  "8853": " అన్న",
  "8854": " మల",
  "8855": " మలయ",
  "8856": " మలయాళ",
  "8857": " మలయాళం",
  "8858": " ఆహారం",
  "8859": " ధ",
  "8860": " ధర",
  "8861": " క్రీడా",
  "8862": "చిత",
  "8863": " స్థానం",
  "8864": " ఒలంప",
  "8865": " ఒలంపిక్",
  "8866": " క్రీడలలో",
  "8867": " పర్యాయ",
  "8868": " పర్యాయాలు",
  "8869": " హాక",
  "8870": " హాకీ",
  "8871": " బంగారు",
  "8872": "దరంగ",
  "8873": " టైట",
  "8874": "ిళ్ళ",
  "8875": " క్రీడలు",
  "8876": " కబడ్డ",
  "8877": " కబడ్డీ",
  "8878": " పతాక",
  "8879": " శెలవు",
  "8880": " శెలవుదినాలు",
  "8881": " పక్క",
  "8882": " పక్కన",
  "8883": " మాట",
  "8884": " మాట్ల",
  "8885": " మాట్లాడ",
  "8886": " మాట్లాడే",
  "8887": " =",
  "8888": "):",
  "8889": "ంకెలు",
  "8890": "అధిక",
  "8891": "అధికార",
  "8892": "విద్య",
  "8893": "విద్యుత",
  "8894": "విద్యుత్",
  "8895": " ప్ల",
  "8896": "‌లో",
  "8897": " ISBN",
  "8898": "IA",
  "8899": " Prof",
  "8900": " Profile",
  "8901": " ఆఫ్ఘన",
  "8902": " ఆఫ్ఘనిస్తాన్",
  "8903": " సరిహద్దుగా",
  "8904": " భూభ",
  "8905": " భూభాగం",
  "8906": " oficialmente",
  "8907": " Ga",
  "8908": " ubicado",
  "8909": " Sur",
  "8910": " poblado",
  "8911": "fici",
  "8912": " planeta",
  "8913": " océ",
  "8914": " océano",
  "8915": " Índico",
  "8916": " línea",
  "8917": " costera",
  "8918": "751",
  "8919": "irman",
  "8920": " Maldivas",
  "8921": " Nueva",
  "8922": " poblada",
  "8923": " Bombay",
  "8924": " valle",
  "8925": " imperios",
  "8926": "ficado",
  "8927": " riqueza",
  "8928": " larga",
  "8929": " historia",
  "8930": " sijismo",
  "8931": " zoroast",
  "8932": " cristian",
  "8933": " cristianismo",
  "8934": " culturas",
  "8935": " Britán",
  "8936": " XVIII",
  "8937": " coloniz",
  "8938": " Reino",
  "8939": " XI",
  "8940": " XIX",
  "8941": " lucha",
  "8942": " encabezado",
  "8943": " compuest",
  "8944": " parlamentaria",
  "8945": " transformado",
  "8946": " todav",
  "8947": " todavía",
  "8948": " suf",
  "8949": " proble",
  "8950": " altos",
  "8951": "tismo",
  "8952": " malnutrición",
  "8953": " fauna",
  "8954": " háb",
  "8955": " hábit",
  "8956": " nueve",
  "8957": " Prolifer",
  "8958": " Proliferación",
  "8959": " dado",
  "8960": " pasó",
  "8961": " puesto",
  "8962": " Índice",
  "8963": " Ambi",
  "8964": "vestig",
  "8965": " estudi",
  "8966": " estudio",
  "8967": " destaca",
  "8968": "alar",
  "8969": " calidad",
  "8970": " caracteriz",
  "8971": " caracteriza",
  "8972": " desigualdad",
  "8973": " desig",
  "8974": " desigu",
  "8975": " desiguales",
  "8976": " Desigual",
  "8977": " Desigualdad",
  "8978": " califica",
  "8979": "país",
  "8980": " siguientes",
  "8981": " kannada",
  "8982": " malayalam",
  "8983": " marathi",
  "8984": " manipuri",
  "8985": "alí",
  "8986": " dial",
  "8987": " dialectos",
  "8988": " deriva",
  "8989": " pal",
  "8990": " palab",
  "8991": " palabra",
  "8992": " persa",
  "8993": "/),",
  "8994": " río",
  "8995": " antiguos",
  "8996": " hablados",
  "8997": "unci",
  "8998": "endario",
  "8999": " rey",
  "9000": " mitología",
  "9001": " hinduista",
  "9002": " design",
  "9003": " utiliza",
  "9004": " bandera",
  "9005": " emble",
  "9006": " emblema",
  "9007": " canción",
  "9008": "puesta",
  "9009": "chand",
  "9010": "tivas",
  "9011": " posee",
  "9012": " loto",
  "9013": ")​",
  "9014": " símbolo",
  "9015": " moned",
  "9016": " moneda",
  "9017": " antigua",
  "9018": " modernos",
  "9019": " datan",
  "9020": " Después",
  "9021": " cul",
  "9022": " cultivos",
  "9023": " estruct",
  "9024": " agrícolas",
  "9025": " Estos",
  "9026": " gradualmente",
  "9027": " civilización",
  "9028": " floreció",
  "9029": " subs",
  "9030": "istencia",
  "9031": " artesan",
  "9032": "Dur",
  "9033": "Durante",
  "9034": " Edad",
  "9035": " Vedas",
  "9036": " asoci",
  "9037": " abar",
  "9038": " ole",
  "9039": " migración",
  "9040": " indoaria",
  "9041": " jer",
  "9042": " jerarqu",
  "9043": " jerarquía",
  "9044": " guerr",
  "9045": " guerreros",
  "9046": " lib",
  "9047": " exclu",
  "9048": " excluyó",
  "9049": " pue",
  "9050": " puebl",
  "9051": " pueblos",
  "9052": " indí",
  "9053": " indígen",
  "9054": " surg",
  "9055": "gi",
  "9056": " jef",
  "9057": " tanques",
  "9058": "aturas",
  "9059": " dieci",
  "9060": "arquías",
  "9061": " urbanización",
  "9062": "imientos",
  "9063": " religiosos",
  "9064": " védicos",
  "9065": " importancia",
  "9066": " basado",
  "9067": " enseñan",
  "9068": " enseñanzas",
  "9069": "ama",
  "9070": " seguid",
  "9071": " seguidores",
  "9072": " excepto",
  "9073": " clase",
  "9074": " media",
  "9075": "ónica",
  "9076": " Buda",
  "9077": " inicios",
  "9078": " ép",
  "9079": " creciente",
  "9080": " ambas",
  "9081": " reducido",
  "9082": " Alg",
  "9083": "rales",
  "9084": "omas",
  "9085": " gestión",
  "9086": " pública",
  "9087": " destac",
  "9088": " amplia",
  "9089": " defensa",
  "9090": " lengua",
  "9091": " meridional",
  "9092": " comerci",
  "9093": "aban",
  "9094": " rom",
  "9095": "iental",
  "9096": "mó",
  "9097": " patriar",
  "9098": " patriarcal",
  "9099": "oner",
  "9100": " reno",
  "9101": " renov",
  "9102": "jó",
  "9103": "ultura",
  "9104": " encontró",
  "9105": " patrocin",
  "9106": " medicina",
  "9107": "raron",
  "9108": " avances",
  "9109": " temprana",
  "9110": " define",
  "9111": " diversidad",
  "9112": "angética",
  "9113": " intentó",
  "9114": " derrotado",
  "9115": " gobernante",
  "9116": " Chal",
  "9117": " Chaluk",
  "9118": " suces",
  "9119": " quien",
  "9120": " op",
  "9121": "ieron",
  "9122": " constante",
  "9123": " constantemente",
  "9124": " cuyas",
  "9125": " consecu",
  "9126": " consecuencia",
  "9127": " mos",
  "9128": " mostr",
  "9129": " crearon",
  "9130": " Fuer",
  "9131": " llevaron",
  "9132": " resurgimiento",
  "9133": " tam",
  "9134": " tamañ",
  "9135": " sudes",
  "9136": " sudeste",
  "9137": " asiático",
  "9138": "inas",
  "9139": " ejércitos",
  "9140": " tom",
  "9141": " hind",
  "9142": " hindú",
  "9143": "Después",
  "9144": "anes",
  "9145": " utilizando",
  "9146": " caball",
  "9147": " religión",
  "9148": " repeti",
  "9149": " repetid",
  "9150": " repetidamente",
  "9151": " islám",
  "9152": " ib",
  "9153": " iba",
  "9154": " realizar",
  "9155": " incurs",
  "9156": " incursiones",
  "9157": " Aunque",
  "9158": " vasta",
  "9159": "alt",
  "9160": " salv",
  "9161": "ísticos",
  "9162": " artesanos",
  "9163": " cam",
  "9164": " tradición",
  "9165": " moderna",
  "9166": " nuevamente",
  "9167": " ante",
  "9168": " potencia",
  "9169": "go",
  "9170": "ficó",
  "9171": " prácticas",
  "9172": " condujeron",
  "9173": " sistemá",
  "9174": " mog",
  "9175": " mogol",
  "9176": " lej",
  "9177": " lejanos",
  "9178": " tenía",
  "9179": " políticas",
  "9180": " deriv",
  "9181": " ingresos",
  "9182": " pag",
  "9183": " plata",
  "9184": " ingresar",
  "9185": " mercados",
  "9186": " expansión",
  "9187": " sik",
  "9188": "aboración",
  "9189": " reconocimiento",
  "9190": " medida",
  "9191": " bus",
  "9192": " buscar",
  "9193": " político",
  "9194": " empresas",
  "9195": " establecido",
  "9196": " avan",
  "9197": " avanz",
  "9198": " entrenamiento",
  "9199": " factores",
  "9200": " empresa",
  "9201": " lado",
  "9202": " ejército",
  "9203": " ese",
  "9204": " moment",
  "9205": " momento",
  "9206": " restring",
  "9207": "éndose",
  "9208": " convertido",
  "9209": " algún",
  "9210": "yeron",
  "9211": " soberan",
  "9212": " soberanía",
  "9213": " vigil",
  "9214": " canales",
  "9215": "ég",
  "9216": " introdu",
  "9217": " descontent",
  "9218": " descontento",
  "9219": "entim",
  "9220": " terrat",
  "9221": " terraten",
  "9222": " prín",
  "9223": " príncip",
  "9224": " príncipes",
  "9225": " sacudi",
  "9226": " sacudió",
  "9227": " directa",
  "9228": " unitario",
  "9229": " parlamentario",
  "9230": "ardia",
  "9231": "uros",
  "9232": " emergió",
  "9233": " segunda",
  "9234": "endientes",
  "9235": " infra",
  "9236": " infraest",
  "9237": " infraestruct",
  "9238": "yentes",
  "9239": " salud",
  "9240": " ferro",
  "9241": " ferrovi",
  "9242": " redujo",
  "9243": " transporte",
  "9244": " naci",
  "9245": "Entre",
  "9246": " historiador",
  "9247": "igencia",
  "9248": " hambri",
  "9249": " hambrientos",
  "9250": " ninguna",
  "9251": " permaneció",
  "9252": " Por",
  "9253": "oridades",
  "9254": " foment",
  "9255": " exportaciones",
  "9256": " preoc",
  "9257": " preocup",
  "9258": " muer",
  "9259": " sue",
  "9260": " suelo",
  "9261": " Mik",
  "9262": " Mike",
  "9263": " apo",
  "9264": " idea",
  "9265": "ondres",
  "9266": " estaba",
  "9267": " Ro",
  "9268": " Ly",
  "9269": " Lytton",
  "9270": " descrit",
  "9271": "ind",
  "9272": " menos",
  "9273": " posi",
  "9274": " posible",
  "9275": " pueb",
  "9276": " pueblo",
  "9277": " Primer",
  "9278": " sir",
  "9279": " legislación",
  "9280": " convertiría",
  "9281": " victorias",
  "9282": " siguiente",
  "9283": " último",
  "9284": " moder",
  "9285": " termin",
  "9286": " democrática",
  "9287": " mantenido",
  "9288": " liberta",
  "9289": " libertades",
  "9290": " activa",
  "9291": " prensa",
  "9292": " aumentó",
  "9293": "olítica",
  "9294": " desemp",
  "9295": " desempe",
  "9296": "pi",
  "9297": " Cac",
  "9298": " Cache",
  "9299": " Cachemi",
  "9300": " Cachemira",
  "9301": " Tiene",
  "9302": " disputas",
  "9303": " mis",
  "9304": " siendo",
  "9305": "Gobierno",
  "9306": " cualquier",
  "9307": " enero",
  "9308": " bic",
  "9309": " bicam",
  "9310": " bicamer",
  "9311": " bicameral",
  "9312": " tendencia",
  "9313": " resultado",
  "9314": " jefe",
  "9315": " elegido",
  "9316": " indire",
  "9317": " indirect",
  "9318": " indirectamente",
  "9319": " ejer",
  "9320": " ejerce",
  "9321": " funciones",
  "9322": "atiz",
  "9323": " ali",
  "9324": " alianza",
  "9325": " asientos",
  "9326": " parlamento",
  "9327": "presid",
  "9328": "presidente",
  "9329": " Comit",
  "9330": " Comité",
  "9331": " legislativo",
  "9332": " llamada",
  "9333": "Con",
  "9334": " elegidos",
  "9335": " nombran",
  "9336": " ang",
  "9337": " anglo",
  "9338": "-in",
  "9339": "-india",
  "9340": " piens",
  "9341": " piensa",
  "9342": " elig",
  "9343": " eligen",
  "9344": " judicial",
  "9345": " superiores",
  "9346": " jurisdicción",
  "9347": "biernos",
  "9348": " apel",
  "9349": " apro",
  "9350": " mej",
  "9351": " dirig",
  "9352": " Parti",
  "9353": " Partido",
  "9354": " breves",
  "9355": "fr",
  "9356": " ningún",
  "9357": " mando",
  "9358": " Ali",
  "9359": " Alianza",
  "9360": " completo",
  "9361": " generales",
  "9362": " cargo",
  "9363": " tend",
  "9364": " radio",
  "9365": " telev",
  "9366": " televisión",
  "9367": " sat",
  "9368": "él",
  "9369": " plano",
  "9370": " diarios",
  "9371": " representan",
  "9372": " concentra",
  "9373": " hay",
  "9374": " impres",
  "9375": " existe",
  "9376": " propietarios",
  "9377": " involuc",
  "9378": " ambos",
  "9379": " ONG",
  "9380": "SF",
  "9381": " Panda",
  "9382": " Jay",
  "9383": " otro",
  "9384": " información",
  "9385": " periodistas",
  "9386": " aumentado",
  "9387": " temas",
  "9388": "Relaciones",
  "9389": " exteriores",
  "9390": "Desde",
  "9391": " favor",
  "9392": " colonias",
  "9393": " mantenimiento",
  "9394": " Manc",
  "9395": " Mancom",
  "9396": " Mancomun",
  "9397": " Mancomunidad",
  "9398": " Una",
  "9399": " tenido",
  "9400": "asiática",
  "9401": " proporcionado",
  "9402": " personal",
  "9403": " san",
  "9404": " Unidos",
  "9405": " estre",
  "9406": " Amé",
  "9407": " América",
  "9408": " cuarta",
  "9409": "edores",
  "9410": " armas",
  "9411": " equipos",
  "9412": " dependencia",
  "9413": " importaciones",
  "9414": " extranjer",
  "9415": " extranjero",
  "9416": " posteriormente",
  "9417": " octu",
  "9418": " octubre",
  "9419": "iden",
  "9420": " restricciones",
  "9421": " perten",
  "9422": " Internacional",
  "9423": " Derechos",
  "9424": " Human",
  "9425": " Humanos",
  "9426": "rón",
  "9427": " distrit",
  "9428": " distritos",
  "9429": " proces",
  "9430": " geográfica",
  "9431": " actual",
  "9432": " colisión",
  "9433": " debajo",
  "9434": " monta",
  "9435": " montaños",
  "9436": " montañoso",
  "9437": "echo",
  "9438": " Himalaya",
  "9439": " exti",
  "9440": " aráb",
  "9441": " arábigo",
  "9442": " derecha",
  "9443": " rocosas",
  "9444": " algunas",
  "9445": " Islas",
  "9446": " Laque",
  "9447": " Laquedivas",
  "9448": " acuerdo",
  "9449": "grafía",
  "9450": " pantanos",
  "9451": " origen",
  "9452": " pendi",
  "9453": " provo",
  "9454": " inund",
  "9455": " inundaciones",
  "9456": "ficas",
  "9457": " evit",
  "9458": " suroeste",
  "9459": " monz",
  "9460": "ienen",
  "9461": " vientos",
  "9462": " seco",
  "9463": " muest",
  "9464": " muestra",
  "9465": " Como",
  "9466": " anfi",
  "9467": " anfibios",
  "9468": " cubier",
  "9469": " cadu",
  "9470": " caduci",
  "9471": " caducifolio",
  "9472": " masa",
  "9473": " utilizado",
  "9474": "Muchas",
  "9475": " masivo",
  "9476": " extinción",
  "9477": "ráf",
  "9478": " amen",
  "9479": " llega",
  "9480": " promulgó",
  "9481": "unto",
  "9482": " quin",
  "9483": " Biosfera",
  "9484": " anual",
  "9485": " arro",
  "9486": " arroz",
  "9487": " trigo",
  "9488": "jas",
  "9489": " maqu",
  "9490": " maquin",
  "9491": " soft",
  "9492": " softwar",
  "9493": " software",
  "9494": " relativamente",
  "9495": " paridad",
  "9496": " adquisi",
  "9497": " adquisitivo",
  "9498": " doble",
  "9499": " tip",
  "9500": " tipos",
  "9501": "PPA",
  "9502": " cuestión",
  "9503": " convirtiendo",
  "9504": " empleos",
  "9505": " disminuyó",
  "9506": " incor",
  "9507": " incorpor",
  "9508": " laboral",
  "9509": " desemple",
  "9510": " menores",
  "9511": " estad",
  "9512": " estadís",
  "9513": " siguen",
  "9514": " aus",
  "9515": " barrios",
  "9516": " niños",
  "9517": " internacional",
  "9518": " Ban",
  "9519": " Banco",
  "9520": " día",
  "9521": " Rp",
  "9522": " urbanas",
  "9523": "asas",
  "9524": " públ",
  "9525": " público",
  "9526": " normas",
  "9527": "dios",
  "9528": " integ",
  "9529": " integral",
  "9530": "ficialmente",
  "9531": " gast",
  "9532": " subsi",
  "9533": " hor",
  "9534": " ''",
  "9535": " innovación",
  "9536": " ubicó",
  "9537": ".​​​",
  "9538": " médicos",
  "9539": "volución",
  "9540": "mig",
  "9541": " mano",
  "9542": " comunidades",
  "9543": " hinduistas",
  "9544": " Otros",
  "9545": " cristi",
  "9546": " cristianos",
  "9547": " jainistas",
  "9548": " alf",
  "9549": " alfabe",
  "9550": " alfabetiz",
  "9551": " alfabetización",
  "9552": " demog",
  "9553": " lingüísticas",
  "9554": "hab",
  "9555": "habl",
  "9556": "hablada",
  "9557": " %).",
  "9558": " hablantes",
  "9559": " cen",
  "9560": " censo",
  "9561": "éase",
  "9562": "lenguas",
  "9563": "cidas",
  "9564": " respet",
  "9565": " respetados",
  "9566": " matrimonio",
  "9567": " var",
  "9568": " prend",
  "9569": " prendas",
  "9570": " celebra",
  "9571": " celebraciones",
  "9572": " celebran",
  "9573": " casta",
  "9574": " fiestas",
  "9575": " Eid",
  "9576": " festivos",
  "9577": " Día",
  "9578": " turismo",
  "9579": "ronom",
  "9580": "ronomía",
  "9581": " especi",
  "9582": " especias",
  "9583": " carn",
  "9584": " na",
  "9585": " bh",
  "9586": "vegetari",
  "9587": "vegetarianos",
  "9588": " comunes",
  "9589": " comidas",
  "9590": " gén",
  "9591": "mentos",
  "9592": " folc",
  "9593": " folcl",
  "9594": " folcló",
  "9595": " folclóric",
  "9596": " Occid",
  "9597": " Occidental",
  "9598": " Oriss",
  "9599": " Orissa",
  "9600": " kath",
  "9601": " kathak",
  "9602": " noticias",
  "9603": " cinem",
  "9604": " cinemat",
  "9605": " cinematog",
  "9606": " cinematográfica",
  "9607": " realizan",
  "9608": "lí",
  "9609": " Maj",
  "9610": " cés",
  "9611": " césped",
  "9612": " administrado",
  "9613": " Fede",
  "9614": " Federación",
  "9615": " equipo",
  "9616": " Cam",
  "9617": " Campe",
  "9618": "lección",
  "9619": "iga",
  "9620": " fútbol",
  "9621": " deportes",
  "9622": ":India",
  "9623": " Comm",
  "9624": " Commons",
  "9625": " multime",
  "9626": " multimedia",
  "9627": "ajes",
  "9628": " Portal",
  "9629": " Of",
  "9630": " officially",
  "9631": " sevent",
  "9632": " seventh",
  "9633": " Boun",
  "9634": " Bounded",
  "9635": " southeast",
  "9636": " shares",
  "9637": " Bhut",
  "9638": " Bhutan",
  "9639": " Maldi",
  "9640": " Maldives",
  "9641": " mari",
  "9642": " maritime",
  "9643": " border",
  "9644": " arrived",
  "9645": " predominant",
  "9646": " predominantly",
  "9647": " Settled",
  "9648": " evolving",
  "9649": " da",
  "9650": " dawn",
  "9651": " dawnings",
  "9652": "-existing",
  "9653": " proc",
  "9654": " proclaiming",
  "9655": " orders",
  "9656": " unl",
  "9657": " unlin",
  "9658": " unlinked",
  "9659": " heredity",
  "9660": " consolidations",
  "9661": " Empi",
  "9662": " Empires",
  "9663": " flourish",
  "9664": " flourishing",
  "9665": " writing",
  "9666": " declined",
  "9667": " organised",
  "9668": " scripts",
  "9669": " Juda",
  "9670": " Judaism",
  "9671": " intermit",
  "9672": " intermittent",
  "9673": " intermittently",
  "9674": " cosmo",
  "9675": " cosmop",
  "9676": " cosmopol",
  "9677": " cosmopolit",
  "9678": " cosmopolitan",
  "9679": " networks",
  "9680": "-lasting",
  "9681": " compos",
  "9682": " composite",
  "9683": " reject",
  "9684": " rejecting",
  "9685": " institutional",
  "9686": " institutionalised",
  "9687": " ushered",
  "9688": " architect",
  "9689": " architectural",
  "9690": " legacy",
  "9691": " Grad",
  "9692": " Gradually",
  "9693": " consolidated",
  "9694": " Crown",
  "9695": " promised",
  "9696": " granted",
  "9697": " slowly",
  "9698": " technological",
  "9699": " roo",
  "9700": " root",
  "9701": " movements",
  "9702": " Noted",
  "9703": " resist",
  "9704": " resistance",
  "9705": " partitioned",
  "9706": " dominions",
  "9707": " unpre",
  "9708": " unpreced",
  "9709": " unprecedent",
  "9710": " unprecedented",
  "9711": " accomp",
  "9712": " accompani",
  "9713": " accompanied",
  "9714": " governed",
  "9715": " pluralistic",
  "9716": " multilingual",
  "9717": "-ethnic",
  "9718": "601",
  "9719": " hub",
  "9720": "-we",
  "9721": "-weap",
  "9722": "-weapon",
  "9723": " rank",
  "9724": " ranks",
  "9725": " expendi",
  "9726": " expenditure",
  "9727": " neighbours",
  "9728": " socio",
  "9729": " challeng",
  "9730": " challenges",
  "9731": " faces",
  "9732": " malnutrition",
  "9733": " rising",
  "9734": " vie",
  "9735": " viewed",
  "9736": " tol",
  "9737": " toler",
  "9738": " tolerance",
  "9739": " habitats",
  "9740": "Ac",
  "9741": "According",
  "9742": " Ox",
  "9743": " Oxfor",
  "9744": " Oxford",
  "9745": " Dic",
  "9746": " Diction",
  "9747": " Dictionary",
  "9748": " proper",
  "9749": " noun",
  "9750": " derives",
  "9751": " Lat",
  "9752": " Latin",
  "9753": " reference",
  "9754": " loosely",
  "9755": "-def",
  "9756": "-defined",
  "9757": " stre",
  "9758": " stret",
  "9759": " stretch",
  "9760": " stretching",
  "9761": " Further",
  "9762": " etym",
  "9763": " etymons",
  "9764": " Hell",
  "9765": " Hellen",
  "9766": " Hellenistic",
  "9767": "Ἰνδί",
  "9768": "Ἰνδί�",
  "9769": "Ἰνδία",
  "9770": " Indos",
  "9771": "Ἰνδ�",
  "9772": "Ἰνδό",
  "9773": "Ἰνδό�",
  "9774": "Ἰνδός",
  "9775": " Ri",
  "9776": " River",
  "9777": " Achaemenian",
  "9778": " province",
  "9779": " Achaemenid",
  "9780": "river",
  "9781": " specific",
  "9782": " specifically",
  "9783": " extension",
  "9784": "-settled",
  "9785": " Greeks",
  "9786": " referred",
  "9787": " Indoi",
  "9788": "Bhārat",
  "9789": " pron",
  "9790": " pronoun",
  "9791": " pronounced",
  "9792": "ˈbʱa",
  "9793": "ˈbʱaː",
  "9794": "ˈbʱaː�",
  "9795": "ˈbʱaːɾ",
  "9796": "ˈbʱaːɾ�",
  "9797": "ˈbʱaːɾə",
  "9798": "ˈbʱaːɾət",
  "9799": " ),",
  "9800": " mention",
  "9801": " mentioned",
  "9802": " epic",
  "9803": " poetry",
  "9804": " variations",
  "9805": " render",
  "9806": " rendering",
  "9807": " Bharatav",
  "9808": " Bharatavar",
  "9809": " Bharatavarsha",
  "9810": " native",
  "9811": "Hindust",
  "9812": "Hindustan",
  "9813": " ([",
  "9814": "ɦ",
  "9815": "ɦ�",
  "9816": "ɦɪ",
  "9817": "ɦɪnd",
  "9818": "ɦɪnd�",
  "9819": "ɦɪndʊ",
  "9820": "ɦɪndʊˈ",
  "9821": "ɦɪndʊˈsta",
  "9822": "ɦɪndʊˈstaː",
  "9823": "ɦɪndʊˈstaːn",
  "9824": " )",
  "9825": " Hindustan",
  "9826": " varied",
  "9827": " referring",
  "9828": " encomp",
  "9829": " encompassing",
  "9830": "pres",
  "9831": "present",
  "9832": " entire",
  "9833": " entirety",
  "9834": "Based",
  "9835": " coales",
  "9836": " coalesc",
  "9837": " coalescence",
  "9838": " Mit",
  "9839": " Mitoch",
  "9840": " Mitochond",
  "9841": " Mitochondri",
  "9842": " Mitochondrial",
  "9843": " DN",
  "9844": " DNA",
  "9845": " Chrom",
  "9846": " Chromos",
  "9847": " Chromosome",
  "9848": " line",
  "9849": " lineages",
  "9850": " anatomically",
  "9851": " likeli",
  "9852": " likeliho",
  "9853": " likelihood",
  "9854": " initially",
  "9855": " varying",
  "9856": " gene",
  "9857": " genetic",
  "9858": " fos",
  "9859": " fossils",
  "9860": " date",
  "9861": " Evidence",
  "9862": " neol",
  "9863": " neolith",
  "9864": " neolithic",
  "9865": " Baloch",
  "9866": " Balochistan",
  "9867": " dates",
  "9868": " Domestic",
  "9869": " Domestication",
  "9870": " grain",
  "9871": "-pro",
  "9872": "-produc",
  "9873": "-producing",
  "9874": " plants",
  "9875": " barle",
  "9876": " barley",
  "9877": " humped",
  "9878": " zeb",
  "9879": " zebu",
  "9880": " evolved",
  "9881": " flourished",
  "9882": " Centred",
  "9883": " Gan",
  "9884": " Ganwer",
  "9885": " Ganweriw",
  "9886": " Ganweriwala",
  "9887": " Rakh",
  "9888": " Rakhigar",
  "9889": " Rakhigarhi",
  "9890": " weigh",
  "9891": " weights",
  "9892": " steati",
  "9893": " steatite",
  "9894": " plann",
  "9895": " planning",
  "9896": " craf",
  "9897": " crafts",
  "9898": " potter",
  "9899": " pottery",
  "9900": " terra",
  "9901": " terraco",
  "9902": " terracot",
  "9903": " terracotta",
  "9904": " statu",
  "9905": " statuettes",
  "9906": " Networks",
  "9907": " agro",
  "9908": "-pastoral",
  "9909": "Between",
  "9910": "150",
  "9911": " evidence",
  "9912": " Rig",
  "9913": " Veda",
  "9914": "—the",
  "9915": " scripture",
  "9916": "—wh",
  "9917": "—which",
  "9918": "-speak",
  "9919": "-speaking",
  "9920": " tribes",
  "9921": " migrat",
  "9922": " migrating",
  "9923": " Af",
  "9924": " Afg",
  "9925": " Afghan",
  "9926": " Afghanistan",
  "9927": " sett",
  "9928": " settling",
  "9929": " swath",
  "9930": " swathes",
  "9931": " system's",
  "9932": " adjo",
  "9933": " adjoining",
  "9934": " defor",
  "9935": " deforested",
  "9936": " fires",
  "9937": " employing",
  "9938": " iron",
  "9939": " implements",
  "9940": " prepared",
  "9941": " driving",
  "9942": " preexisting",
  "9943": " ensl",
  "9944": " enslav",
  "9945": " enslaving",
  "9946": "-divide",
  "9947": " spok",
  "9948": " spoken",
  "9949": " refined",
  "9950": " gramma",
  "9951": " grammatical",
  "9952": " emerge",
  "9953": " codi",
  "9954": " codified",
  "9955": " A�",
  "9956": " Aṣ",
  "9957": " Aṣ�",
  "9958": " Aṣṭ",
  "9959": " Aṣṭā",
  "9960": " Aṣṭādh",
  "9961": " Aṣṭādhy",
  "9962": " Aṣṭādhyā",
  "9963": " Aṣṭādhyāy",
  "9964": " Aṣṭādhyāy�",
  "9965": " Aṣṭādhyāyī",
  "9966": " ('",
  "9967": "Eight",
  "9968": " chapters",
  "9969": "')",
  "9970": " Pā",
  "9971": " Pāṇ",
  "9972": " Pāṇini",
  "9973": " epics",
  "9974": " Mahā",
  "9975": " Mahābh",
  "9976": " Mahābhārat",
  "9977": " Mahābhārata",
  "9978": " Rā",
  "9979": " Rām",
  "9980": " Rāmā",
  "9981": " Rāmāya",
  "9982": " Rāmāyaṇ",
  "9983": " Rāmāyaṇa",
  "9984": " story",
  "9985": " storytell",
  "9986": " storytelling",
  "9987": " registers",
  "9988": " Epic",
  "9989": " rough",
  "9990": " roughly",
  "9991": " contemporary",
  "9992": "  \n",
  "9993": " taken",
  "9994": " differenti",
  "9995": " differentiation",
  "9996": "-millennium",
  "9997": " teach",
  "9998": " teachings",
  "9999": " Both",
  "10000": " stressed",
  "10001": " abj",
  "10002": " abjured",
  "10003": " sacrific",
  "10004": " sacrifices",
  "10005": " Brahman"
}